#version: 0.2
i e
Ġ p
č Ċ
s t
Ġ w
Å Ĥ
a n
o w
Ä ħ
c z
Ä Ļ
Ġ z
n a
c h
Ã ³
Ġ s
r z
Å ¼
n i
Ġ d
r a
Ġ i
Ġ o
Ġ t
Å Ľ
Ġ m
Ġ k
n ie
Ġ Ġ
r o
Ġp o
a r
n e
l i
Ä ĩ
j e
i a
r e
s z
Ġ na
| >
< |
d z
l e
n y
rz e
g o
k a
Ã³ w
e r
i ÄĻ
k i
Ġ b
c i
Ġd o
e n
Ġ a
Ġz a
t y
m i
j a
o r
j Äħ
Ġ u
ÅĤ a
Ġw y
Ġ je
o ÅĽ
rz y
o n
Å¼ e
l a
c e
Ġ 1
w a
t u
t e
s s
st a
m e
k o
y ch
Ġm o
l u
t a
Ġp rze
ni a
w o
Ġs iÄĻ
ow a
d a
â Ģ
c j
m a
g e
r y
Å Ħ
Ġ (
ar t
ĠĠ ĠĠ
b y
ow an
Ġ P
Ġ nie
Ġ f
c y
k u
cz y
k ie
Å¼ y
p o
Ġ ro
cz e
t Ã³
Ġ g
l o
Ġo d
oÅĽ ci
Ġ st
i n
w i
Ġk tÃ³
Ġ c
d y
Ġje st
ÅĤ o
ny ch
Ġ ja
Ġ W
ow e
s ki
z y
d e
cj i
Ġt e
a ge
c ie
r u
Ġk o
st art
ss age
me ssage
Ġt o
Ġi n
Ġ âĢ
Ġ S
dz ie
ÅĤ y
f i
Ġ M
m y
t o
Ġ e
n o
Ġm a
w ie
Ġ čĊ
m ie
an ia
Ġp rzy
Ġ lu
Ġ A
r Ã³
u s
Ġ 2
an ie
Ġ T
Ġp ro
i st
u n
jÄħ c
Ġ C
dz i
cz a
Ġ J
p e
Ġb y
Ġpo d
Ġ re
Ġ li
i s
ĠĠ Ġ
sz e
Ġo b
c a
Ġt a
o b
Ġ Å¼e
e m
Ġ "
Ġ B
Ġro z
Ġ ÅĽ
ow ie
ow y
Ġ K
oÅĽ Äĩ
|> <|
Ġlu b
Ġ =
tu r
d u
Ġ N
ni k
na l
ĠâĢ ĵ
g a
z a
p a
Å º
sz y
m u
c ja
Ġ1 9
n Äħ
g i
en d
an i
cz ne
ÅĤ u
m o
w ia
Ġ D
ra z
Ġt y
Ġja k
Ġmo Å¼e
an t
Ġd z
tur n
n oÅĽci
. <|
Ġs z
s i
Ġ h
" :
Ġ Z
Ġ R
k ow
k t
Ġ r
en t
an e
ny m
Ġa by
p ra
Ġ O
Ġp ra
ĠktÃ³ re
st ÄĻ
s p
a ss
u r
i l
s ka
ch an
us er
ne l
d o
k ÅĤa
0 0
re turn
chan nel
fi nal
ist ant
ass istant
owa Äĩ
s y
p u
ie r
c ia
Ġk on
t er
Ġ ch
s u
ne j
Ġ cz
a l
Ġd la
Ġw ie
w y
ne go
an a
* *
Ġs Äħ
Ġ I
s kie
ĠP o
r i
t i
Ġk a
Ġ n
Ġ \
Ġ G
Ġs po
Ġ czy
ÅĤ e
Ġc o
j ÄĻ
st o
u m
b i
ÅĽ ci
Ġp a
Ġ L
nie j
Ġ -
Ġz na
dz e
st y
un k
Ġmo g
Ġprze z
ÅĽ li
ĠĠĠĠ ĠĠĠ
Ġs wo
Ġp ow
p i
s e
Ġ 3
s a
k re
ow ych
w e
ch o
Ġm ie
Ġu Å¼y
d ni
h e
Ġr Ã³w
Ġ E
z u
Ġz e
owan ia
p owie
Ġje d
an y
Ġ F
Ã³ ÅĤ
c je
rÃ³ Å¼
Ġby Äĩ
cz Äħ
b a
p ie
b ie
owan ie
" ,
cza s
Ġ U
Ġ H
Ġd e
ni ka
t h
o l
n oÅĽÄĩ
ĠJ e
kÅĤa d
Ġ le
k Ã³w
wi Äħ
Ġdz ie
Ġm e
Ġ sta
wa Å¼
an ych
` `
Ġli cz
ÅĤ Äħ
er y
sz a
g u
r owa
cj ÄĻ
ĠktÃ³ ry
Ġo raz
k ty
g ra
jÄħ ce
Ġ +
owe j
r an
o sta
Ġ ni
stÄĻ p
i o
z m
t kow
Ġna j
b o
Ġ ce
a d
Ġ $
le m
Ġb ar
Ġ go
e z
Ġs p
b li
ĠN a
Ġpo l
dz y
cy j
Ġs a
Ġf unk
Ġw i
ow o
an d
f or
s o
owe go
Ġw z
w Ã³
Ġm i
ÅĦ ski
ia ÅĤ
m p
Ġo p
Ġw o
âĢ Ŀ
c o
w iÄĻ
dzie j
Ġ1 8
Ġpo t
Ġs y
rz Äħ
e j
Ġ ar
d Åº
Ġw iÄĻ
te m
Ġ rÃ³Å¼
e l
Ġpo z
ni u
Ġw sp
ow i
Ġmog Äħ
ĠâĢ ŀ
ti on
Ġ 4
Ġty m
o ne
ki ch
ÄĻ d
t or
Ġw p
a ÅĤ
ci Äħ
st e
k Äħ
{ "
Ġ 5
cz nych
b u
ro d
Ġmo Å¼
Ġf i
Ġ ra
t Ã³w
Ġja ko
ĠĠ čĊ
j u
Ġp ier
Ġi ch
in g
) ,
ÅĽ cie
Ġ `
ny mi
? <|
Ġst o
Ġ Å¼y
iÄĻ dzy
c u
a k
) .
Ġt wo
Ġ2 0
z na
nie Å¼
Ġta k
Ġ lo
Ġbar dziej
ÅĤ Ã³w
a t
o na
jÄħ cy
cze nie
wiÄħ z
Ġ .
Ġz d
c ki
Ġprze d
Ġw art
Ġod powie
u l
ĠM o
p y
Ã³ l
Ġ la
j s
ĠrÃ³w nieÅ¼
cze nia
Ġt he
owan e
k tu
Ġswo je
pra w
Ġz osta
Ġs u
s po
Ġo s
Ġf or
Ġa le
Ġo g
si Äħ
ia ÅĤa
ĠZ a
f e
Ġd anych
Ġb ez
Ġje go
dz a
ÅĽ Äĩ
Ġm iÄĻdzy
ÅĦ st
ĠktÃ³ ra
l ar
nik Ã³w
Ġpol ski
Ġ rze
Ġp i
szy st
e d
ne r
skie go
cz nie
Ġcz ÄĻ
Ġka Å¼
ĠT o
Ġs k
Ġ **
st u
stÄĻ pu
Ġo f
Ġw a
li ty
or y
P o
w ania
Ġg dy
g l
st em
ni Äĩ
pe w
e k
s ie
Ã³ b
Ġ czas
owan y
Ġd a
u d
Ġwy ko
ĠW y
t rzy
Ġw ÅĤa
en ty
o ny
Ġd u
i i
c t
N a
ani u
Ã³ r
kie m
ni ÄĻ
Ġb a
p is
Ġw szyst
ar y
Ġwy da
dze nia
Ġpra w
j i
ow Äħ
Ġ Å
k ÄĻ
Ġpier w
ĠJ a
z e
for ma
ÅĤ em
g ie
u t
Ġro ku
m ery
ĠÅĽ wia
Ġ 0
rz ÄĻ
Ġp re
cz ny
li w
Ġ 6
i ch
lo ra
ob ie
sz Äħ
Ġb i
re n
czne j
U Å¼y
Ġje j
Ġb o
`` `
er s
ĠĠĠĠ ĠĠĠĠĠĠĠ
i m
de j
Ġlicz b
Ġp u
owy m
Ġm u
r Ã³w
Ġo kre
on o
n ÄĻ
a m
Ġ '
ma ty
Ġte go
Ġa l
Ġpo lity
l ne
ĠC h
tkow nik
Ġko m
a li
st rze
p rze
p ro
u je
Ġp e
pa d
Ġg ru
Ġe k
ÅĤ ÄĻ
V e
kty w
Ġspo s
j ski
l an
Ġ x
} }
Ġ ge
Ġspo ÅĤe
sta w
wie r
Ġta kie
Ġh ist
k ry
Ġwp ÅĤy
sz ych
Ġst ro
en ta
in t
Ġw e
mery ka
ka rz
nie waÅ¼
Ġo r
UÅ¼y tkownik
Äħ c
Ġm ia
Ġk lu
czne go
Ve lora
ra c
Ġ Å¼
Ġz w
ty w
jÄħc ych
ĠR o
** :
Ġz mie
s ko
cz u
Ġna d
l ko
na k
s iÄĻ
dzi Äĩ
lo gi
Ġpro du
Ġz wiÄħz
Ġfunk cji
Ġ ry
re s
dze nie
Ġd y
c k
Ġmie js
ĠM a
s k
Ġk il
Ġp owie
or t
d nie
rz a
Ġte k
Ġa meryka
ĠN ie
) :
ÄĻ dzie
wa Äĩ
Ġdo da
i d
Ġin te
t ni
ce j
Ġt ra
t k
ra l
Ġjed no
s er
Ġ {
cz na
e t
Ġst wo
Ġtak Å¼e
ma t
ĠS t
Ġ an
d i
ĠmoÅ¼e sz
na me
no si
Ġ 8
Ġz ro
te go
Ġpo mo
Ġty lko
skie j
w ar
kow i
te k
Ġ 7
r ÄĻ
ĠD o
m ia
czy Äĩ
Ġs ku
sz ta
": "
J e
cz ÄĻ
Ġd ru
ie n
v a
s c
e c
ÅĽ wia
Ġw ska
Ġpo sta
r ani
Ġin forma
Ġs ie
Ġpot rze
Ġm us
Ġna u
i u
le Å¼
wiÄĻ k
Ġpo m
ni ki
le j
kt or
lo g
sz ÄĻ
s ÅĤu
Ġ1 0
Ġwsp Ã³ÅĤ
ma l
me t
ĠmoÅ¼ na
Ġ ciÄħ
c Äħ
ri p
Ġc aÅĤ
jÄĻ zy
Ġwart oÅĽci
Ġwyko rzy
st r
Ġta kich
Ġ no
Ġm y
c Ã³w
Ġsz cze
Ġza ch
k on
l ÄĻ
Ġp y
Ġt en
Ġb ÄĻdzie
Ġ2 00
p re
en cja
o m
Ġ <
Ġby ÅĤ
Ġ {"
q u
Ġprzy kÅĤad
rze nia
ĠK a
ty pe
m Ã³w
Ġpro b
ĠP ro
Ġdo ty
g ÅĤ
g um
Ġdz iaÅĤa
Ġ V
mu je
v e
an s
g ani
Ġ jÄĻzy
st Äħ
Ġte ch
Ġd ÅĤu
- -
li z
ma ga
Ġje ÅĽli
Å¼ a
Ġz mi
Ġe lem
o d
n g
Ġna stÄĻpu
Ġklu cz
li za
Ġpo dej
w anie
Ġza pew
cz noÅĽci
Ġpi ÅĤ
rzy Äĩ
O d
dz ia
Ġa u
k s
Ġst an
1 9
Ġp rowa
sc rip
ĠÅĽ rod
Ġm ar
en tu
ra k
Ġ ÅĤa
wÃ³ j
ÅĤo Å¼
ĠJe ÅĽli
r Äħ
o nych
Ġ [
Ġs ÅĤ
Ġk la
s ÅĤa
g ÄĻ
m niej
Ġ ana
ÅĽwia d
Ġni Å¼
Ġw ar
sto s
Ġspos Ã³b
n u
2 0
t rz
ÅĽ nie
pe ra
f a
ĠI n
h a
Ġpolity k
Ġ and
Ġsz e
Ġ 9
Ġc ie
Ġdo b
st nie
( )
Ġsa mo
szta ÅĤ
Ġt ych
Ġpo niewaÅ¼
Ġpod czas
Ġd ane
ow ia
sze j
st ru
ĠâĢ Ķ
o nal
Ġk ra
Ġ ru
ch a
ĠK o
scrip tion
st ar
s ÅĤ
zu mie
Ġszcze g
p rowa
Ġf a
Ġp is
ce s
or u
de scription
", "
te l
Ġpro je
Ġos ob
Ġkil ka
ĠMo Å¼e
wie ra
Ġdo ÅĽwiad
owa ÅĤ
ĠT wo
Ġte j
Ġ *
kie go
ĠA n
f rac
ar d
cz nÄħ
Ġc a
je m
Ġs pe
Ġhist or
Ġ1 7
Äħ d
Ġg dzie
r ych
ĠcaÅĤ kowi
rÃ³ d
g h
an o
ĠP a
Ġch o
Ġg ÅĤÃ³w
1 0
kt Ã³w
W y
Ġzna j
Ġin ter
n owa
ci u
Ġ X
czy wi
Å¼e nia
z ie
ĠM ar
po d
owan a
Ġameryka ÅĦski
ry ty
t ro
st an
Å¼e nie
Ġ1 5
ĠT e
c ÄĻ
Ġ ne
Ġs e
sta wie
t ne
szy m
ĠwiÄĻ k
ĠÅĽ wie
Ġk rÃ³
re m
pra wi
powie dÅº
Z a
} {
ĠP rze
Ġdoty czÄħ
Ġce lu
cz nym
m iÄĻ
Ġ y
re dni
Ġme to
owan iu
ĠmoÅ¼ liw
Ġprzy pad
Ġob ie
ow is
Ġ /
stÄĻp nie
l l
d ra
Ã³ c
Ġwy b
kie j
sz cze
ne k
Ġfi r
ĠĠĠĠ ĠĠĠĠ
sze go
Ġ cy
Ġma jÄħ
b er
Ġpy t
ch y
gum ent
le nie
le nia
Ġ raz
Ġo siÄħ
Ġwy wo
re d
Ġmus i
ta ch
Ġnie z
r int
Ġ cza
ĠwiÄĻ cej
ĠczÄĻ sto
Ġpra cy
Ġzna le
Od powiedÅº
o s
w ane
Ġk ie
. "
Ġs obie
ÅĽ l
t ki
Ġpom Ã³c
m ent
Ġza wiera
Ġg ra
Ġk u
ĠT a
l ien
Ġprze ci
Ġwy nosi
ĠPo l
k cji
i r
c ent
Ġst y
ni j
dz iaÅĤ
un t
ĠpiÅĤ karz
la cji
ka ch
ÅĦst wa
ka mi
l y
lu e
Ġf il
Ġi stnie
Ġst ra
Ġ20 1
k tÃ³
Ġu wa
Ġs er
ĠW ie
Ġpro gra
Ġpo cho
Ġpu bli
sz u
l nych
t nie
ro n
ĠR e
Ġ19 4
fi k
Ġwp rowa
Ġ1 6
ĠC zy
Ġi s
nÄħ Äĩ
Ġk ro
Ġzosta ÅĤ
Ġg a
ar Ã³w
te ra
ĠwpÅĤy w
t ra
ĠL e
Ġin nych
. .
Ġo zna
": {"
Ġzro zumie
rze nie
z o
A by
li ka
Ġna z
Ã³ j
p er
c jÄħ
g er
Ġo k
Ġo n
Ġob li
Ġsto s
ĠÅ ļ
ni i
Ġ1 2
Ġwy ra
d Ã³w
Ġ |
b e
ĠrÃ³Å¼ nych
Ġt re
i Äħ
Ġ ci
t r
Ġko nie
Ġa ktor
Ġby ÅĤo
ĠJe d
rz u
ÅĽ my
gi i
# #
h i
) ;
Ġdo stÄĻp
d ÅĤ
} ,
Ġ ju
g ro
Ġre turn
to ol
Ġna rzÄĻ
Ġ\ (
o k
Ġsy stem
Ġz bi
ce p
Ġ19 9
Ġpot encja
Å¼y Äĩ
mi n
h o
de m
ĠmoÅ¼e my
v er
Ġby ÅĤa
go d
Ġwy so
dz o
Ġnie mie
Ġk lien
Ġzd r
Ġko rzy
ÅĦ ska
st ra
ĠrÃ³Å¼ ni
i t
Ġpa ra
Ġb ad
Ġs zy
u jÄħc
d er
Ġla t
Ġek sp
Ġrze czywi
Ġzmie n
J a
Ġor gani
Ġk ul
le n
Ġpow in
t wo
mie r
Ġczy n
dz Äħ
so by
Ġte mat
Ġpoz osta
ĠosiÄħ g
Ġs i
Ġlo ka
ga Å¼
( "
Ġpo le
00 0
Ġ cze
Ġp rÃ³
Ġz do
Ġs o
Ġsz tu
âĢ ĵ
da Äĩ
Ġlicz by
I I
ĠB o
Ġe ner
Ġo ko
ĠÅĽwia t
Ġ v
Ġp la
Ġb u
ty ch
Ġo sta
Ġs praw
Ġpo my
owan ych
Ġprze strze
anie m
dz in
rzÄħ d
Ġst ru
ĠdÅĤu go
st wa
Ġpow o
u ro
Ġu mie
Ġmie sz
Ġze spo
Ġby ÅĤy
Ġt rze
t noÅĽci
Ġ #
Ġstwo rzyÄĩ
ĠJ o
ĠwÅĤa s
Ġmo de
ĠktÃ³ rych
Ġpo czÄħ
Ġt ran
k ro
do pod
z ji
Ġ19 3
Ġwz ro
ĠR a
Ġob ej
Ġi f
Ġb ud
cyj ne
Ġu zy
Ġcz ÅĤ
Ġpra c
sz cz
le Å¼y
Ġwart oÅĽÄĩ
do m
Ġtek st
d ÄĻ
ta mi
Ġz ÅĤoÅ¼
Ġt h
Ġh i
âĢ Ķ
Ġswo ich
ob a
Ġi mp
du je
Ġja kie
c tion
k ar
mia st
Ġ jÄħ
Ã³ d
Ġokre ÅĽ
zu je
ra ca
Ġko lej
ko ÅĦ
Ġa t
Ġt u
Ġlicz ba
Ġwa Å¼
Ġod p
Ġsp rze
Ġw ej
ĠktÃ³ry m
Ġb ra
Ġop is
Ġg ÅĤÄĻ
s ia
Ġo ce
Ġt ÄĻ
pre z
st ro
fi ka
Ġa s
ĠS z
gh t
Ġi m
s cy
Ġpo prze
Ġp unk
Ġpo ÅĤÄħ
Ġko sz
ĠwiÄĻ c
Ġroz po
Ġi sto
Ġp ie
Ġwo j
Ġwie le
Ġdz iaÅĤ
ĠA r
ki m
Ġprzeci w
Ġtwo je
Ġm niej
czy n
Ġz wiÄĻk
Ġ ÅĤÄħ
Ġ19 8
s ku
Ġh a
Ġp lan
Ġko ÅĦ
m an
ÅĤy m
ĠuÅ¼y tkow
cz ni
Ã³l nie
wa ÅĤ
ĠkaÅ¼ dy
Ġte Å¼
Ġu sta
jÄħce go
Ġwie l
P rzy
Ġf ran
ĠPo d
Ġm Ã³
ski ch
a ra
nÄĻ trz
o t
tu ry
Ġk wa
Ġde cy
t Äħ
mie ni
ĠM i
Ġwszyst kie
l f
Ġliczb ÄĻ
Ġswoje j
Ġpod stawie
k sztaÅĤ
Je ÅĽli
Ġdo star
Ġob ec
x t
Ġposta ci
Ġk ar
le p
th on
ĠÅ¼y cia
ch e
ĠÅĽrod owis
pe ÅĤ
nie nia
k oÅĽci
Ġod kry
Å¼e j
Ġo trzy
Ġ19 7
ĠA le
t ka
va lue
on Äħ
da ÅĦ
Å¼ li
wie t
I n
or Ã³w
Ġpoz io
ĠP rzy
ru d
ro m
n um
Ġp ar
Ġd ro
ÅĽ cia
te maty
Ġkon kre
w u
re a
w nÄĻtrz
wa la
k e
we t
k sy
Ġstro ny
nie nie
Ġe le
Ġpod staw
Ġjed nak
Ġd wa
Ġp ÅĤy
Ġp iÄĻ
ch u
Ġar ty
ÅĦst wo
C zy
ĠC o
Ġpraw dopod
Ġp un
Ġsz ko
Ġpe w
on u
or d
ar gument
ĠuÅ¼y wa
ĠO d
ĠPro szÄĻ
Ġswo jÄħ
Ġwszyst kich
Ġ }
Ġju Å¼
to li
ĠF ran
1 2
n ow
Ġs ÅĤu
Ġznale Åº
pi sz
Ġko mu
Ġpo pu
Ġos Ã³b
Ġw ÄĻ
ĠL i
` ,
ĠwÅĤa ÅĽci
en cji
Ġz ie
ĠspoÅĤe cznoÅĽci
Ġprob lem
Ġcza su
Ġb ÄĻd
z i
Ġwie ku
Ġprzypad ku
Ġdo kÅĤad
ĠO to
el f
Ġuwa gÄĻ
sze ch
Ġof er
Ġs pra
Ġza pa
ne t
Ġb ie
Ġ19 2
in te
Ġma tematy
Ġge ne
ch i
> >
Å¼ Äħ
Ġdru gie
$ ,
ku p
Ġin t
jÄħcy m
owy mi
za cji
Ġszy b
pa ra
ĠkaÅ¼ de
1 8
da w
_ _
gl ÄĻ
Ġza d
ĠznaleÅº Äĩ
f un
. ",
Ġk siÄħ
Ġelem ent
Ġs elf
Ġroz wiÄħ
Ġinforma cji
pra c
Ġpo czu
Ġpotrze b
kÅĤa da
Ġwie lo
Ġozna cza
c ka
Ġpo zy
sy stem
jÄħc Äħ
Ġmu zy
ko m
Ġu trzy
Ġfi zy
Ġt rzy
t ku
cz o
Ġ19 6
N ie
ĠktÃ³re j
ĠciÄħ g
ĠczÄĻ ÅĽci
Ġ â
t ÄĻ
Ġre prez
Ġprzy ja
Ġczas ie
Ġu nika
Ġprob le
Ġna wet
z n
to ra
st anie
5 0
na j
Ġw ÅĤo
ĠktÃ³ rzy
Ġbar dzo
t wa
Ġ1 4
Ġmia sta
ry t
Ġe fe
Ġtech no
ta j
Ġwy maga
Ġst wier
Ġnie ktÃ³
d ar
cj onal
Ġog rani
Ġpe ÅĤ
t ar
Ġfunk cjÄĻ
ĠP y
ca ll
ch ow
ĠdotyczÄħ ce
wo d
Ġa d
n ku
cze s
Ġsku te
Ġza w
Ġ Åº
ÅĤo by
ci Äĩ
ÅĤ oÅĽci
Ã ©
ni o
na mi
Ġc iÄĻ
w z
logi i
Ġza stos
ĠD a
sz cza
py thon
r ow
po zy
' ,
Ġroz wiÄħz
Ġs ko
ĠRo z
Ġpo praw
ski m
l noÅĽci
Ġna p
Ġb e
Ġd wÃ³
Ġpoz wala
Ġza sa
Ġdzie dzi
Ġroz wi
Ġog Ã³l
b ra
Ġ ;
âĢĿ ,
Ġodpowie dÅº
T e
Ġz n
Ġwie lu
Ġkla sy
li Äĩ
Ġbez pie
Ġe mo
de k
Ġma ter
l ni
Ġcz er
ĠK on
J ak
mi na
czy na
Ġo pera
an u
ĠrÃ³w n
l ny
R o
jÄħc a
cie m
b le
ĠB a
b ar
ka za
Ġm Ã³w
k ra
Ġnie za
Ġpo prawi
Ġmie Äĩ
Ġh o
Ġ$ \
cz ka
cyj nych
Ġro dza
Ġna stÄĻpnie
mo Å¼li
ĠdwÃ³ ch
Ġin ne
ĠnarzÄĻ dzi
Ġ3 0
Ġprzed sta
Ġn um
Ġpo dzie
f t
ĠÅ¼ ad
se k
ow ni
) )
oÅĽ cia
ÅĤ by
Ġza leÅ¼
D o
ĠJed nak
Ġna tu
Ġz wy
ier w
ĠW o
O to
Ã³ Åº
c iÄĻ
tkow o
bu d
Ġle k
ĠU S
Ġhistor ii
ĠÅĽ redni
pis y
Ġs il
Ġsie bie
Ġce l
da j
< /
Ġodpowie dzi
Ġroz wo
ĠTwo je
su m
Ġza rzÄħ
âĢĿ .
Ġpro ces
Ġpol ska
Ġsa m
ma g
c er
li n
ĠA l
ri i
Ġpraw dzi
Ġka toli
Ġge o
st wo
Ġswoje go
r t
ĠS a
w er
tu a
li k
Ġza kre
Ġre gu
g Äħ
Ġre la
l Äħ
ÅĽ la
Ġele kt
Ġro dzi
Ġ< <
Ġz mniej
J ed
st i
Ġpo ja
mi ar
o u
na d
Ġumie jÄĻ
o nie
Ġa ka
ĠrÃ³Å¼ ne
Ġb ryty
Ġpro ce
Ġkonie c
Ġczy tel
ĠT he
Ġ1 3
Ġniemie cki
d Äħ
Ġte m
Ġlu dzi
Ġw ia
ĠW a
ch ro
Ġa p
Ġo t
owia da
Ġ19 5
Ġtek stu
le gÅĤ
m enta
Ġwej ÅĽci
Ġoko ÅĤo
mi o
ÅĤe go
Ġroz waÅ¼
: **
Ġt rud
Ġm in
Ġmiejs ce
Ġzd anie
Ġst ar
Ġp rint
cze go
Ġpoprze z
Ġwy z
ĠdziaÅĤ ania
Ġna leÅ¼y
Ġna r
Ġs ÅĤo
li g
Ġhist ory
ry wa
ĠmoÅ¼liw oÅĽci
ĠL u
arÃ³w no
rz ch
ĠU Å¼y
rÃ³ j
1 5
Ġob sz
i Äĩ
Ġf in
Ġs ka
Ġli stÄĻ
Ġa ktyw
ie s
ĠbÄĻd Äħ
cze ÅĦ
ter s
Ġpomo cÄħ
ĠÅ »
-- --
k oÅĽÄĩ
te d
Po d
ĠÅĽ ci
Ġpa miÄĻ
w any
ra ch
$ .
ĠI I
ÄĻ Å¼
ÅĤ ych
Ġkon tro
Ġu czy
Ġodpowie dni
l noÅĽÄĩ
k owe
li st
ni ku
t nych
Ġd ow
e s
jÄħce j
m owaÄĩ
i nie
Ġpara met
fe ren
Ġpyt anie
Ġprze j
ÅĤe j
T o
Ġni ch
gra f
d ia
Ġmiesz ka
ĠkaÅ¼de go
Ġbad ania
âĢ Ļ
Ġz g
Ġ19 0
Ġza u
te j
ÅĽ niej
d ow
Ġ .<|
Ġz de
co unt
f er
Ġdzie n
se lf
Ġs ek
ma ch
Ġw ol
c ych
cze niu
nie m
Ġf un
Ġstra te
Ġpra kty
sp Ã³ÅĤ
ĠmÃ³ gÅĤ
ĠsÅĤ owa
Ġzmi any
" }}
ĠW ar
ni Äħ
s en
go t
gra m
M o
Ġg rani
z Ã³w
Ġwsp Ã³l
na Äĩ
m ar
Ġpocho dzenia
Ġi d
Ġsto p
zy d
ĠÅĽwie cie
k le
ĠPy th
owi Äħ
cz noÅĽÄĩ
me s
c en
Ġp s
Ġja s
ÅĤa by
Ġja ki
Ġry zy
cja mi
Ġsprze da
Ġp ÅĤa
Ġz arÃ³wno
Ġmog ÄĻ
me m
Ġsa me
wi Äĩ
a Äĩ
kow ych
an g
Ġzd ania
ob Ã³w
i na
Ġwy ja
l d
ĠS y
Ġg ÅĤo
Ġp er
b al
ĠM e
Ġz wie
ÅĦ skiego
d ro
ÅĤu g
Ġsy tua
Ġzmi an
Ġm nie
Ġprzy sz
M a
Ġje szcze
ĠwspÃ³ÅĤ pra
" )
Ġprowa dziÄĩ
ĠJo h
Ġp Ã³ÅĤ
ĠciÄħ gu
Ġ l
da l
iÄĻ ki
Ġ1 00
Ġs za
ĠD e
ĠksiÄħ Å¼
Ġpo rÃ³w
w ÄĻ
gl Äħ
sta Äĩ
Ġt er
Ġ1 1
wiÄĻ z
w em
Ġo soby
ĠĠĠĠ ĠĠĠĠĠĠĠĠĠĠĠ
Ġwy stÄĻpu
Ġkwa dra
ste ÅĽ
sÅĤu gi
Ġd ni
p p
szy Äĩ
m owy
ÅĤe ÅĽ
ane go
ta cji
or Äħc
le s
Ġty p
Ġrozwo ju
Ġch ce
Ġmo je
spo dar
Ġzapew nia
li we
Ġkie dy
Â ł
Ġm iaÅĤ
Ġ18 9
Ġko d
Ġdo lar
Ġ ani
ne s
ciÄħ g
ĠokreÅĽ lo
ra cji
ĠA I
Ġd wie
s h
ge t
ĠumiejÄĻ tnoÅĽci
t rze
Ġpyt ania
Ġpod rÃ³Å¼
re su
Ġst ud
Ġ Y
ÅĤÄħ cz
Ġuzy ska
j ska
ktu ry
d nia
le r
id enty
ane j
Ġwz glÄĻ
p oÅĽ
Ġla tach
Ġm ÅĤo
ĠC z
ara kt
p ÅĤy
cho dzi
m er
wÃ³ r
sÅĤa w
any m
Ġprze sz
tor y
li ÅĽmy
Ġd nia
Ġkatoli cki
ra mi
Ġi l
Ġi de
de f
ed ÅĤug
Ġwy kon
Ġn owo
Ġo pie
an gaÅ¼
Ġza ÅĤo
ĠktÃ³re go
fik owaÄĩ
z ja
ÅĽ le
ÅĽ nia
cze ÅĽnie
Ġn or
Ġinforma cje
Ja kie
go dnie
cza j
b r
gra fi
gl ÄĻd
Ġ2 5
âĢ ¦
ie ra
j o
Ġu moÅ¼li
Ġzapew niÄĩ
Ġpierw szy
Ġfran cu
Ġza po
le t
ĠjÄĻzy ka
dzie Äĩ
Ġdu chow
szu ki
ne m
cje n
je d
Ro z
ĠÅ ģ
Ġro sy
Ġproje kt
stÄħ pi
Ġfunk cja
fi ni
pa da
ĠÅĽwia ta
ĠgÅĤÄĻ bo
1 6
ĠL a
b ia
Je steÅĽ
s kÄħ
Ġw ers
ĠJ ak
w ca
f o
Ġrzeczywi st
u sz
wa Å¼yÄĩ
Ġp an
Ġst and
Ġpo sia
Ġwyda j
Ã³ Å¼
la rz
Ġpo ko
Ġswo im
en tem
Ġz wiÄĻz
bi Äĩ
Ġznaj duje
P rze
wia jÄħc
ĠzarzÄħ dz
Ġdzie ci
Ġener gii
kÅĤa du
Ġch arakt
Ġc ent
Ġdrugie j
Ġko mp
w ana
ĠuÅ¼y Äĩ
Ġsy ste
Ġkie ru
bli o
Ġkon tek
sze nie
bar dziej
cz ych
cze j
cze ÅĽniej
Ġdo stos
Ġr ÄĻ
Ġfor ma
Ġpomy s
Ġkomu nika
p rint
ĠprÃ³ b
Ġinter net
pu t
Ġpow inie
ĠW i
Ġu czni
owa ÅĤa
l nej
Ġjedno st
Ġprogra m
Ġpowie rzch
Ġza angaÅ¼
ku je
Ġfir my
> [
Ġmiejs ca
an Äħ
d anie
] </
Ġu cze
Ġzw raca
Ġzaw sze
str ing
ĠJe st
wÃ³ rz
cze ÅĦstwa
Ġpo da
Ġs ce
Ġmy ÅĽli
Ġgru py
ter na
k owy
ĠS ta
go ryt
Ġ= =
Ġklien tÃ³w
Ġmi ni
liw oÅĽci
Ġdolar Ã³w
b ÄĻd
Ġwska Åº
la ss
Ġduchow ny
P ro
s Ã³w
Ġlu dz
mie nia
Ġana li
Ġpis a
st Ã³w
fun ction
Ġps ych
Ġd ia
Ġko bie
Ġjed en
ĠH a
Ġpowo du
ĠczÅĤ on
Ġz da
st er
Ġar e
Ġzna czenie
ĠWie l
du ka
l t
Ġw spo
Ġklucz owe
Ġza j
Ġob ser
ĠA u
cz one
dzi ÅĤ
Ġi t
ce nia
Ġpod ob
Ġistnie je
cie l
cz nymi
Ġpodej ÅĽcie
i mp
sko na
tur ÄĻ
Ġwy raz
L i
ÅĤa m
s ji
ĠO b
ĠB y
Ġst anie
is kup
li ne
na ch
ÅĤu dni
Ġzna czÄħ
na r
t nej
Ġinte lig
ÅĤe k
ty sty
ow nik
Ġpole ga
mi i
sze nia
ĠG e
re k
Ġzosta ÅĤa
Ġpow sta
Ġsk on
Ġte le
ĠC i
t ny
Ġh e
Ġpo ni
noÅĽci Äħ
inte res
Å¼ o
s on
le g
Ġk li
Ġodp owiada
Ġk ry
Ġgo spodar
ĠW e
Ġprawdopod obie
ar ka
Ġfrancu ski
liza cji
Ġza pro
ez pie
Ġde f
o p
g na
Ġa k
Ġw al
c kiego
wi dÅĤ
ow nikÃ³w
Ġpo pra
1 4
Ġo ne
Ġkon ta
ĠB e
me ters
Ġpo maga
cz onych
u jÄħ
Ġte or
Ġma sz
ĠÅº rÃ³d
t t
by wa
v i
Ġk sztaÅĤ
Ġpo ÅĽ
Ġt r
Ġu waÅ¼
Ġob raz
Ġc on
Ġn owych
Ġprzy czy
jÄĻ cia
Ġpowin na
Ġs pa
Ġnatu ral
ul t
_ {
Ġwy mag
cja ch
Ġdob rze
z wy
Ġze staw
Ġwy nik
ĠwÅĤaÅĽci w
Ġ\ ]
Ġp Ã³Åº
Ġ20 2
ĠD la
para meters
Ġf o
ĠdoÅĽwiad czenia
Ġp ri
Ġau to
Ġwo dy
Ġpa cjen
ĠSt an
f r
Ġ18 8
Ġza interes
Ġspe cja
Ġwywo ÅĤa
Ġap lika
Ġana liz
bi or
Ġg Ã³r
jed no
ka z
Ġsu b
Ġbez poÅĽ
Ġza czyna
Ġko l
cz nia
st ania
Ġt ÅĤu
niÄĻ cia
Ġpun kt
ĠktÃ³ rÄħ
ĠosiÄħg nÄħÄĩ
Ġa sy
Ġtra dy
Ġnaj lep
u e
ja w
Ġmeto dy
u j
Ġta bli
Ġzespo ÅĤu
bie ra
Ġrze cz
Ġdz i
rÃ³w nowa
^ {
Ġc en
Ġnaj bardziej
Ġprze prowa
Ġgru p
Ġszczeg Ã³lnie
Ġw czeÅĽniej
Ġza koÅĦ
Ġw sze
Ġz ba
Ġpoczu cie
Ġsu k
3 0
Ġop ar
t kÃ³w
Ġp art
ct wa
Ġu pew
ĠN e
Ġn owe
q rt
Ġp l
wa j
Ġ5 0
ier p
Ġu wz
Ġf ra
Ġwywo ÅĤ
rze ÅĦ
t ru
ĠW il
Ġpre zyd
Ġid enty
t ry
cz ki
C o
an ce
Ġsu ger
ri ght
Ġjed nym
Åº dzie
ta l
Ġprzy j
qu e
Ġk ryty
ĠG a
sz czy
gie l
ow ujÄħc
dz Äħc
ko l
Ġpoprawi Äĩ
zy j
cyj ny
Ġok rÄĻ
rzy sta
ni cy
Ġin nymi
Ġtem pera
ĠkaÅ¼ dej
argument s
Ġbo ga
ro ni
Ġlek ko
ĠJ u
Ġkra j
Ġr an
co m
ĠE uro
cze ki
no c
to m
Ġfin ans
wo lu
mi an
Ġt wier
Ġch e
p or
Ġw Äħ
te xt
Ġu ro
1 7
c count
Ġspe ÅĤ
ĠH e
w en
owan ej
Ġbryty jski
Ġt rÃ³j
k owa
Ġpierw sze
Ġk siÄĻ
Ġprzy got
w ski
dy n
Ġpotrze by
Ġefe ktyw
Ġz ÅĤo
Ġb ÅĤÄĻ
owan o
te cznie
Ġwy niki
gi nal
Ġch cia
Ġk ana
Ġb ÅĤ
Ġaktor ka
Ġma szy
Ġucze st
Ġprze ksztaÅĤ
Ġwo js
Ġpod kre
c on
Ġgo dzin
si ÅĤ
ow ÄĻ
en s
ĠO r
Ġp io
ĠzaleÅ¼ noÅĽci
Ġanali zy
ĠÅĽ mier
ter y
pu bli
z d
ĠÅĽ red
` .
fa ult
ĠczÅĤ owie
ĠÅ¼y cie
ĠS e
ĠP e
ĠmÃ³w i
on Ã³w
pie j
Ġb io
Ġo to
n p
Ġal goryt
Ġli sty
Ġwy nikÃ³w
owie c
t na
Ġsta tysty
Ġnaj wiÄĻk
ist y
ĠWar sza
Ġan gaÅ¼
we j
Ġk wiet
Ġsze ro
ĠnastÄĻpu jÄħce
Ġma ksy
Ġmieszka ÅĦ
Å¼ u
Ġnaj mniej
owanie m
Ġstand ard
ar e
u k
Ġro ÅĽli
mu jÄħ
ĠN i
t w
Ġprze my
l nÄħ
ob Äħ
Ġob a
owa rzy
Ġta m
Ġro lÄĻ
ĠdoÅĽwiad czenie
ÅĤ oÅĽÄĩ
Ġe duka
Ġ2 4
owane go
Ġk Äħ
Ġz identy
Ġta ki
wy Å¼
wie k
b ezpie
lu m
k Ã³ÅĤ
ĠG dy
ĠC a
ĠT en
Ġw rze
je ct
Ġwy niku
Ġszczeg Ã³ÅĤ
Ġzdo by
ge ne
Ġko le
Ġo prac
s ce
log ia
1 1
ĠJ an
Ġdo mu
ow oÅĽci
ĠrozwiÄħ za
Ġkom pozy
qu i
Ġza m
l nie
s cho
2 5
p h
Ġje dy
owan Äħ
Ġniez bÄĻd
Ġs kÅĤad
Ġs wÃ³j
da tkowo
ĠzwiÄħz ane
ga Äĩ
l na
ro r
ÅĦ skiej
Ġwsp ar
Ġkil ku
Ġt ro
li i
ĠwaÅ¼ ne
ĠP ra
ĠuÅ¼ytkow nika
b il
ĠD z
ĠwÅĤo ski
Ġd rze
ĠA by
Ġcho ro
P ra
Ġas pe
Ġzw ro
o ÅĤ
Ġmiejs c
Ġk rzy
niej sze
ĠJa kie
Ġfi lo
Ġmode l
Ġ :
p ÅĤa
Ġdo m
ĠczÄĻ ÅĽÄĩ
kol wiek
Ġin stru
} $
Ġwar un
Ġg ro
Ġz rÃ³wnowa
Ã ¡
Ġuzyska Äĩ
Ġwy jÄħ
Ġza s
met ry
at le
Ġsze re
ni kiem
tu je
de fault
terna tyw
go dni
Ġelem enty
Ġwsze l
zwy czaj
oÅĽcia mi
Ġze wnÄĻtrz
Ġnie po
ÅĽ ni
Ġmo c
Ġp r
Ġwykorzy stu
Ġrozwi ja
ca ch
1 3
du k
li a
Ġnieza leÅ¼
Ġpisa rz
Ġpod rÃ³
Ġna m
Ġa ktu
Ġmar k
6 0
owany m
Ġza mie
Ġna sze
Ġd Åº
ĠciÄĻ Å¼
ÅĽli Äĩ
Ġo powie
Ġkon cep
Ġpo ru
Ġgo dzi
Ġelement Ã³w
ra y
ÅĽ rÃ³d
Ġz o
Ġzmie nia
u ka
i an
no szÄħ
p ca
Ġproblem Ã³w
.. .
Ġkwiet nia
ĠPyth onie
g Ã³w
Ġlekko atle
ono mi
rz o
ĠG o
i um
k cie
k owej
Ġc oÅĽ
Ġre gi
c us
g no
Ġp ers
by t
ct wo
ÅĽ wiet
Ġna pis
dz ÄĻ
Ġna stÄĻp
s qrt
Ġgene ra
Ġmi ar
t wie
Ġlo gi
Ġd owo
Ġz oba
Ġg ÅĤ
da ch
Ġz re
Ġp ÄĻ
Ġosta tni
m ÄĻ
Ġ >
mi ni
ani i
Ġwszyst ko
" .
Ġe x
Ġtre ÅĽci
ĠAn d
ĠF i
ÅĤa w
w aniu
Ġma ja
ty m
Ġb li
ob ra
da mi
ie dy
ĠJoh n
Ġuczy niÄĩ
Ġza le
ch ÄĻ
Ġwy Å¼
Ġmar ca
gl Äħd
ĠpÃ³Åº niej
Ġjedno czeÅĽnie
do t
Ġn p
Ġu two
] ,
ry ginal
Ġtrze ch
ob nie
Ġga tu
Ġu su
Ġkon cent
sy w
g en
ste k
Ġ\ )
Ġpopu lar
Ġprowa dzi
Ġtran s
we st
Ġwo je
Ġraz em
Ġkorzy ÅĽci
R e
ĠwpÅĤy wa
in ÄĻ
t nego
l nego
Åºdzie r
ÅĦ skie
Ġ18 7
z mu
p ar
Ġwe wnÄĻtrz
ĠmÃ³gÅĤ by
nie sie
Ġre Å¼y
la ch
Ġpomo c
Ġu rzÄħ
Ġwspo m
sty tu
t nÄħ
ĠMoÅ¼e sz
ĠT y
ĠP i
Ġpow szech
Ġtran sp
ÅĤy by
ow ca
czy ÅĤ
Ġme dy
Ġty pu
Ġna g
Ġod legÅĤ
k owego
Ġna dzie
Ġarty ku
Ġameryka ÅĦska
Ġda w
Ġte st
ty czne
oÅĽci Äħ
sa m
ĠuÅ¼ywa jÄħc
Ġkon sek
Ġra zy
ku ren
" },
bi na
Ġo chro
ĠuÅ¼y wane
Ġstan owi
tool s
Ġwzro stu
k ÅĤ
ĠB i
Ġta jem
Ġroz wÃ³j
Ġdostar cza
o g
ĠwywoÅĤa ÅĦ
ma Äĩ
Ġw ier
Ġma my
Ġb lo
my ÅĽl
g n
w Äħ
Å¼ ne
i mi
Ġwska zÃ³w
Ġbi z
Å¼y nie
p ia
Ġwy d
Ġsto su
Ġm iÄĻ
Ġob u
Ġli sto
l nym
Ġp li
ce go
ÅĤÄħ d
mo s
Ġpa Åºdzier
Ġk ur
Ġprawdzi we
Ġza miast
Ġpowinie n
Ġkom pu
Ġz b
Ġjest e
ce l
Ġemo cjonal
de mi
Ġpo stÄĻp
li by
ĠpodrÃ³ Å¼y
ĠrÃ³w nowa
Ġs ierp
th er
Ġo pi
g ar
sa mi
Ġot war
ĠNa j
Ġkon f
Ġle p
Ġme di
Ġpra wa
Ġuczni Ã³w
Ġsty cznia
ĠM ich
ĠbÅĤ ÄĻd
Ġfilo zo
4 0
Ġpre z
k la
Ġwi th
Ġsystem u
Ġs ÅĤÃ³w
Ġod wie
c kie
mi ly
Ġni m
al ne
ne n
Ġwia dom
Ġkwadra t
ĠÅĽ le
Ġprzestrze ni
g an
un d
ĠreÅ¼y ser
Ġtwo rzÄħ
ĠpoczÄħ tku
Ġs um
ch ani
Ġproje ktu
b ur
Ġ\ [
Ġczer wca
la z
sty czne
Ġwz or
Ġpo e
cz ony
Ġw edÅĤug
ru m
Ġo czeki
jÄħcy mi
Ġpo za
ow ski
mie n
) ^
Ġo fi
Ġh ar
Ġraz ie
Ġmaksy mal
er t
Ġwy nika
ĠbÄĻdzie sz
ĠU ni
ĠR u
m b
ĠS u
a w
Ġodpowie dzia
ĠZ ie
Ġli nii
Ġm or
m entu
Ġklucz owych
ĠtrÃ³j kÄħ
Ġreprez entu
Ġotrzy muje
tu ra
Ġzw rÃ³
ĠS o
Ġk r
Ġdecy zji
or tu
z io
Ġch or
cyj nego
Ġposta Äĩ
ĠM u
rz ÄĻd
Ġpro fe
Ġd wu
ti onal
Ġza zwyczaj
Ġli ni
ĠniektÃ³ re
Ġâ Ī
p ierw
D la
ĠF a
Ġ/ /
tk owe
Ġwrze ÅĽnia
da ta
ru j
Ġwi zu
ĠCh o
ca l
Ġsp ort
ĠB ar
, "
dz ki
Ġko re
lo ne
Ġd al
g ia
t on
ali z
Ġczy m
Ġko szy
ĠD zie
ĠzwiÄħz ku
Ġsce na
Ġli st
ory te
de ÅĤ
ĠC ie
> <|
Ġ4 0
mie ÅĦ
g dy
Ġpun ktÃ³w
Ġpo nad
sz pa
Ġwyda rzenia
Ġch ÅĤo
praw dÄĻ
sz czenie
Ġte raz
p la
Ġka tego
Ġgru dnia
Ġb iskup
Ġty godni
or gani
Ġu s
Ġmog ÅĤoby
Ġli tera
Ġwykorzy sty
Ġzrozumie nie
fika cji
ÅĦ cu
Ġau tor
unk cja
Ġliczb Äħ
Ġli pca
z ÄĻ
Ġbi orÄħc
Ġpers pe
ĠpiÄĻ k
Ġprzedsta wi
Ġwi do
Ġcze go
ĠUS D
Ġpo ÅĤudni
Ġpio sen
jÄĻ cie
Ġchce sz
cyj nej
ĠbezpoÅĽ redni
Ġ rzÄħ
Ġw ra
Ġmi li
Ġpozy tyw
Ġza czÄħ
Ġar chi
Ġm iaÅĤa
Ġan giel
zu jÄħc
ÅĤ on
Ġo ryginal
Ġnap iÄĻ
Ġkra ju
Ġinte rak
ĠPol sce
ce nie
Ġ6 0
Ġu zna
t an
Ġch wi
Ġmin ut
>[ {"
t nym
p lo
C h
Ġdo skona
no rod
cy m
Ġpo now
Ġjakie ÅĽ
Ġzrozumie Äĩ
Ġmiar ÄĻ
Ġsta ro
Ġ Äĩ
ĠrozwiÄħz ania
f f
Ġba da
owo d
Ġmia sto
ĠM ie
jÄħ Äĩ
Ġlu dzie
Ġrosy jski
ĠporÃ³w n
Ġaka demi
je kt
Ġb ran
ĠN o
Ġpla t
Ġrozpo czÄĻ
p s
Ġpow iÄħ
Ġ18 6
ĠZ jedno
Ġwsp iera
Ġprac ownikÃ³w
Ġch i
Ġwy na
je my
Ġpier wia
ĠwÅĤaÅĽciw oÅĽci
T a
Ġ 000
Ġth at
ĠmoÅ¼ liwe
Ġpo ka
Ġprze ch
ob ec
dze ÅĦ
Ġna dal
sp i
l and
Ġmy ÅĽ
Ġstro nie
Ġsie ci
ĠwiÄĻk sz
Ġprzed mio
: :
Ġf e
s j
Ġmark et
kÅĤa dni
Ġko du
ĠrÃ³wn anie
Ġza wod
Ġsierp nia
sa ch
Ġpo li
ÅĦst w
Ġupew niÄĩ
my m
Ġeksp er
te s
Ġno t
Ġpo r
ĠzÅĤoÅ¼ on
ĠS te
Na j
Ġza py
ĠrÃ³wn ania
ĠdÅĤugo ÅĽci
twa rz
ge st
Ġorgani za
Ġmog ÅĤaby
Ġw h
Ġtre ner
l ow
Ġlu tego
Ġw ÅĽrÃ³d
liz owaÄĩ
Ġ Q
wia jÄħ
Ġdo ku
Ġa b
Å ļ
ĠdokÅĤad nie
Ġmo ty
ro z
Ġa Å¼
ĠpaÅºdzier nika
Ġwoj ny
Ġpo ÅĤ
ĠnastÄĻpu jÄħcy
us i
Ġk ier
Ġra d
Ġar gument
Ġzad ania
le ft
Ġtechno logii
Ġjed nej
graf ia
ĠwÄĻ g
Ġkompozy tor
ci n
Ġdzie ÅĦ
Ġprze ka
## ##
Ġwy mieni
K o
ĠP ar
w nÄħ
Ġpra wo
sz ko
Ġroz waÅ¼yÄĩ
Ġzosta ÅĤo
Ġpodej m
Ġposia da
owa ÅĦ
ÄĻÅ¼ czy
cze k
' .
Ġasy st
Ġpotrze bu
owa li
Ġsztu ki
g res
Ġspo tk
Ġmater ia
ru cho
Ġt ry
t ies
Ġin Å¼ynie
' :
ca mi
li sta
ob ject
ĉ ĉ
ĠkrÃ³ t
Ġstro n
Ġprodu k
Ġcharakt ery
Ġan ty
Ġar gum
le k
czÄĻ ÅĽcie
re w
Ġjed nÄħ
Ġs ia
Ġs obÄħ
po l
Ġgo t
je sz
kÅĤa dy
Ġpri oryte
lo ny
ĠK u
Ġwyko ny
ĠmoÅ¼liw ych
Ġs kÅĤada
m en
Przy pisy
ci ÅĤ
Ġro dzin
Ġhi szpa
Ġjed nego
ĠjÄĻzy k
B i
Ġpowierzch ni
Ġregu lar
sy j
cz ania
na rod
ty ma
ciÄħ ga
Ġnau czy
Ġza pis
p li
Ġwykorzy staÄĩ
ra j
ow nika
blio te
Ġk rea
Ġhi po
cia Å¼
Ġparamet rÃ³w
Ġz ja
Ġka ta
Ġod w
Ġe l
Ġjak oÅĽci
Ġnau ki
ĠkaÅ¼dy m
Ġz byt
Ġmie siÄħ
ĠÅĽ wiÄĻ
Ġp owa
Ġzosta ÅĤy
ĠPol ski
Å »
p rzy
Ġspos obÃ³w
am iÄĻ
cho dzÄħ
Ġwo kÃ³ÅĤ
owa ÅĤy
Ġzro biÄĩ
Ġoko li
bo x
Ġjest em
il l
E r
Ġzakre sie
ni ng
Ġkul tur
Ġpunk ty
Ġisto tne
ĠR ob
Ġat mos
w in
Ġsamo cho
or ia
Ġ j
Ġu do
ĠW ÅĤa
Ġkon stru
Ġstru k
Ġp owy
Ġlisto pada
Ġhistor iÄĻ
m on
owiÄħ z
an ta
Ġtajem ni
d r
Ġkosz t
Jed nak
\ [
Ġzrozumie nia
Ġwzro st
Ġzna cznie
Ġt ren
ĠPo niewaÅ¼
Ġzach ÄĻ
Ġdru gi
zu jÄħ
Ġpr ÄĻd
Ġkon ty
Ġna prawdÄĻ
a u
wy m
siÄĻ cy
Å¼e ÅĦ
rÃ³ t
Ġtwoje j
ÅĤby m
c kich
Ġpoz wo
Ġre lacji
niej szych
ĠdziaÅĤa cz
Ġaka pi
ĠB er
Ġfun da
Ġsy m
r ing
ma wia
Ġba daÅĦ
Ġ en
Ġd em
ĠuÅ¼y ciu
Ġprodu ktÃ³w
gie m
ne d
rÃ³ b
niÄĻ cie
G dy
glÄħ da
Te raz
Ġobej mowaÄĩ
Ġmusi my
Ġbezpie czeÅĦstwa
w encji
Ġb an
Ġwyda je
s nÄħ
C ze
Ġsz czy
lem ent
ĠrÃ³Å¼ norod
cz ba
2 4
8 0
Mo Å¼e
Ġme dia
z er
Ġin dy
g iÄĻ
c kiej
Ġru ch
Er ror
Ġu kry
Ġcz u
Ġzdr owia
Ġw raz
Ġme chani
Ġdy nami
star cza
Ġe g
Ġwyra Åº
Ġja po
kar ka
Ġo na
i ta
Ġosob ist
Ġd ra
Ġu czu
Ġroz m
Ġko s
kaza Äĩ
Ġdecy z
Ġda lej
ÅĤa t
kÅĤa dzie
i f
s em
Å¼ na
Ġprzed siÄĻ
Ġda je
Ġi le
k an
Ġprze wi
la cja
Ġsp Ã³j
Ġmater iaÅĤ
s or
Ġtwo rzy
} \
widÅĤ owa
Ġpotencja lne
b el
dzie n
ĠspoÅĤecznoÅĽci owych
Ġc iaÅĤa
ej m
Ġt or
ĠH o
rze niu
Ġdow ol
Ġin ny
Ġdoda Äĩ
Ġru chu
st ka
Ġna zy
wer sy
Ġz godnie
Ġwyko naÄĩ
Ġro bo
ta Äĩ
Ġo j
Ġcy fr
ĠL o
ru e
Ġz u
Ġme ta
Ã³ ry
ĠÅĽci ÅĽle
Ġnie go
ĠuÅ¼y cie
Ġ2 2
ĠdotyczÄħ cych
" ]
d niej
e x
ĠrÃ³w no
Ġce le
Ġo mÃ³w
ĠkaÅ¼ da
Ġzidenty fikowaÄĩ
ku j
ĠB u
Ġna szej
Ġpl ane
art o
Ġelekt ry
d ania
te dy
ĠpowiÄħ z
Ġin nowa
aw ans
Ġbo ha
r ie
Ġtr wa
wa cji
Ġe li
Ġutrzy m
f ry
Ġponi Å¼
Ġty tu
cie j
Ġna s
Ġotrzy ma
ĠÅĽrodowis ka
Ġm ÄĻ
st re
Ġpierw szych
ĠniektÃ³ rych
Ġel se
Ġk oÅĽci
wa li
Ġmo du
ty ka
Ġsz uka
ĠkrÃ³ l
b ers
Ġs ur
ĠzwiÄħz ek
Ġczyn niki
9 9
r ia
Ġszczeg Ã³
z w
po m
wÃ³ dz
ĠI II
so na
Ġotrzymuje my
i c
art oÅĽÄĩ
ĠzarzÄħdz ania
Ġe ko
Ġze spÃ³ÅĤ
pie nia
ni os
Ġche mi
s pe
su lt
Ġspra wie
Ġdz iÄĻki
Ġczy li
Ġz y
Ġcz ar
ĠR ze
de l
Ġprawdopodobie ÅĦstwo
st w
ĠH en
Ġmaszy n
Ġpopu lacji
ĠkoÅĦ cu
Ġ Î
< <
Ġce chy
ĠcaÅĤkowi tÄħ
ciÄħ Å¼
ĠM y
ti me
c dot
ma mi
ĠZ e
Ġnadzie jÄĻ
t wÃ³rz
Ġnaj waÅ¼
Ġe mi
ma il
Ġkrea tyw
ĠwspÃ³ÅĤ czyn
na ÅĤ
k lu
Ġt ar
ma tu
ĠspeÅĤ nia
Ġmus iaÅĤ
Ġn owego
Ġd wo
/ /
Ġokre ÅĽliÄĩ
t s
Ġm il
Ġd Äħ
[ ]
. ,
Ġli ÅĽcie
Ġo dz
ĠÅĽ cie
any mi
Ġwy j
Ġ2 1
Ġinter pre
Ġ &
d en
ĠNa rod
Ġm ÄĻÅ¼czy
wersy te
for m
2 00
Ġstan u
Ġk i
Pra widÅĤowa
ty cznych
Ġstos un
Ġprze wo
fi le
zu j
Ġc ia
o ÅĤa
Ġcie p
box ed
Ġwa s
a ch
ĠH i
Ġuwz glÄĻd
Ġob sÅĤu
ĠĠĠĠ Ġ
oÅĽcia ch
Ġst re
Ġne w
Ġsytua cji
Ġodpowie dnie
mo c
ni tor
wnÄħ trz
Ġwy kre
Ġrodzi ny
Ġo czy
ĠD u
Ġrzeczywist oÅĽci
Ġo ÅĽ
ĠÄĩ wi
Ġokre sie
Ġjeste ÅĽ
U S
Ġpo rzÄħd
Ġre ak
Ġprodu kcji
Ġteor ii
le ga
4 5
ĠwzglÄĻ du
prowa dzi
le ks
ĠS p
Ġnie j
ĠNa stÄĻpnie
ĠmieszkaÅĦ cÃ³w
Ġre li
ĠpÃ³ÅĤ noc
Ġg re
ktyw ne
w ord
Ġkonf li
st ry
Ġfra g
Ġs ÅĤa
Ġ rzu
Ġzdr owo
sz czenia
Ġza g
dzenie m
l n
Ġu jaw
Ġpotencja lnych
Ġre sz
Ġil oÅĽci
Ġpodkre ÅĽla
{ \
ÅĦski ch
Ġmiejs cu
ĠwystÄĻpu je
i ni
Ġon line
ĠtÅĤu ma
Ġwy kÅĤad
Ġcho dzi
Ġna szych
Äħ dÅº
Ġprzech owy
Ġlo s
ĠW ol
cze ni
1 00
Ġtwo rzenia
Ġzbi Ã³r
pi Äĩ
d li
Ġob sÅĤugi
Ġrodza j
Ġ2 3
kow o
p on
iÄĻ k
Ġna leÅ¼
Ġzie mi
Ġsa mym
sty czny
j skiej
per ties
d ÅĤu
Ġog rom
ĠStan is
Ġu sÅĤu
Ġn owy
Ġgru pa
ĠwzglÄĻ dem
ĠnastÄĻpu jÄħcych
ĠÅ¼y w
sko ÅĦ
ĠR P
ktÃ³ re
mu jÄħc
Ġb ia
Ġco dzien
str ia
Ġmie ÅĽcie
ĠR y
Ġsy n
s in
Ġstru ktury
Ġszyb ko
nÄħ ÅĤ
Ġproble my
ĠÅĤa ÅĦcu
Ġmode lu
Ġproble mu
ment Ã³w
dzia ÅĤu
Ġpoe ta
w an
bie rz
Ġznaj du
Ġ Ã
Ġte re
Ġinte resu
Ġ2 7
Ġu dziaÅĤ
ĠJ Ã³
ĠL ud
cy d
Ġkieru nku
Ġza awans
dzie l
Ġg wia
Ġzas obÃ³w
wi cz
Ġz bud
Ġzapo bie
Ġg u
[ "
( '
lem enta
Ġaplika cji
ch Ã³d
Ġma cie
Ġwo d
Ġsk rzy
Ġni mi
Ġpro sto
ĠC ar
ĠG re
u ra
Ġdzien nika
Ġma m
Ġklien ta
Ġpro stu
P I
Ġnie do
Ġsp owod
Ġu li
ĠAle x
Ġsprzeda Å¼y
Ġdo ko
Ġce ch
Ġlo g
Ġz ni
g rywa
cze ÅĦstwo
Ġczyn nikÃ³w
Ġspos ob
Ġza cho
ĠroÅĽli n
Ġpom iÄĻdzy
= "
Ġ8 0
Ġ2 8
g r
ĠuÅ¼ytkow nikÃ³w
Ġuzy sk
Ġek onomi
imp ort
y a
g Ã³lnie
Ġlu d
ĠÅĽ w
ĠdziaÅĤa ÅĦ
m enty
lu b
Ġh and
ĠpÅĤy n
Ġsko mp
Ġin f
ĠX V
la mi
Ġla ta
ob raz
Ġosob a
j skie
ĠrozwiÄħz anie
ĠrÃ³w na
Ġop ro
Ġma gi
Ġdziedzi nie
i ght
Ġte mu
Ã³ p
we go
Ġpomo Å¼e
Ġwprowa dz
Ġfor mat
t owaÄĩ
cz ona
Ġczy ni
se ÅĤ
in o
T ak
Ġpro szÄĻ
i me
cyj na
Ġg ry
dze niu
ĠK rzy
Ġnar ra
gene ruj
Ġkoncent ru
ent Ã³w
Ġdo cel
ĠP ow
Ġle piej
Ġpomo cy
pew nij
pi i
Ġpier wo
is e
Ġst Ã³p
ĠrozwiÄħ zy
Za tem
Ġsk le
us a
wa jÄħc
Ġu kÅĤad
d la
Ġwers ja
Ġpo ra
Ġpozio m
ĠX I
Ġf aÅĤ
st ki
Ġobej muje
Å¼ one
al l
o ur
Ġprze pis
cyj nym
Ġu d
Ġnie skoÅĦ
Ġwyz wania
Ġmog ÅĤyby
szy mi
ĠO trzy
Ġzach owania
ĠgÅĤo s
j skiego
Ġkom Ã³r
li ma
Ġ ,
Ġz god
Ġcz Äħ
re dnie
ĠJÃ³ ze
ĠpamiÄĻ ci
Ġzawiera Äĩ
Ġrze czy
ĠrozwiÄħza Äĩ
Ġt wÃ³r
Ġu ni
Ġsp ÄĻ
p t
ĠKa Å¼
Ġal bo
ĠUS A
ni ÅĤ
Ġde fini
Ġte ra
li na
D a
ĠÅĽred niej
organi z
z on
ktu ra
Ġy ou
Ġaktyw noÅĽci
Ġa ut
Ġryzy ko
Ġlo tni
Ġgatu n
Ġstaro Å¼y
Ġtwoje go
za cja
Ġwi Äħ
Ġza gro
Ġpra cÄĻ
Ġt owarzy
ĠbÅĤÄĻd Ã³w
Przy kÅĤad
Ġma larz
ĠwspÃ³ÅĤpra cy
Ġkul tury
ks and
Ġorgani zacji
owa ÅĤo
de ks
ĠprzedsiÄĻ bior
ĠÅ¼y dow
Ġfil m
Ġzwy ciÄĻ
o log
Ġle czenia
se t
Ġmeto d
ow oÅĽÄĩ
ĠP re
to ni
li ng
Ġty mi
Ġob sza
Ġzapro jekt
Ġgodzi ny
Ġopro gram
rzy m
Ġroz u
Ġpra g
Ġhistory k
Ġcel Ã³w
ti mes
Ġsp rzÄĻ
Ġwszel kie
ĠK ar
oba cz
oÅĤ nie
ÅĦ ca
ĠdÅĤugo ÅĽÄĩ
Ġrela cje
Ġza czÄĻ
amiÄĻ taj
Ġtech ni
Ġza p
Ġobli czyÄĩ
ÅĤby ÅĽ
I E
Ġfil mowy
Ġpsych i
ĠgÅĤÃ³w nie
Ġw ÅĤÄħ
Å¼ sam
ĠG u
Å¼ ych
Ġco raz
ĠzwiÄħz anych
ĠcaÅĤkowi tych
dza Äĩ
Ġp rywa
Ġobsz ar
Ġpot ÄĻÅ¼
Ġz anie
m pi
feren cji
ĠX X
Ġfran cus
sty m
ĠC ze
li jski
Ġu nik
Ġu tra
ĠZjedno czonych
Ġu czenia
Ġzba daÄĩ
ĠszczegÃ³ ÅĤy
ĠK oÅĽci
Ġwi ary
u p
dz iaÅĤa
Ġm is
Ġ18 5
rzÄħ t
ren t
Ġmarket ing
Ġporu sza
num ber
Ġ2 6
ĠuÅ¼y cia
ĠdÅº wiÄĻ
A D
ĠF e
sz czÄĻ
c ar
2 2
ce m
Ġ lÄĻ
Ġsta je
Ġroz sze
Ġna po
Ġod chy
ĠJe go
Å¼e k
Ġw nio
Ġdz is
ĠsÅĤo ne
Ġpra cu
Ġniez wy
Ġre ali
ĠK rÃ³
Ġdob ry
t ri
Ġni gdy
Ġsto py
Ġrodza ju
ĠG ra
Ġna szego
Ġmusi sz
Ġfunk cje
nia jÄħc
Ġkorzy sta
ĠC e
kie r
s ÅĤo
Ġkom bina
ĠÅ» y
Ġbiz nes
"}} ,
ĠpoÅĽ wiÄĻ
Ġtech nik
mini stra
b Äħ
or k
ĠpoÅĤÄħ czenie
f ie
ch wy
c ko
kra i
Ġkro ki
ĠS ejm
e go
Ġdy sku
g s
Ġspo tka
ĠS i
ĠmÃ³ z
czy m
i tem
Ġwie dzy
nika mi
ni one
Ã ¼
Ġpo daÄĩ
lo t
Ġprodu ktu
Ġe dy
Ġbi bliote
Ġob ro
g ru
cyj nÄħ
ĠÅĽmier ci
Ġprawdopod obnie
ter min
z dy
bi o
Ġpunk tu
Ġe se
Ġne ga
wa ÅĤa
Ġzna kÃ³w
Ġkompu ter
Ġb ÅĤo
Ġ18 0
wa ÅĦ
sta tecznie
ĠczÅĤowie ka
M am
Ġmu szÄħ
Ġasyst entem
Ġimp lementa
Ġpierw szej
Ġoce ny
jski ch
Ġsystem Ã³w
Ġb rak
Ġfor mal
Ġkonkre tne
Ġzoba czyÄĩ
Ġprofe sj
s ort
ĠniezbÄĻd ne
Ġkontek ÅĽcie
Ġwielo kro
in d
ska Å¼
lo bal
Ġodp or
wie l
Ġhipo te
Ã Ń
Ġpomys ÅĤy
ĠS to
b ry
ana ch
st wie
Ġproce su
Ġkr wi
Ġstan owis
Ġwy stÄĻp
Ġprze kon
Ġto Å¼sam
a pp
ĠÅºrÃ³d ÅĤa
wiÄĻ cej
mi any
ĠAle ksand
Ġstwo rzenie
ĠmoÅ¼liw oÅĽÄĩ
Ġbud Å¼e
Ġakademi cki
ĠC on
Ġroz kÅĤad
sty cznych
ĠwpÅĤyw u
wa l
g re
al se
Ġprze pÅĤy
---- ----
Ġzo stanie
al nych
Ġprzyja ci
sz ka
y s
Ã ¶
ĠE d
Ġgenera ÅĤ
n t
obra Åº
Ġâ ī
ĠWo j
Ġw ciÄħÅ¼
Ġsty lu
ĠT h
\ )
ni ca
Ġt wa
ĠPo nad
Ġod by
tion s
Ġzosta Äĩ
Å¼e niu
v en
Ġsym bo
Ġi lo
cz nij
Ġofer uje
t ania
wi du
ĠgÅĤÃ³w ne
Ġna rod
Ġpo je
k tem
ĠnastÄĻpu jÄħcego
ĠRoz waÅ¼
Ġdob re
Ġpopra wy
ĠNie m
fun c
cy fi
9 0
Ġsu gest
Ġb iaÅĤ
Ġal ternatyw
t rza
cep t
wia m
Ġw tedy
Ġpow ro
Ġ9 0
Ġpotrzeb ne
Ġjednost ki
Ġk west
rze m
Ġpraw nik
ĠumoÅ¼li wia
Å¼y ÅĤ
Ġzja wi
Ġpomys ÅĤÃ³w
g Ã³l
Ġsi ÅĤy
qui red
Ġjedy nie
Ġsz we
ĠporzÄħd ku
Ġb ÅĤÄħd
Ġkonty nu
ĠĠĠĠĠĠĠĠ ĠĠĠĠĠĠĠĠ
ÅĽci Äĩ
Ġnie u
Ġi ni
ĠP io
szy scy
Ġzwie rzÄĻ
Ġpo mi
Ġuczest ni
pro perties
Ġle cz
logi czne
Ġsuger uje
Ġko lum
ĠK iedy
Ġjed na
II I
ĠangaÅ¼ u
ĠtÄĻ tni
Ġpo strze
ĠW h
ĠÅ¼ oÅĤnie
Ġwyso koÅĽci
Z obacz
Ġzd aniu
Ġswo imi
n d
g ÅĤo
Ġe la
ĠzwiÄĻk szyÄĩ
pa s
Ġkonie czne
Ġznale zie
Ġin we
lo na
Ġo ka
Ġpot wier
ĠT ak
ra lne
ÅĦski m
Ġreprez enta
hi le
Ġobej mujÄħ
Ġro snÄħ
' )
Ġu l
Ġli sta
Ġnie bie
to miast
wa ÅĤy
sta wy
Ġsy gna
ĠDla tego
Ġpierw szym
Ġspo strze
Ġwyb r
ĠF unkcja
sum owujÄħc
Ġw obec
tkow ych
ĠA na
Ġint en
Ġza k
ĠwywoÅĤ ania
Ġs ma
czÄĻÅĽcie j
Ġwi r
( -
ĠHen ry
st ych
in ter
dz one
Ġpowa Å¼
mie rz
Ġce lem
Ġza o
Ġst d
ta cja
Ġn owÄħ
y e
Ġsuk ces
ĠW ÅĤo
Ġn owej
Ġd ie
Å¼y w
Ġwy szuki
Å¼ er
Ġa kcji
Ġpo szuki
Ġa stro
Ġprezyd ent
ĠpÄĻ t
ĠPonad to
Ġzam k
ĠDz iÄĻki
ĠzaczÄħ Äĩ
cie le
Ġs kÅĤadni
t anie
us e
rze j
Å¼ ony
Ġzwy kle
Na pisz
stan owi
ko j
Ġpowin ny
Ġu ÅĤat
": ["
de x
Ġar y
Ġstro nÄĻ
Ġmo nitor
c lass
N A
ko ÅĤa
Ġpo Å¼
2 1
ar ray
ĠN one
"] }}
Ġpierw szego
Ġprogra mu
Ġstwier dzenie
Ġtra kcie
Ġra mach
Ġprze bie
Ġprzyjaci Ã³ÅĤ
ÅĦst wie
ĠK ra
ti ve
Ġstop ni
ĠbezpoÅĽredni o
Cze ÅĽÄĩ
kow Äħ
ĠÅĽrodowis ko
Ġzasa dy
Ġw scho
Ġopie ra
ĠjÄĻzy ku
le w
Ġdo cho
da m
unk Ã³w
ĠÅ¼ad na
Ġpa pie
Ġsuk ce
7 5
Ġby li
czÄħ c
Â °
Ġkoszy karz
Ġsame go
Ġskomp lik
czy ÅĤa
Ġponow nie
Ġnega tyw
ÅĤa d
cy k
Ġwy ÅĽwiet
Ġwska zuje
Ġprzyj muje
ĠDo datkowo
cj on
Ġdu Å¼ych
owan i
Ġstwo rzenia
Ġwy sp
ĠM on
o ut
ĠfaÅĤ szy
" "
tu s
Ġpli ku
nia Äĩ
Ġpa ÅĦstwa
Ġst u
Ġza ÅĽ
re quired
ĠU pewnij
ĠÅĽwia dom
Ġra dzie
Ġs ÅĤy
ra d
Ġat rak
Ġko lo
Ġz organiz
A l
de s
ĠP u
Ġdy plo
Ġkar ie
Na stÄĻpnie
W ie
s f
kÅĤa dem
Ġzna Äĩ
Ġprze twarz
jÄħ ÅĤ
Ġkro k
ĠE l
Ġm ani
Ġre a
ĠR zy
ĠZie mi
Ġza ba
zna cza
Ġzbi o
Ġperspe kty
f y
ĠtworzÄħ c
glÄĻ dni
Ġ18 4
Ġt wÃ³j
Ġk an
``` <|
Ġpot ra
Ġda ta
Ġdu Å¼e
rÄĻ b
Ġszere g
sze k
ĠzwiÄĻk sza
k owania
ci o
for mu
ÅĽ nij
ar r
Ġza daÅĦ
Ġt on
Ġza ku
nia ch
Ġwy starcza
Ġsame j
ss i
ĠÅ¼y ciu
Ġsta ra
Ġge ner
ĠI le
Ġd i
Ġod mÃ³w
Ġzwie rzÄħt
s ja
Ġo sa
Ġb rz
}} ,"
' s
ur rent
Ġryzy ka
ang le
Ġu da
Ġtrud noÅĽci
Ġcharakt er
ro k
Ġeksp ery
w ki
Ġzg inÄĻ
mi nu
Ġnap ÄĻ
D e
A r
Ġo pu
on g
Ġpy ta
i sta
ÅĤ Ã³
Jed nym
Ġtele wi
ĠFran ci
Ġmoje j
O b
ÅĤa szcza
ĠzewnÄĻtrz ne
Ġpre cy
Ġ __
ti c
mie nie
Ġz bli
liza cja
sz o
pi ta
Ġwy kry
ĠmateriaÅĤ Ã³w
Ġre sta
Ġwy rÃ³Å¼
t le
Ġdwo ma
Ġf rom
ĠÅĽcie Å¼
Ġindy widu
Ġmog liby
Ġa ta
Ġintelig encji
Ġforma tu
Ġ ner
Ġpre mie
muje sz
2 3
ĠÅĽredni Äħ
ĠwÅĤas ne
sze dÅĤ
Ġarchi te
Ġs prawi
ĠwÄĻ z
ĠV a
Ġ18 3
Ġdu Å¼y
Ġmi kro
na w
tor Ã³w
b Ã³w
mie niu
Ġobsz ary
a ccount
Ġpo seÅĤ
Ġre sult
Ġad ministra
Ġreprezentu je
Ġod nosi
. ","
Ġz er
l nymi
Ġsu ma
Ġth is
liw oÅĽÄĩ
mo dy
Ġdziennika rz
Ġmia ÅĤy
." }},"
w ers
Ġochro ny
Ġwy peÅĤ
Ġk wo
Ġwszyst kim
Ġt zw
Ġwydaj noÅĽci
Ġfo to
Ġ rzÄħd
t noÅĽÄĩ
ĠTwoje j
Ġ ÅĤo
T en
Ġtech niki
Ġtaki mi
Ġle karz
Ġser ca
Ġpodzie liÄĩ
Ġno cy
Ġau stria
Roz waÅ¼
wier cie
ĠFran cji
Ġzbi oru
o f
wÃ³ d
in put
Ġge t
Ġopowie ÅĽci
Ġc u
ĠwykÅĤad owca
Ġpo bli
ne ra
Ġma g
ĠP ary
Ġsa ty
t en
ĠgÅĤÃ³w nych
k owym
Ġch a
Ġskute cznie
da te
Ġry nku
Ġchoro by
Ġnaj wyÅ¼
Ġca ÅĤym
wen cje
Ġmeto da
ĠwejÅĽci owego
ĠÅĽ lima
Ġo sza
Ġwska Å¼
ĠsÅĤ owo
Ġbra ku
Ġpow ia
Ġokre ÅĽl
uje sz
Ġpis ania
ĠosiÄħg niÄĻcia
le ko
l or
war d
Ġzach owanie
ĠrÃ³Å¼ni ce
ta go
Ma sz
Ġtu ry
Ġprzesz ÅĤoÅĽci
K a
Ġil oÅĽÄĩ
ĠJa po
Ġzmien nej
Ġz ÄĻ
pie nie
2 8
ro zumie
Ġco m
Ġpierw szÄħ
E N
Ġre gres
Ġu kÅĤadu
z ny
ĠksztaÅĤ t
Ġtabli cy
ĠpoÅĤÄħ czenia
Ġwoje wÃ³dz
Ġodz wiercie
mp le
dzia ÅĤy
Ġtro chÄĻ
ĠD y
Ġczas em
Ġca ÅĤy
Ġal ge
Ġso li
p ty
Ġzdo lnoÅĽci
Do datkowo
Ġpot ÄĻ
Ġza soby
Ġu sÅĤugi
Ġzde fini
) $
Ġe ta
ste go
Ġzastos owania
b in
Po niewaÅ¼
to rem
Ġwiary god
fi niu
logi cznych
kow ski
D z
o ni
Ġu zn
ze um
ĠP ierw
ĠWy generuj
Ġokre s
myÅĽl nie
Ġwyb Ã³r
Ġprze r
Ġw szech
ĠStanis ÅĤaw
ĠMich a
Ġ rz
Ġ2 9
ĠUÅ¼y j
Ġwymag anych
ĠzwiÄĻz ÅĤe
Ġkon kuren
Ġmy ÅĽl
Ġcie m
s co
Ġde lika
Ġwyja ÅĽnie
] .
ni kom
ane k
num bers
Ġpodej ÅĽcia
Ġ owo
Ġroz wa
= =
Ġob owiÄħz
Ġpoje dyn
ral ny
Ġs ez
cie li
K on
Ġfa bu
Ġkomunika cji
lo at
Ġro bi
dz anie
Ġg ÄĻ
Ġwspar cia
ow er
t he
Ġpu stÄħ
wie nia
Ġpa ÅĦstw
m ono
ni c
Ġcent rum
Ġu my
Ġsyste my
Ġlekkoatle tka
ĠKa ro
Ġodpowiedni o
Ġspra wia
mo unt
Ġpo kry
Po z
st ana
tu al
T wo
Ġw io
wa mi
li t
nie ÅĽÄĩ
Ġli te
pa dek
sz one
ĠuÅ¼y ta
Ġobec nie
mi ot
ĠksiÄħÅ¼ ki
Ġwy bo
Ġniez n
Ġnie co
Ġhiszpa ÅĦski
Ġty s
w ych
Ġprzy ro
Ġjak by
czy k
cze m
ĠCh i
cki m
Ġna wiÄħ
Ġnor mal
ki ng
Ġza trzy
âĢ ŀ
gro dy
Ġobie kt
Â Ń
Ï Ģ
Ġc an
ĠT u
Ġci ÅĽnie
b ÄĻ
Ġroz mowy
Ġz i
Ġ7 0
ĠGe or
ĠksiÄħÅ¼ ÄĻ
) (
t kiem
Ġgeo metry
Ġeksper tem
men cie
si on
Ġznaj d
2 7
Ġfilozo f
tu j
Ġutrzy maÄĩ
fi kuj
Ġgra maty
Ġprzewi dy
ĠMar ia
ni s
Ġpodstaw owe
go sÅĤa
ĠÅļ wiÄĻ
Ġro k
Ġdostar czyÄĩ
Äħc ych
Ġroz miar
an Ã³w
ÅĤa mi
Ġinwe sty
Ġpozwo li
ĠC iÄĻ
ĠrÃ³Å¼ nymi
ĠA mery
len der
Ġobser w
st ej
Ġg lobal
Ġop tyma
dza jÄħc
Ġwy stÄħ
Ġu pro
Ġzw ÅĤaszcza
Ġdoda tkowe
Ġfir ma
ĠuÅ¼y wany
sp on
Ġdzie li
Ġpozio mu
Ġnowo czes
Ġchcia ÅĤbyÅĽ
Ġ20 20
Ġwiadom oÅĽci
T y
bli cz
i ce
Ġob ja
l ski
Ġwz iÄħ
dÅĤu Å¼
ne ty
ĠP Ã³ÅĤ
Ġf ar
cie la
ÅĽ mie
Ġfunda menta
Ġpowie dzieÄĩ
ĠmiÄĻdzy narod
Ġosta tecznie
ĠnarzÄĻ dzia
prowa dÅº
wanie m
ĠO p
Ġog ro
Ġdla czego
Ġzau waÅ¼yÄĩ
Ġba daw
de o
Ġstrate gii
Ġu t
() ;
za jem
l ta
Å ģ
Ġbad anie
Ġstruk turÄĻ
ĠuÅ¼y waÄĩ
le ÅĦ
Ġte maty
. )
Ġwykorzystu je
te st
ist oria
Ġistnie jÄħ
ĠSy stem
f ery
Ġwy ÅĤÄħ
ĠusÅĤu g
Ġprzeciw ko
Ġza in
Ġe uro
Ġz daÅĦ
Ġprzestrze gaÄĩ
ĠK siÄĻ
Ġcz te
ĠUni wersyte
Ġnie o
k owie
w anych
Ġdow Ã³d
naj dÅº
Ġc lass
Ġszczeg Ã³l
le y
Ġch ro
ĠczÄĻÅĽci Äħ
ĠkrÃ³ tki
Ġnie wy
Ġkla s
Ġod grywa
Ġm ist
ma th
Ġkana dy
ĠS er
g in
Ġkosz ty
ĠczÅĤon kÃ³w
Ġza jÄĻ
ĠS an
Ġsta bil
ĠS ch
Ġtrans forma
Ġmo cy
Ġnie pew
Ġprzedsta wia
Ġw ro
ÅĤo nek
Å¼enie m
nia jÄħ
ia l
Ġtygodni u
Äħ Äĩ
ĠJÃ³ze f
Ġczytel nika
Ġzmien nych
e y
ĠB ra
Ġwarun ki
Ġli stÄħ
Ġtu taj
ĠPyth ona
$ $
Ġno c
Ġwydaj noÅĽÄĩ
sta wi
Ġzna czenia
Ġk to
rÃ³ deÅĤ
Ġtakie go
Ġwiel koÅĽci
Ġro li
ĠM ia
met rii
Ġu rucho
jÄħc o
ĠW al
Ġ rzym
co s
Ġpowin no
b or
Ġse kre
ĠbyÅĤo by
ĠC y
Ġce sa
Ġek scy
ĠÅº rÃ³deÅĤ
re e
Ġpa s
ĠokreÅĽ la
Ġplat for
Ġd niu
Ġma in
p l
Ġwie rz
ĠH u
Ġzdo lnoÅĽÄĩ
ru n
Ġo bywa
Ġreli gi
Ġhistor ia
Ġz ani
el l
Ġobie ktÃ³w
ĠÅĽwiat ÅĤa
Ġponi Å¼ej
Ġjak Äħ
Ġkonkre tnych
ĠÅļ wia
Ġwart o
or ld
Ġm no
ĠbÅĤÄĻ dy
he l
Ġ200 0
Ġuwa gi
Ġi miÄĻ
Ġza leÅ¼y
ĠuÅ¼y wania
Ġzdr owie
po rzÄħd
M e
Ġmo dy
W skaÅ¼
i ne
ĠpiÄĻ Äĩ
Ġuwz glÄĻdni
Ġograni czenia
Ġh er
Ġza bu
Ġstwo rzy
ĠwpÅĤy waÄĩ
O N
ste cz
ĠÅ¼yw noÅĽci
Ġe wolu
Ġreprez ent
Ġsk ar
Ã³w czas
Ġcze ka
Ġsz czÄĻ
ĠporÃ³wn aniu
Ġwizu ali
Ġkon tra
ul d
ĠÅĽred nia
Ġw hile
que ue
Ġi z
ÅĤa ch
Å¼ d
ist ka
\ ]
Ġsum ÄĻ
Ġwy zna
ĠÅĽwia do
Ġm Ã³j
Ġpubli c
MoÅ¼e sz
Ġp ta
Ġrozpo czÄħ
ĠE u
Ġeksp lora
Ġzmniej sza
Ġku ch
Ġwyna gro
p ort
Ġczer wo
ĠomÃ³w iÄĩ
Ġg en
w rÃ³
In nym
Ġlekkoatle ta
Ġfor m
Ġk m
Ġmie siÄĻcy
ĠN or
pie ÅĦ
Ġod dzie
Ġka mp
ĠP ie
ga mi
ĠE mily
b ro
Ġte ma
Ġnaz wÄĻ
la cjÄĻ
ĠuÅ¼y wana
in c
sf ak
g nie
Ġd rz
Ġma ÅĤe
ĠS po
nia mi
Ġle n
Ġdoda tni
Ġpie niÄĻ
ĠCh ar
Ġposta cie
ĠnarzÄĻ dzie
cz en
Ġni Äħ
Ġboha ter
ĠwiÄĻksz oÅĽÄĩ
Ġw nios
Ġspo soby
Ġnaj czÄĻÅĽciej
Ġpow od
Ġrozpo zna
Ġu za
Ġpra widÅĤ
Ġzmie ni
Ġimp lika
Ġu szko
zu peÅĤ
Ġroz kÅĤadu
k ta
Ġz im
ĠN IE
ĠP an
ĠprÃ³ bu
m or
Ġelekt ro
Ġre kla
ku jÄĻ
Ġinten syw
Ġk lar
Ġzmi ana
Ġzakre s
Ġpacjen tÃ³w
Ġob o
Ġinte gra
ĠOtrzy mujesz
ta cjÄĻ
Ġod sta
ĠS Äħ
Ġhar mono
Ġopera cji
mÃ³w ie
czywi ÅĽcie
Ġwy po
Ġwie k
L in
Ġnaz wy
3 6
Ġwprowa dzenie
Ġscena ri
ke y
7 0
ÅĤÄħcz ony
Ġsz k
Ġza tru
ĠmÅĤo d
Ġod na
R L
Ġwyb ra
cj ona
Ġ' []
." )
Ġcz ÅĤonek
ĠC za
Ġsztu cznej
Ġ'[] '.
k Ã³j
Ġpro cent
p ri
Ġna tury
sta l
Ġin nego
ĠodlegÅĤ oÅĽÄĩ
u sza
Ġu krai
Ġosta tnie
Ġmedi Ã³w
czenie m
Ġ202 1
ĠB ryt
nie ÅĦ
r ist
Ġma x
â Ī
Ġsta ÅĤa
} ]</
Ġna tomiast
ĠM US
Ġnie rÃ³w
Ġprzy jem
Ġwy glÄħda
ĠgÅĤÃ³w ny
Ġcz tery
ĠÅĽ pie
Ġna szym
ĠH er
pa t
cz nik
Ġwspar cie
li sty
Ġunika lne
Ġna szÄħ
Ġza wo
Ġaktu ali
v id
ĠwspÃ³ÅĤ prac
lo nych
Ġ ÅĤu
Ġch ÄĻ
Ġdane j
ĠPod czas
ĠMUS I
Ġw szyscy
Ġrze Åº
ĠP er
j ÅĽcie
rÃ³ cz
c le
Ġwz oru
Ġar cy
v o
Ġm g
Ġh y
Ġpow ta
Ġz ÅĤa
Ġsty l
Ġpsych o
ĠXI X
ĠÅĤÄħ cznie
Ġprze sÅĤ
ja ch
ty mi
Ġobec noÅĽÄĩ
ĠwiÄĻk szÄħ
Ġc m
Ġkole i
i k
Ġdzie siÄĻ
Ġop tional
Ġinte ra
ÅĤ Ã³Å¼
ĠwystÄĻpu jÄħ
Ġv on
Ġp le
ko rzy
ĠG i
Ġwyra Å¼enia
ĠpeÅĤ ni
Ġ ?
Ġprez enta
ĠH ar
Ġho lender
Ġpocho d
Ġauto maty
st oÅĽci
Ġana liza
3 3
cz er
ja va
ĠS praw
ĠsÅĤu Å¼
ra b
ĠurzÄħ dzenia
Ġjedno stek
Ġstandard owe
Ġkontro l
Ġzmniej szyÄĩ
ĠwywoÅĤ anie
ty ki
Ġ. ..
Ġini cja
en ce
Ġspraw dziÄĩ
ki n
Ġzanie czy
Ġsaty sfak
rÃ³ bu
Ġstos owane
Ġskon cent
o ver
Ġt end
owany mi
Ġdostos owaÄĩ
( \
prawi dÅĤ
Ġpowie trza
Ġ ÅĤy
Ġmoty wa
ch em
Ġre du
Ġd r
Ġwyda rzeÅĦ
di ct
ĠCie bie
ma x
Ġtwo rzenie
Ġob jÄĻ
Ġwyso kiej
waj car
Ġ194 5
Ġspe cyfi
ĠmyÅĽ lenia
Ġzach owujÄħc
v el
Ġdo pas
Ġpo tem
Ġtra kt
P a
ĠinÅ¼ynie r
Ġro lni
Ġtransp ortu
le ni
Ġs en
Ġprodu cent
Li czba
ĠC ent
Ġpozio mie
Ġprzy jÄĻ
rze ÅĽci
ĠwskazÃ³w ek
Ġmatematy ki
ĠzÅĤoÅ¼ one
Ġpow stania
ad d
ĠwiÄĻk sze
A le
ĠCz ÄĻ
ch Ã³w
Ġloka liza
ĠtrÃ³jkÄħ ta
j nych
Ġm m
Ġzna laz
tor ium
ĠWÅĤa dy
Ġdzie l
Ġdzie lni
ĠÅĽwiat owej
Ġpomy sÅĤ
Ġpozosta je
Ġdecyz je
j Ã³w
|> <
Ġob ra
Ġca ÅĤej
ĠÅ¼y ciem
Ġw czes
Ġbie Å¼Äħ
Ġpozy cji
P amiÄĻtaj
Ġu koÅĦ
Ġsz er
ty k
5 5
W a
Ġ value
owa ÅĤem
Ġrozwija Äĩ
Ġdane go
Ġnum er
Å¼e li
Ġzmien nymi
ĠZa miast
l on
pad ku
ĠwiÄĻk szej
Ġcie bie
v al
ĠwspÃ³ÅĤpra cÄĻ
item s
Ġfor my
j my
o re
Ġpowie trz
Ġszczy t
S z
Ġprzewo dni
Ġzamie sz
Ġna wi
Ġin nym
nÄĻ ÅĤa
D zie
Ġfir m
j ne
Ġd w
Ġprze glÄħd
ĠodlegÅĤ oÅĽci
st rzy
ar ch
Ġwprowa dziÄĩ
ĠprÄĻd koÅĽci
ÅĤ ania
ĠkoÅĦ ca
Ġte at
Ġmani pu
ĠspoÅĤe cznych
Ġtempera tury
Ġfilozo fi
Ġprze su
ĠS h
Ġod niesie
aÅĤ kowi
ĠcaÅĤkowi ta
Ġtere nie
dra wiam
: //
ĠIn ter
g ry
+ +
Ġod bior
le niu
ĠMo gÄħ
mi t
co ne
Ġp ani
ĠM O
Ġpre mier
skie m
Ġi Å¼
in gu
Ġpew ne
Ġop cji
me k
ĠspoÅĤe czne
li mpi
wie nie
Ġwy cie
Ġzau f
Poz drawiam
st oÅĽÄĩ
ta li
le piej
ĠczÄĻsto t
tu rze
Ġwyja ÅĽ
Ġprzysz ÅĤoÅĽci
Ġa m
Ġwoj ska
Ġmo im
Ġprzestrze ÅĦ
Ġpra wie
Ġdu Å¼Äħ
ĠKa zi
Ġw rÃ³
ĠT ho
Ġprodu kty
Ġsam Äħ
dnie nia
Ġsposob em
ĠT rue
Ġkarie ry
B C
K iedy
Ġza kup
Ġu cie
ĠP la
ĠM an
naj mniej
Ġk or
Ġ202 2
3 5
Ġu pra
ĠÅĽwia d
Ġ4 5
Ġkobie t
Ġda ty
Ġk re
gosÅĤa wi
Ġ5 00
ternatyw nie
ĠgÅĤÄĻ b
ĠÅ¼e by
() `
Ġf anta
Ġzde cyd
k owaÄĩ
tych miast
Ġ\ \
Ġwsp ina
dz iÄĻ
Ġfa scy
ma sz
Ġwh ich
S ta
Å¼ sze
li wa
Ġtrze ciej
ĠkaÅ¼ dÄħ
Ġzap lan
Ġwykorzy stanie
p ow
Ġczytel nikÃ³w
Ġwz Ã³r
Ġz wo
ĠwÄĻg ier
ĠrÃ³Å¼ni ca
Ġmuzy ki
S T
L e
ÅĤy mi
ĠJed nym
ĠprÃ³ by
Ġzastos owanie
E R
b us
Ġobser wa
ĠMo Å¼na
p to
Ġwp is
Ġha ve
Ġtwo ja
wi d
fi l
Ġb rze
un ku
Ġpro gno
ĠK ana
ĠG ru
Ġwy stÄħpi
ĠTwo ja
Ġwierz cho
c tor
Ġprzemy sÅĤ
p ha
Ġprzy ciÄħg
dze ni
Ġdro dze
Ġtekst Ã³w
Ġs al
Ġkomp leks
ĠWy nik
Ġodw ro
Ġza kÅĤada
ĠwspÃ³ÅĤ czes
ĠS ÅĤo
k owane
dzie ÅĦ
ĠzÅĤoÅ¼ onych
ul l
Ġdzie w
rz aÅĤ
Ġgdy by
Ġ194 4
Ġdrze wa
dz ony
k owanie
ĠO znacza
ĠnaleÅ¼ Äħ
Ġwykorzy st
Ġnaj pierw
Ġoce niÄĩ
Ġmaksymal nie
Ġwy bu
Ġob ni
Ġp ary
E mily
] )
sp ie
wia Äĩ
Ġkata stro
Ġmia ÅĤo
Ġprze pisy
Ġre kuren
Ġk art
w raca
ro s
ĠT wÃ³j
Ġklar ow
2 6
S y
grafi i
po nen
m art
Åº nie
Ġog ÅĤo
Po daj
Ġma s
Ġu n
pa ch
Ġbi twie
Ġod da
k cje
Ġdo staw
pe m
Ġu de
ĠÅĤa t
Ġobli cza
Ġkos mi
Ġcent ral
se d
ĠrÃ³w ne
ĠF or
ĠwskazÃ³w ki
ĠzginÄĻ ÅĤo
( ):
Ġ3 1
ĠM at
ĠwÅĤa dzy
b an
Ġw dro
le ra
ÅĽci u
Ġunik nÄħÄĩ
ĠNie ktÃ³re
re ch
Ġna da
Ġre k
h n
"}} },
ĠzÅĤoÅ¼on oÅĽci
Ġpopraw ny
k rÃ³t
Ġpubli cznoÅĽci
Ġkonsek wencje
Åº ni
Ġi tera
prze strze
ĠcaÅĤkowi cie
Pod czas
Ġwoj na
stnie je
Ġmniej sze
Ġc uk
Ġodzwiercie dla
Â ²
Ġorgani z
Ġpro por
ga ch
Ġwyb oru
Ġmedia ch
w ne
Ġdo stÄĻpu
ber t
Ġba zy
tu re
Ġst ÄĻ
Ġkore lacji
Ġoprogram owania
Ġ20 19
Ġfil mu
z Äħ
ĠSt wÃ³rz
da go
Ġkli maty
ĠPrze d
ĠÅ¼ydow skiego
ar ni
4 8
ĠAnd rzej
ce ÅĦ
czy ni
Ġ Ð
Ġtwo jÄħ
Ġwyra Å¼enie
ĠzaangaÅ¼ owanie
Ġsprzeda Å¼
Ġo pa
Ġregres ji
Ġsta ÅĤ
Ġwe ktor
ĠDo myÅĽlnie
N o
ĠA d
Ġ" ""
en u
ĠJe rzy
pa th
A na
ĠE n
li ta
Ġznajdu jÄħ
Ġk wia
L ist
ĠL on
Ġwy noszÄħ
Ġwsp ania
Ġspraw dza
Ġne uro
ĠwyjaÅĽ niÄĩ
Ġnaj lepiej
Ġ3 5
Ġszko ÅĤy
Ġop owia
Ġ15 0
ok e
Ġwo ka
ĠpoczÄħ tk
Ġ193 9
Ġzie m
ku r
Ġdu Å¼ej
Ġp ÅĤu
Ġcie ka
Ġz nie
Ġk rÄĻ
Ġb ÄħdÅº
Ġkraj obraz
Ġre je
ĠuwaÅ¼ a
t nia
Ġloka lnych
Ġrozm owÄĻ
ĠS ÅĤ
y er
Ġprofesj onal
blio grafia
Ġtwo rzyÄĩ
sz t
ĠI V
la cje
la te
O p
Ġna me
ÅĦ czy
Ġop cje
Ġzn ane
ĠA PI
Ġv o
ĠD i
Ġdo tar
Ġdob ro
tago ni
Ġ201 8
Ġw il
ĠtoÅ¼sam oÅĽci
iÄĻ kujÄĻ
ra te
Ġpo la
P obie
ja ÅĽnij
Ġwoje n
Ġta kim
bra Äĩ
ma s
Ġeduka cji
Ġjak oÅĽÄĩ
Ġwy siÅĤ
6 4
Ġbra m
pie ro
Ġ20 10
Ġprawdopodobie ÅĦstwa
ĠbyÅĤ by
Ġo cen
li ny
we k
app end
go dy
Ġsamo rzÄħd
ĠkrÃ³ la
Ġb Ã³
ĠD ob
ki mi
ĠRob ert
Ġz mar
re ad
T he
Ġpoko ju
ry bu
Ġd rew
Ġu jem
kra cza
Ġprzeka zy
ĠÅĤa two
Ġpro te
Ġcy k
ĠzachÄĻ ca
po mina
Ġdo kon
R R
Ġ %
z wa
ĠM usi
al nie
Ġzapewnia jÄħc
Ġb ro
ĠgÅĤÄĻ bi
Ġo ut
cz anie
Ġod e
Ġt ery
Ġpro mieni
Ġtwo ich
Ġa ccount
ĠG ÅĤÃ³w
Ġza ka
ĠNe w
ĠwÄĻg la
Ġpubli cy
Ġbi nar
ĠF er
Ġpowy Å¼ej
Ġcho Äĩ
ĠÅĤÄħ czy
O statecznie
ma ta
Ġ end
ka Äĩ
Ġnaz wa
Ġna tychmiast
PrzykÅĤad owy
za Äĩ
Ġpodstaw owych
niÄĻ te
Ġmini mal
ĠWil li
ĠzrÃ³wnowa Å¼o
Ġdu Å¼o
ch ar
Ġwz moc
Ġchwi li
Ġoczeki wania
Ġtele f
an ki
Ġwal ki
Lin ki
Ġd ar
ĠnapiÄĻ cia
Ġzasa d
formu ÅĤ
f ej
ĠWarsza wa
no m
Ġter min
Ġnie wiel
Ġprzy pis
p ier
le tni
Ġzbi or
Ġdo prowadzi
w ÅĤa
Ġdrugie go
Ġtytu ÅĤ
B y
dni ch
Ġsi ÅĤ
Ġb la
k cja
dzi ÅĤa
ĠpieniÄĻ dzy
si ze
Ġstan owiÄħ
r c
pad Ã³w
w ska
Ġwy ka
Ġrozwi j
Ġszwe dzki
Ġdla tego
Ġkro ku
3 2
Ġma ÅĤych
Ġnar racji
Ġs koÅĦ
Ġpod sum
ĠrozwiÄħza ÅĦ
ri x
Ġwzor cÃ³w
6 7
Ġz mody
ĠPÃ³ÅĤ noc
ia j
Ġ200 8
Ġran ge
ini t
li wy
Ġener giÄĻ
Ġm an
t owe
Ġod rzu
ĠPo z
Ġwe wnÄħtrz
Ġsub stan
Ġin spi
ĠPio tr
ĠS ie
gu je
Ġdia gno
h am
Ġprzy czyn
Ġtransp ort
Ġmi an
wa jÄħ
Ġpu sty
Ġpodejm owania
Ġarcy b
Ġp ÅĤo
Ġstwier dzenia
Ġkoncentru jÄħc
Ġprosto kÄħ
Ġinternet owej
Ġnie bezpie
Ġwar unkÃ³w
Ġpod pis
dz ania
Ġ Â
rz one
ty p
Ġzastos owaÄĩ
ĠÅ» AD
Ġaut enty
Ġniezwy kle
Ġw Ã³wczas
Ġprzy najmniej
mi ona
Ġwi zy
rÄħ g
lue Error
Ġperspekty wy
Bi bliografia
Ġalgoryt m
Ġu prze
Ġela sty
lo ka
} $.
g owy
t ÅĤu
ĠÅĽwiat ÅĤo
ĠksiÄħ Å¼ek
ĠdostÄĻp ne
Ġzad anie
Ġkonta kt
Ġmateria ÅĤy
al ny
Ġpe dago
Ġfor mie
ĠT ur
ĠJe j
Ġwi dzi
Ġkomp on
Ġz ÅĤ
Ġkol or
ĠS tu
Ġn r
Ġpod jÄħÄĩ
en cjÄĻ
co ny
li p
pu szcza
Ġopie ki
Ġmo ich
to da
Ġos ie
Ġpowie dziaÅĤ
Ġbran Å¼y
Ġi lu
Ġtwo im
ĠEuro pe
Ġwy sy
I D
Ġanaliz ie
Ġnar ci
Ġs h
ĠdÅĤu gi
Ġkon su
Ġ3 6
Ġzbi orÃ³w
Ġpolity ki
mi ny
Ġdrz wi
Å ¡
Å» E
ĠE x
Ġwz glÄĻd
ara h
ra sta
Ġi zo
Pod sumowujÄħc
Ġjas ne
Ġswo bo
wie n
Ġzdania ch
ma lne
Ġzn any
Ġ1 000
ĠzÅĤoÅ¼on oÅĽÄĩ
ĠMO Å»E
owi cz
Ġsku piÄĩ
ĠosiÄħ ga
ĠwÅĤas nych
Ġwers ji
% .
() )
szcze gÃ³l
Ġwzor ce
ty cznej
Ġm ono
Ġpierw sza
bal ance
Ġst ring
Wy nik
Ġrz ad
Ġwiadom oÅĽÄĩ
Ġ201 6
Ġkosz tÃ³w
Ġklucz owÄħ
ta cza
Ġce ny
dz ono
sz ÅĤo
Ġzu Å¼y
Ġni c
Ġobsz arÃ³w
Ġz bie
la sy
ĠA dam
Ġosza c
i Ã³w
Ġz mu
Ġpol skiego
Ġdo strze
ĠWh at
Ġnie pod
ier ania
rze Äĩ
Ġ17 9
Ġza ga
ĠP art
li ni
Ġzro bi
ĠdÅĤugo termin
ci w
Ġb el
Ġidenty fika
ĠTwo jÄħ
Ġpoja wi
Ġpowro tem
C on
Ġt ur
sz ony
ĠWarsza wie
mi Äħ
d to
Ġbo k
Ġko mi
Å į
Ġst r
Ġsz an
ct wem
Ġloka lizacji
ĠTwoje go
Ġkontro li
ÅĤ ka
Ġnaj now
ty czny
Ġspotk anie
Ġs et
Ġsoli d
ĠwspÃ³ÅĤ rzÄĻd
il d
ĠPo ÅĤudni
ĠJa ka
Ġw ÄĻd
ma in
Ġty py
Ġprac owni
Ġp al
Ġ200 6
Ġwyz waÅĦ
Ġte ren
ĠpoczÄħ tek
Ġdo ÅĤÄħczony
Ġma ÅĤ
Ġo stro
Ġ200 7
ĠÅĤa d
Ġrzeczywi ÅĽcie
Ġ201 4
Ġtakie j
Ġu zupeÅĤ
b rze
Ġg le
Ġre wolu
waÅ¼ a
Ġ+ =
P ona
Ġpierwia st
ar row
Ġdo ÅĽÄĩ
n Ã³w
Ġkar dy
Ġpiosen karka
Ġwymieni one
ne xt
Ġn u
nienie m
ĠB ie
Ġp rÄħ
Ġ201 7
Ġstrate gie
ĠdziaÅĤania ch
ĠAu gu
w encja
Ġkontek stu
ĠÅļ lÄħ
g ur
Ġwy do
Ġkon cer
Ġmar ki
ĠwiÄĻksz oÅĽci
Ġkatego rii
a s
ĠTa de
Ġ201 2
. âĢĿ
Ġwie dzÄĻ
ÅĦ ce
o nym
dzia le
}, {"
ĠwziÄħ Äĩ
ĠspoÅĤe czeÅĦstwa
ĠWilli am
Ġs ens
Ġprze ciÄĻ
gi p
t rÃ³w
Ġmi ÅĤoÅĽci
Ġre f
ĠdoÅĽwiad czeÅĦ
Ġ201 1
lu de
zu lta
Ġry n
ĠO s
ro na
ĠA ng
Ġ200 4
Ġ[ ]
ĠĠĠĠĠĠĠĠ ĠĠĠĠĠĠĠĠĠĠĠ
ru s
p lika
Ġostatni ch
A R
ĠokrÄĻ gu
Ġza kÅĤ
v is
Ġs in
Ġna ci
ĠT ra
ma ra
ĠkoÅĦ c
Ġsukce su
cy mi
Ġdoda tk
ni ony
Ġz maga
ð Ł
ok ra
Ġwspom nienia
ĠSte f
ĠpÅĤa szczy
ĠWiel kiej
ĠniezaleÅ¼ nie
Ġc urrent
tk arka
Ġprzez na
Ġmacie rzy
S tr
t to
Ġanaliz ÄĻ
Ġdziedzi nach
gu lar
Ġod bi
kaza ÅĤ
ow cÃ³w
ĠLud wi
Ġrozu mie
ĠÅ¼ a
sÅĤa wa
ĠÅ¼ad ne
Ġ201 3
p ÄĻ
Ġpacjen ta
Ġpo ch
Ġdzien nie
s jÄĻ
Ġobie ktu
Ġpocho dzi
Ġbie g
__ (
ng th
red nia
Pona dto
w skiego
ĠK i
Ġchor Ã³b
szyst kie
Ġpyta ÅĦ
Ġt le
2 9
ni n
Ġprzy by
} ")
ĠbÅĤo gosÅĤawi
Ġsta Äĩ
ĠÅ¼ Ã³ÅĤ
f ia
Ġpo ÅĤoÅ¼
Ġspostrze Å¼enia
0 5
Ġza war
19 9
Ġodwie dza
ĠB an
ĠsÅĤ ownik
Ġwykorzy stania
ĠdziaÅĤa lnoÅĽci
ĠrÃ³Å¼ni cz
Ġcy wi
Ġkon ser
Ġuczu cia
Ġgatun kÃ³w
Ġprzy da
g ÅĤÄĻ
Ġmia st
Ġparamet ru
na tor
Ġp ÅĤ
Ġg Ã³ry
k rÄĻ
Ġzainteres owania
Ġdo trze
Ġimp ort
Ġli ter
A T
Ġkan dy
Ġwart oÅĽciami
Ġatmos fery
Ġdoda tkowych
Ġeg za
kt ory
Ġt ime
ÅĦ skÄħ
Ġelem entu
Ġwi deo
ow uje
Ġsie dzi
Ġutrzy my
Ġrodza je
Ġprecy zyj
niÄĻ ty
F i
st ron
Ã³ sÅĤ
} $,
ĠM iÄĻdzy
na rzÄĻ
Ġtelewi zyj
cz kÄĻ
Ġcz war
ĠAn na
Ġkobie ty
Ġpoja z
"]}} },{"
Ġprodu kt
Ġpunk cie
Ġ201 5
ĠsÅĤu cha
Ġpoczu cia
Ġangiel ski
Ġprzechowy wania
Ġstud entÃ³w
Ġda leko
J o
Ġ200 9
ĠÅĤÄħ czÄħ
Ġofi cja
li s
ĠÅĽ wiÄħ
rz ony
ĠCz er
Ġpodob ne
Ġklucz owy
Ġsza c
p iÄĻ
ĠogÃ³l ne
Ã³ rek
Ġfascy nu
Ġd anym
ĠkrÃ³ le
Ġdobry m
Ġprze kazaÄĩ
Ġod ej
Dla tego
Ġsta ÅĤy
Ġ7 5
ni ania
Ġprzy pomina
kre ÅĽl
Ġmi mo
ol d
Ġpo jÄĻcia
li zuj
Ġwar ian
z z
Ġre zulta
ĠnajwaÅ¼ niejszych
Ġprze tr
or i
Ġza im
Ġpowo duje
mi ana
sz ona
ĠO pisz
narzÄĻ dzi
re sz
k m
Ġsa ma
Ġdzis iaj
Ġf la
wi t
Ġarcyb iskup
Ġja ka
ant Ã³w
Ġwy ÅĽci
Ġtek ÅĽcie
ĠrÃ³Å¼ni c
Ġpart ner
Ġniepo ko
Ġpo szczegÃ³l
ĠCh cia
Ġgo ÅĽci
so le
Ġspo j
Ġpowin ni
Ġzna ki
Ġana lity
Ġspotk ania
ĠZ wiÄħz
ĠRe publi
nie si
Ġin put
stawie nie
Ġkompon owaniu
Ġdro b
ĠzakÅĤ Ã³
lu cz
Ġprzypad kach
Ġpoja wia
on s
A S
Ġinte res
za cjÄĻ
Ġse ku
Ġdro gi
Ġd owie
ĠwÅĤa ÅĽnie
Ġprze ÅĤo
ĠuÅ¼y te
Ġodkry Äĩ
Ġhar mo
Ã³ g
Ġja kim
Ġpoka zuje
Ġstu dni
wa ÅĤo
bli Å¼
Ġstwier dza
Ġre zer
Ġpro sty
Ġwar st
ru je
Ġofer ujÄħ
la kty
gro ma
Ġsprawie d
- >
e p
Ġpro to
ĠÅ»AD EN
Ġin stytu
3 4
tu jÄħ
Ġop ÅĤa
ĠzarzÄħdz anie
Ġpowszech nie
Ġek stre
cie go
Ġme ned
Ġha s
Ġemo cje
ĠA t
Ġuzysk ania
^ (
Ġprzy pom
Ġ200 5
Ġmaszyn owego
Ġw in
ĠprzykÅĤad Ã³w
lenie m
Ġfor mu
Ġtran sa
P ierw
ĠK om
Ġsamo lo
p liwoÅĽci
r is
Ġta ka
ĠJ ana
ĠGeor ge
R a
Ġza bezpie
Ġod czy
ĠJa ck
Ġscena rzysta
Ġokre su
ĠJa ko
Ġemo cji
ĠCho ciaÅ¼
ro dek
le c
si sta
Ġw dziÄĻ
Ġo limpi
Ġco unt
Ġu tw
niej szy
no de
Ġprogram owania
Ġch rzeÅĽci
Ġna sz
Ġko larz
ĠktÃ³ry mi
Ġodpowiedni ch
ĠrozwiÄħzy wania
Ġpedago g
Ġroz um
Ġinter fej
Ġk rÄħ
ĠJe stem
ĠNie mie
Ġpo rt
Ġu r
Ġpotra fi
Ġma l
Ã ¤
Ġal l
Ġzb ro
Ġch mu
Ġu chwy
w ant
Ġk al
o nej
Ġodpowiedzia lnoÅĽci
ci ÅĤa
Ġit p
Ġ( -
Ġdoty czy
ĠmÄĻ czen
t wÃ³r
k rzy
cie n
Ġar r
w Ã³w
to p
Å¼ onych
ra bia
Ġau stra
Ġgro ma
Ġo si
Ġf raz
ĠE r
Ġ$ <<
Ġperspe ktyw
og le
ĠpoÅ¼ Äħd
Ġrze kÅĤ
ĠwÄħ t
g ania
Ġlud noÅĽci
Ġob ciÄħ
Ġc Ã³r
ĠÅĽ mie
ĠE m
Ġpro m
ĠW scho
Ġpra ca
Ġkonkre tnego
Ġwyszuki wania
Ġpo dz
Ġpo jem
ma lizowaÄĩ
ĠMoÅ¼e my
g ni
ĠdÅĤu Å¼
Ġwir tual
Str ing
Ġprzy cho
Ġy our
Ġproce sie
z em
ĠA li
logi cznej
tur Äħ
Ġaustria cki
ka m
ie j
he ad
bo na
Ġod de
Ġca ÅĤÄħ
no ty
Ġreak cji
p res
Ġnie prze
Ġargum entu
tu i
Ġgdy Å¼
Ġzani m
Ġad res
Ġwykorzysty wane
Ġradzie cki
ĠwejÅĽci owe
ĠKo mi
ra stru
Ġinterak cji
ĠcaÅĤkowi tej
Ġs ort
sta ck
Ġwz dÅĤuÅ¼
ĠpÄĻt li
Ġtwo rzeniu
Ġpa su
Ġjapo ÅĦski
Ġpublicy sta
cz oÅĽci
dzi li
ĠB ad
Ġ3 2
ĠdziaÅĤ anie
ĠzaangaÅ¼ owania
Ġimplementa cja
w szy
il le
f rom
Ġo rze
ĠTe ch
Ġz ob
ĠR Ã³w
i z
Ġnor we
ĠS zy
l s
Ġzakre su
Ġu p
Ġa c
ĠM art
Ġkro kÃ³w
H istoria
Ġspo koj
ĠTwo im
Ġwymag ania
szcz ÄĻd
Ġcze ski
Ġod d
wa ch
Ġpis arka
ĠzwrÃ³ ciÄĩ
ĠI s
8 5
Ġwy nikiem
n oÅĽciami
Ġstru ktu
ĠuÅ¼ytkow nikom
G e
Ġh um
}, "
Ġkolej noÅĽci
Ġwielo mian
art oÅĽci
ĠW z
Ġpro pozy
Ġ$ (
Ġsto li
` :
Äħ ÅĤ
Ġt ow
Å¼ ki
ĠEuro py
Ġka pi
Ġtwier dzenie
Ġto po
Ġta be
Ġja b
Ġinterak cje
Ġli czne
te li
Ġf ol
Ġskoncent r
ro b
6 5
Ġekscy tu
Ġwojs kowy
Ġo tacza
j ny
ĠH ol
ka ÅĦski
ĠwyÅĤÄħ cznie
ĠJa mes
ĠdÅº wiÄĻk
kre s
Ġ200 1
Ġod cin
ĠM c
Ġprowa dzÄħ
ĠJapo nii
Ġa mount
W i
Ġs io
d ii
ĠZa tem
Ġwar szta
Ġdowo dÃ³w
l ania
v ie
ty cznego
ÅĽ lÄĻ
nie niu
Ġczas Ã³w
Ġusta liÄĩ
Li sta
b f
Ġwojs k
Ġosta te
Ġzaj muje
Ġimplika cje
Ġ3 00
Ġkorzy st
Ġsport owy
t m
ĠM or
Ġprzedmio tÃ³w
sona liz
Ġwybra Äĩ
Ġpo stÄĻpu
Ġsia tkarka
ĠF alse
Ġopi nii
Ġplan u
Ġ1 20
tÅĤu ma
L u
z jÄĻ
Ġw stÄĻp
ĠcaÅĤkowi te
Ġpowietrz u
Ġm on
Ġdrugi m
Ġmo ral
Ġzna k
v ar
Ġnapis aÄĩ
Ġz biera
za ch
twie j
Ġzbio rze
le d
Ġmoje go
Ġre cen
ĠE mi
sy n
Ġpobli Å¼u
Ġzestaw u
ĠSz cze
Ġnauczy ciel
qu ad
Ġcho ciaÅ¼
ier anie
czo nym
Ġgrani ce
de ra
Ġwyda rzenie
f u
ĠogÃ³l ny
Ġbra zy
sz p
Ġnaz wie
Ġspraw ÄĻ
M i
t owy
ss a
d ent
Ġs nu
Ġpo sort
Ġpod wÃ³j
ĠB en
Ġopar te
Ġty le
Ġda Äĩ
row in
ĠwpÅĤy nÄħÄĩ
I N
Ġme try
Ġ jo
Ġe m
ĠPar k
Ġzmien ne
Ġsta ÅĤo
' (
co de
ĠpiÄĻ ciu
Ġnau czania
Å¼ ka
ĠprÄĻd koÅĽÄĩ
ĠPrzy kÅĤad
ĠskÅĤad nikÃ³w
Ġnaz wi
W arto
Ġ ```
Ġhand l
Ġty siÄĻcy
Ġsie Äĩ
ra el
iÄĻ c
lu s
Ġholender ski
O gÃ³lnie
da cji
Ġobsza rach
e la
Ġprzej ÅĽÄĩ
Ġudo stÄĻp
ci rc
Ġbad aniu
Ġzg ÅĤo
Ġg ita
Ġlo ja
' ]
Ġle Å¼y
Ġprzyja z
Ġko go
ÅĦst wem
Ġpo siÅĤ
Ġst art
rzy ÅĤ
Ġdyplo mata
ĠNa pisz
ĠEuro pie
o nego
Ġra ise
Ġz ga
re go
Bi orÄħc
zy waÄĩ
Ġaspe kty
ĠMu zeum
Ġsu per
ĠwpÅĤywa jÄħ
Ġkorzysta jÄħc
w ano
ĠR ich
B o
Ġczte rech
Ġre j
la s
Ġin deks
ĠpoÅĤÄħ czyÄĩ
ĠBy ÅĤ
Ġgodzin ÄĻ
Ġpolski ch
Ġpotencja ÅĤ
Ġsek wencji
ĠszczegÃ³ÅĤ Ã³w
u re
sty cznej
8 9
Å¼ ona
right arrow
} )
Ġ200 2
t owo
pra sza
ĠrÃ³wnowa gi
li an
ku jÄħc
ter ia
in dex
Ġdwie ma
Ġstar an
b s
ĠA fry
Ġkom ponen
Ġpodej ÅĽÄĩ
ĠI z
Ġst rze
Ġintelig encja
Ġopi nie
E x
d ob
ĠK or
Ġma gii
Ġdzie lenia
cyj nie
Ġca ÅĤego
krÃ³t ce
ĠmÃ³z gu
t oÅĽ
Ġtyp Ã³w
ĠVa lueError
lo gu
Ġka waÅĤ
p us
Ġnie pa
cie c
cz no
g li
g enty
Ġpowie ÅĽci
Ġniemie cka
Ġsugest ie
da rzenia
Ġrzeczywist ych
ĠfaÅĤszy we
Ġza t
Ġpozosta ÅĤych
c s
sti on
ĠG Ã³r
h y
Ġpopraw ne
Ġpozwala jÄħc
t me
inte ger
Ġuza sa
Ġb al
Ġotrzyma ÅĤ
Ġwypo sa
Ġku li
Ġbezpie czeÅĦstwo
g ent
Ġpo ÅĤo
ĠW spÃ³ÅĤ
Ġ202 3
Ġdo ÅĤÄħ
Ġsz lach
Ġprze w
fika cja
Ġinternet owych
Ġopis u
Ġb ur
ĠÅĽrodowis ku
czo nej
Ġdzi ÅĽ
t niej
Ġob ok
ĠL in
da p
sp ir
ĠwskaÅº nik
0 1
ar u
Ġkomu ni
Ġn owym
Ġvo id
Ġener ge
Ġidenty fikacji
Ġnarra cjÄĻ
Ġnatural nego
c ol
Ġza da
ran d
Ġm art
Ġt k
Ġe ty
Ġobli cz
Ġutrzym ania
A N
d ÅĤa
Naj pierw
Ġte stu
ĠS am
Ġwyraz iÄĩ
7 2
ma i
Ġdru Å¼y
Ġsp er
ĠÅĤa twiej
st rak
Ġh oke
Ġ\ ).
Ġinf rastru
z wo
ro st
ĠR i
Ġmo bil
Ġprze kaz
chro ni
ĠO blicz
Ġle czenie
Ġdo piero
Ġwa dy
Å¼ ÄĻ
se s
Ġbu dy
Ġtechno logia
po spo
Ġkoncep cji
Ġspo Å¼y
ce ss
cu j
3 9
w or
W prowadÅº
em o
Ġnajlep sze
ĠBryt anii
Ġpod ane
Ġobie ktywne
Ġobli czenia
Ġg rze
Ġpa rzy
ĠsÅĤa b
Ġ199 0
ĠÅ¼ad nych
dzÄħc ych
Ġob jaw
ĠJo se
Ġstosun kowo
Ġpo jÄĻcie
Ġproces Ã³w
on or
bo ga
Ġprze de
prze z
Ġkli matu
Ġre kom
Ġpro mo
ĠuÅ¼y tkownik
Ġu dzie
Ġakapi t
Ġnarci ar
ĠP at
al pha
od rÄĻb
v ent
wz glÄĻd
ĠD ru
ĠczÅĤowie k
ĠWie le
ma li
Ġprzy t
an na
log iÄĻ
Ġnad mier
Ġ200 3
ni ane
ri ch
czo nego
ĠM ary
ĠT ar
Ġpro tagoni
ty czna
Ġu lep
ĠgÅĤ owy
Ġmo jÄħ
Ġus ÅĤy
ĠZa cho
8 4
ĠStan Ã³w
Ġzaim kÃ³w
si Äĩ
ĠgÅĤÃ³w nym
cep tion
Ġim mer
ĠCh rist
A C
Ġch cÄĻ
bona c
6 6
l ie
Ġzmien nÄħ
p le
owo dni
Ġalge bra
Ġ194 0
Ġp il
Ġsku tki
Ġgra fi
ĠobjÄĻ t
Ġf al
Ġary tme
ĠWÅĤady sÅĤaw
k tami
Ġe po
Ġprzy spie
Ġwyra Å¼a
ĠpÅĤy wa
Ġstrate gi
ĠM am
Ġgo rÄħ
Ġso me
Pobie ra
Ġtre ÅĽÄĩ
g ier
Ġk want
Ġgeo grafi
Ġwy biera
Ġst er
ma c
Ġsk rÃ³
Ġosob isty
ĠPrze pisz
ty n
Ġwa rzy
ĠSz ko
Ġkanady jski
ni ctwo
ĠZ najdÅº
Ġo dzy
Ġchor ych
Ġg r
Ġmuzy k
Ġma ÅĤo
mu l
Ġprze stÄĻp
Ġmogliby ÅĽmy
ĠJa ki
Ġ194 3
Ġza b
Ġsp rzy
Ġna ro
Ġmog li
ĠF o
ĠdziaÅĤa lnoÅĽÄĩ
Ġh is
ĠZ y
Ġpis anie
kie wicz
ty wy
Ġpu deÅĤ
Ġza mÃ³wie
lo nej
ĠwiÄĻk sza
ĠbyÅĤa by
g anie
kÄħ d
Ġsk ry
ĠKaÅ¼ dy
Ġmo st
S t
an ka
Ġodchy lenie
ĠTade usz
s un
Ġra ka
Ġeli f
Ġnie spo
sam owi
ĠwystÄħ pienia
ĠzaÅĤo Å¼enia
ge ner
Ġwywo ÅĤu
ĠMicha el
w w
Ġprzypad kÃ³w
Ġpar ku
ĠW ÄĻ
ĠÅĽ la
enta mi
Ġty god
Ġd at
Ġplatfor my
Ġpa sa
sz to
le q
Ġwykon ania
Ġnau kow
Ġforma cie
zm Ã³w
" );
Ġu porzÄħd
}} {
ĠskÅĤadni ki
Pro szÄĻ
Ġoba wy
ran s
Ġbu dyn
) /
Ġkom Ã³rek
cie lem
Ġwymaga jÄħ
dz onych
Ġg i
ĠoÅĽ rod
a c
g Ã³
ni Ã³sÅĤ
ĠpoÅĤudni owo
k ania
ar s
Ġskle pu
ĠrÃ³Å¼ niÄĩ
Ġdy s
is a
Ġkom for
Ġdo j
Ġf ak
Ġnau k
Ġska li
ĠB ur
Ġsz wajcar
Ġ194 2
Ġskute czne
Ġfunk cjonal
Ġsamo dzie
Ġmode li
ĠÅĽlima k
Ġbi t
Ġta kÄħ
Ġs kier
ĠnieskoÅĦ cz
L E
g rze
Ġpod anego
re ss
Ġma t
Ġza imp
Ġprakty ki
Ġtwier dzenia
t ow
ser w
u nek
Ġja kich
Ġsprawi Äĩ
ni anie
ĠCzÄĻ sto
ĠchÅĤo p
Ġwy ciÄħg
Ġ199 9
Ġa w
Ġat rybu
ka j
Ġ19 18
Ġeuro pe
Ġpiosen karz
Ġo kaz
Ġod dziaÅĤy
go r
resz cie
Ġsper sonaliz
ĠI ch
Ġpe wien
Ġrzeczywi stym
Ġtwa rzy
re mo
00 00
ĠkrÃ³tki m
stawie nia
mi r
ĠN ob
Ġnatu ralne
Ġprac owaÄĩ
S RR
ÄĻ zy
Ġza stÄħpi
Q L
Ġz m
cj oni
ĠJ or
Ġk toÅĽ
ĠbudÅ¼e t
B a
Ġniepod legÅĤ
ĠdÅĤu gie
C ho
Ġb roni
Ġkla sie
c ÅĤaw
co na
identy fikuj
cha mi
Ġzapro pon
lo gie
ĠK e
Ġ19 20
Ġpie niÄħ
Ġkon ferencji
n ki
sz ania
ĠdoÅĽwiad cza
Ġstop nia
ĠU twÃ³rz
Ġod bywa
Ġmog ÅĤa
Ġtrud ne
ĠW in
ĠZ bi
ĠnapiÄĻ cie
^ \
d or
na u
Ġsu my
Ġb ry
ĠK rak
Ġw ad
ĠÅ¼e g
Ġmie li
s pa
Ġliczba mi
ma to
ĠsÅĤ owni
Ġopis aÄĩ
7 8
ĠrÃ³Å¼ni cÄĻ
Ġza kon
ta ble
Ġt Äħ
uje my
rzÄĻ du
Ġsku pia
c kÄħ
Ġgrup ÄĻ
M L
ĠJa va
Ġstosu je
na st
Ġkraj Ã³w
Ġrad io
ĠP owie
we ÅĤ
Ġza bie
Ġkardy naÅĤ
s hi
Ġstro na
ĠwspÃ³ÅĤczyn nik
kie ty
Ġatmos fer
mat rix
ĠS ÅĤu
Ġty siÄħ
f ra
Ġst res
Ġodna wia
kie t
ĠgÅĤÄĻbo ko
Ġsp r
ĠwÅĤas nej
ĠZ osta
ujÄħc Äħ
ĠmyÅĽli sz
Ġza ko
sta wiajÄħc
Ġdrze w
cy t
mu m
Ġpier si
publi c
Ġlitera tury
Ġkosz tuje
Ġpu ÅĤ
Ġzapo m
cza mi
te ch
ĠSz tu
m s
ĠWy bierz
Ġsz os
Ġpi Äħ
ĠjÄĻzy kÃ³w
Ġkol orÃ³w
ĠWa Å¼ne
Ġwy wia
dy k
js on
ĠpoÅĽ redni
Ġma le
tor ia
Ġpo Å¼y
Ġprze ana
Ġ194 1
ĠÅģ a
Ġje dzenia
ĠKazi mierz
Ġu ÅĽmie
W e
3 1
4 4
Ġde ko
Ġsi ÅĤÄĻ
ĠG ro
ĠPol skiego
Ġ198 0
ĠK ry
Ġp rowin
Ġot w
g ÅĤa
ba ch
ca tion
Ġwej ÅĽcie
Ġfil mÃ³w
Ja ki
Ġkolej nych
ĠsamorzÄħd owiec
j czy
over rightarrow
l owa
Ġi ter
Ġczas o
Ġwprowa dza
li cz
Ġ ÅĤ
ĠuwzglÄĻdni Äĩ
[ '
ĠurzÄħ dzeÅĦ
R O
Ġo ÅĽwiet
Ġdzis iej
Ġwiel koÅĽÄĩ
ĠsÅĤu Å¼y
Ġpo kazaÄĩ
ber g
Ġu z
Ġzmian ÄĻ
Ġza ÅĤoÅ¼
jski m
ĠE k
ktu j
Ġmy ÅĽla
ĠrÃ³wna ÅĦ
Ġja j
F unkcja
S u
le kt
ĠznaczÄħ ce
ĠkÄħ tem
b lem
st ans
Ġza ktu
Ġprzeciw nym
Ġilo czyn
cyj nymi
Ġhoke ista
Ġfunk cjÄħ
ĠDa vid
ĠgÃ³r ÄĻ
Ġbibliote ki
s ÅĤy
Ġfunk cjon
Ġma sy
Ġlicz bie
ĠumoÅ¼li wiajÄħc
Ġsyste mie
Ġnie samowi
Ġsymbo li
Å¼e m
Ġresta u
g dzie
re da
Ġi r
le ngth
ĠB el
Ġzach owaÄĩ
Ġmeto dÄĻ
Ġwyb rze
Ġprzeci wie
ĠOr gani
Ġm ln
ne y
ri te
Ġodkry cia
Al ternatywnie
Ġpo cz
on t
Ġumie szcz
U ro
b um
Ġob rÄĻ
âĢĿ .<|
Ġpro za
Ġloka lne
ĠA ka
Ġsz la
Ġpra cÄħ
ĠzwiÄĻz ÅĤy
Ġokoli cy
Ġna si
Ġwspiera Äĩ
Ġdecyz jÄĻ
Ġra di
ĠrÃ³wno leg
ĠkoÅĦ czy
Ġog ni
ĠÅĽrod ki
g rani
Ġs cen
ã ģ
ĠMiÄĻdzy narod
s je
dz ona
fi gu
Ġimmer syj
M y
g owaÄĩ
Ġsta jÄħ
Ġwej ÅĽcia
ÅĤ gar
ĠK la
dziaÅĤ em
Ġna ra
Ġod czu
niÄĻ ciu
Ġartyku ÅĤ
Ġpor tu
ca jÄħc
Ġukrai ÅĦski
ku jÄħ
ec nie
Ġg ier
Ġin tui
Ġde ter
ĠRoz po
Ġwykony wania
ĠHi szp
Ġbram karz
ĠW edÅĤug
nika j
Ġdoku menta
n oÅĽ
ĠbÅĤÄĻ du
ĠNo de
Ð °
pra wie
ĠSt anach
Ġobraz u
Ġzbli Å¼a
z je
Ġr ight
twa rza
ĠpoÅĤ owie
ĠNa u
Ġser ii
Ġfrag ment
Ġ199 2
Ġfizy czne
ĠHenry k
sta te
j or
Ġdo ro
dnie go
Ġper so
Ġza jÄĻcia
su b
Ġhi per
rÃ³bu j
ĠnajwaÅ¼ niejsze
k or
Ġu cz
Ġbadania ch
ĠmÄĻÅ¼czy zn
ĠczÄĻstot liwoÅĽci
Ġprzy kÅĤady
Ġdoda je
mi d
ĠpamiÄĻ taÄĩ
z owaÄĩ
Ġo publi
Ġs cho
Ġwyso koÅĽÄĩ
t ent
ra t
Ġo two
resu lt
ĠGo ogle
Ġwizuali zacji
Ġd anymi
ĠÅĽredni owie
Ġsy na
st wem
3 8
? "
Ġ nosi
ĠPol ska
ĠspoÅĤe czny
ĠC he
Ġop Ã³Åº
Ġprze chodzi
ru r
br ania
my sÅĤ
ga zy
Ġpocho dzÄħ
ĠĠĠĠ ĠĠ
trze b
Ġ er
Ġtabli cÄĻ
3 7
a b
Ġroz pro
Ġo ku
Ġfir mie
K tÃ³
Ġwy ksztaÅĤ
Ġzapew nienie
Å¼ ni
Ġro ÅĽnie
Ġwo dÄĻ
Ġpomaga jÄħ
Å¼ ania
Ġte nis
lo s
ĠpoczÄħ tkowo
ĠâĪ Ĵ
ĠK ali
ri d
ĠÅĽrod kÃ³w
ĠÅĽ rednie
Ġnatural nych
Jo hn
ĠrzÄħ du
Ġplane ty
O czywiÅĽcie
le ty
ĠZ SRR
ĠLi czba
Ġdz ia
cz ar
Ġ Ï
% ,
rÃ³Å¼ nic
Ġe pi
tt p
E S
Ġelem entem
Ġargum enty
." },"
Ġpotencja lnie
mo d
Ġ199 1
Ġskon ta
Ġpo st
bie nia
Ġwprowa dzenia
Ġdotrze Äĩ
ĠPo mo
Ġobraz Ã³w
Ġarchite kt
Ġne ut
de d
Ġroz ry
Ġn owa
ĠPra w
k anie
ĠB ro
ron t
Ġstosun ku
zn ania
ĠzwyciÄĻ stwo
niej szym
bo ra
Ġnazy wa
Ġroz pa
Ġle kÃ³w
ĠMo g
Ġbryty jska
Ġdru gÄħ
ĠS za
Ġthe ir
Ġ\ ),
dz ka
Ġpodej mowaÄĩ
Ġtrze ci
bo li
Ġkul tu
F or
Ġwi dzenia
Ġrestau racji
Ġopowie ÅĽÄĩ
Ġgru pie
czy li
pi Äħ
ĠV i
l la
Ġw ord
Ġ199 8
m ana
s ar
Ġosob ÄĻ
Ġ !
to na
Ġ199 6
Ġmo ja
Ġobser wacji
Ġpowta rza
ta k
ĠprÃ³b ki
Ġjakie kolwiek
Ġ197 5
Ġstop niu
Ġg Ã³
Ġpo god
Ġu lu
Ġpow tÃ³
Ġmini ster
Ġw zajem
ĠmiÄĻ ÅĽni
Ġza si
te rze
ĠÅºrÃ³d ÅĤo
s Äħ
ĠA b
i ÅĤ
z da
tkow Äħ
Ġeksplora cji
ĠpÅĤu c
al nej
g m
ĠÅ¼ Äħd
Ġwoj nie
mu ni
Å¼ Äħc
Ġprogra my
ba mi
7 6
Ġli nia
Ġstru ktura
Ġm Äħd
Ġrze ki
Ġza siÄĻ
ĠÅĤa ci
cu late
trzy ma
ĠĠĠĠĠĠĠĠ ĠĠĠĠĠĠĠĠĠĠĠĠĠĠĠ
Ġpo mie
Ġdzie cka
dni m
Ġsp rÃ³b
ĠokreÅĽlo nych
ni anych
sz ÅĤa
czÄħ cy
ĠKrÃ³ le
bur g
8 8
Ġb ut
Ġprzy ciÄħga
Ġwy mie
ko ÅĤo
Ġproce du
Ġintelig ent
ĠÅ¼y wo
aÅĤ ÄĻ
Ġ193 6
Ġprze czy
Ġ< =
Ġkwa li
Ġobec noÅĽci
Ġpod wod
Ġprzy bli
Ġ199 4
= <<
Ġza ma
Ġmatematy k
Ġobsza rze
Ġpar la
Ġpodob nie
s ch
Ġmia stecz
Ġzainteres owanie
Ġzidenty fik
pra wy
encja ch
4 9
st rz
mi ng
Ġu m
ĠM ed
to rzy
Ġpubli cznego
ĠroÅĽli ny
Ġ199 7
Ġin sta
wier dzenie
ĠTe raz
Ġm ul
Ġk we
Ġdo danie
ĠT i
Ġrozwa Å¼enia
Ġk rze
Ġsk Ã³ry
su ger
Ġprowa dzÄħc
stan owie
Ġ198 9
Ġzad owo
Ġdzie ÅĤa
ĠznaczÄħ cy
Ġno de
Ġkry zy
ĠMi ni
Ġwz iÄĻ
ĠspoÅĤe cznej
Ġbud owy
Ġza bi
wi ÅĤ
Ġpod jÄĻ
ĠcaÅĤkowi ty
Ġk ey
ĠzaczÄħ ÅĤ
ĠchrzeÅĽci ja
Ġartyku ÅĤu
Ġna stÄħpi
rea te
Ġalgebra i
4 2
cj onu
Ġro man
ĠznaczÄħ co
ĠBo le
gra ÅĤ
ĠwskaÅº niki
Ġwierzcho ÅĤ
je n
to s
zna cz
Ġklucz owym
ĠbezpoÅĽ rednie
Ġprzy stÄĻp
Ġzaimp lement
Ġspr inter
Ġ19 19
ĠKoÅĽci oÅĤa
jÄĻ Äĩ
ĠÄĩwi czenia
5 6
Ġt ru
Ġprzy zna
ĠR ad
Ġwy god
ĠB ru
h u
ĠÅ¼oÅĤnie rzy
Ġpo kar
Ġprzepisy wania
lem entu
Ġte ore
Ġwyda tki
Ġbie ga
Ġmedy cy
Ġp lik
Ġna w
pie ra
Ġbrz mi
ĠCh a
ĠbÄĻd ÄĻ
ĠSpraw dÅº
Ġter mi
ĠWoj cie
ĠD ar
sÅĤ ych
sty ki
S a
ĠsÄħ sie
ĠBi orÄħc
Ġ199 5
Ġoj ca
Ġz go
Ġko st
Ġzosta je
Ja ka
ĠobrÄĻ bie
u waÅ¼
Ġca ÅĤe
Ġ199 3
Ġzaj mie
Ġprzetwarz ania
t owa
Ġmo tyw
Ġnaj bliÅ¼
tt ps
l Äħd
Ġpol skiej
Ġmi ÅĤoÅĽÄĩ
spo zy
ĠOb ej
Ġrekom en
Ġw bud
ow skiego
mi th
ĠdokÅĤad ne
Ġwy gener
ob o
Ġsytua cjÄĻ
C aÅĤkowi
L a
Ġzmi ni
pra wa
so lu
Ġ4 00
Ġpowie trze
Ġs mu
Ġstre szczenie
ĠC ol
! <|
il la
Ġalgoryt mu
Ġna dz
Ġt kan
re t
ĠJe an
Ġpo pro
aliz owaÄĩ
ni czy
Ġna czy
maty czne
ĠwÅĤa d
A B
Ġdu ch
ĠpodejÅĽcie m
Ġwi d
Ġobie kty
Ġpart ii
Ġkuch ni
Ġprzej rzy
ĠwÄĻgier ski
d ie
Ġthe y
Ġ ðŁ
Ġprez ent
Ġ Ve
wa Å¼y
Ġfrancus ka
za cje
se arch
ĠogÃ³l nego
Ġle czeniu
Ġwi ce
wa ter
ĠzwiÄħz any
Ġteor ia
Ġzapobie c
Ġze wnÄħtrz
ow ska
no t
Ġmateria ÅĤu
Ġz je
Ġpomy ÅĽl
ĠwyraÅº nie
ĠzwiÄĻk szenie
Ġnawi ga
rze go
ch aÅĤ
is h
Ġkolej ne
Ġs wego
len t
Ġprezyd enta
Ġuczest nikÃ³w
Ġ )
ĠY ou
Ġwarun kach
Ġese ju
inc lude
Z mar
ÅĽ nik
Ġod ci
ĠÅĤaÅĦcu ch
Ġodde ch
cj om
Ġener gia
Ġa dap
ta ÅĤ
Ġsze ÅĽci
Ġw si
Wy darzenia
ro bi
po si
Ġosob owoÅĽci
Ġbiz ne
ĠTwo ich
ĠAn ge
Ġbrazy lijski
S E
Ana liza
ĠPo la
Ġkom enta
Ġna wy
Ġopis y
Ġnajlep szych
ĠKaro l
ĠsÅĤo ÅĦca
pa mi
pie c
Ġma gazy
g le
ĠMe toda
Ġo strze
Ġko pa
ĠPa ul
w sze
cho ty
Ġmatematy cznych
Ġprawdopod ob
rozumie nie
Ġpo miar
ĠwiÄĻk szy
ĠksiÄĻ Å¼y
Ġw chodzi
sze niu
Ġwykorzystu jÄħc
d le
Ġdo szÅĤo
ĠogÃ³l nÄħ
n oÅĽciach
ĠmÄĻczen nik
Ġkandy da
bli cza
Ġry nek
ĠpÅĤy nÄħ
9 5
sta je
mi mo
Ġod wo
Ġgra wi
ĠCz ar
Ġsez on
Ġf lo
Ġczego ÅĽ
Ġgwia zd
ĠNob la
wi th
Ġpod any
P ol
l ane
ss e
ĠS arah
Ġint encjach
Ġfinans owe
ĠrozpoczÄħ ÅĤ
c ur
ro ny
an ty
mie niem
ĠPo daj
Ġprzesz ko
Ġbok ser
Ġin nej
Ġmi to
Ġje dzenie
Ġprzedsta wiÄĩ
Ġja kiej
ĠZ mieni
Ġle wej
Ġznaj dzie
sz oÅĽÄĩ
liw ych
Ġ| |
P S
le rii
Ġwszel kich
Ġc al
Ġusta wi
Ġp ana
Ġdostos owy
ĠP ier
ĠNa grody
mb ol
C T
is ku
Ġspra wy
Ġpo dziaÅĤ
Ġje zio
Ġwyj ÅĽcia
ĠF ir
ing s
Ġstos owanie
ĠkÄħ t
Ġkra wÄĻ
Ġfi le
ĠspoÅĤe cznoÅĽÄĩ
man n
Ġnieza wod
k wa
ĠBo ga
ĠNiem cy
Ġm le
Ġgeo metrii
ÅĤa c
ass ert
Ġo ni
kro tnie
Ġ ow
Ġpunk tem
Ã³ dz
ĠC or
ĠRa dy
Ġodbior cÃ³w
Ġre zon
Ġd any
Ġre cyk
ĠMa x
ĠmÃ³gÅĤby ÅĽ
ĠM ak
ĠNie ch
M ar
Ġznale zio
ĠsÅĤu Å¼Äħ
ĠB ud
gu e
Ġkos mo
Ġredu kcji
Ġdru ga
Ġprze kÄħ
dÅº mi
Ġary sto
9 6
Ġprze Å¼y
Ġde finiu
Ġdzie cko
pu lar
de mii
ĠA lf
iu sz
ĠAn toni
Ġpowy Å¼
ĠK raj
Ġfe sti
Ġkonsek wencji
O R
k cjÄĻ
p pe
f loat
Ġprogra mÃ³w
Ġku pi
Ġod Å¼yw
Ġprakty k
Ġkryty k
Ġprzy wÃ³d
ĠwspÃ³l ne
Ġte stÃ³w
Ġzn ana
Ġzdrowo tnej
n anie
Ġza suger
su j
Ġba kt
Ġprzeciwie ÅĦstwie
Ġt ri
Ġpod stawy
ĠO l
pÅĤy w
al nego
ĠB or
e li
{ (
Ġu praw
Ã³ z
Ġs formuÅĤ
dza jÄħ
dzie Å¼
Ġli tery
Ġkra jach
ĠpostÄĻp y
Ġ qu
da ÅĤ
ski mi
Ġkon wers
Ġtechno logi
Ġfin d
ĠT er
Ġwyda jÄħ
Ġi mieniu
ĠI stnieje
Ġsprzy ja
ĠpamiÄĻ Äĩ
Ġekonomi sta
Ġut rud
prez ent
Ġintera ktyw
Ġot wiera
Ġzda rzenia
entu zja
Ġostro Å¼
li ÅĤ
he re
ĠWiel ki
Ġu st
Ġzasa dni
ĠprzedsiÄĻbior ca
Ġba se
Ġsil ne
Ġa bo
Ġznalezie nie
Ġurucho mi
v an
Ġmie siÄĻ
Ġme trÃ³w
Ġwyso ko
Ġlep sze
Ġod padÃ³w
pra cuj
ĠO n
sty czna
Ġwra Å¼
Ġ193 0
stan Ã³w
Ġwyraz Ã³w
Ġosobist e
Ġwz boga
Ġzag rani
Ġ q
li cza
Ġc er
Ġinwesty cji
ĠEd ward
Ġop er
Ġra dy
Ġpotrzebu jesz
Ġzu peÅĤ
ĠLon dy
Ġli nie
Ġmu szÄĻ
Ġcz uj
D ro
Ġch ar
Ġwz o
Ġelekt roni
Ġpozosta Äĩ
u gh
ĠzwiÄħz ana
Ġkrzy Å¼
ĠbyÅĤy by
Ale x
Ġ entuzja
Ġspecja li
Ġtren dy
ĠKrzy szto
Ġra czej
go n
Ġu rzÄĻd
Ġwy obraÅº
Ġbli sko
Ġ Ä
Ġkli ni
Ġproza ik
Ġpowinie nem
Ġprzyro dy
Ġcz oÅĤa
Ġle ft
ĠĠĠĠ čĊ
Ġludz kiego
Ġcia ÅĤo
Ġz rÃ³Å¼nic
un da
stana wia
Ġb ÅĤy
Ġe t
Ġsk ÅĤon
d s
Ġlu dÅºmi
Ġsko rzy
ĠnarzÄĻdzie m
Ġwnios kÃ³w
Ġza tem
dzi sz
ĠspoÅĤecznoÅĽci owe
Ġpro ste
Ġarysto kra
Ġs pad
Ġor g
d io
Ġp ass
Ġprze kracza
ĠwÄĻ gl
ĠÃ Ĺ
ĠdziaÅĤa Äĩ
ĠpiÅĤ kar
land ii
rz ona
ĠGe ne
Ġpoz naw
Ġwielo ma
mawia Äĩ
ĠnieskoÅĦcz on
Ġpol sko
Ġgrani cy
tyw ne
be gin
Ġzapis aÄĩ
Ġresta ura
Ġsia t
Ġpra ce
Ġsk lep
Ġ192 1
Ġpli kÃ³w
ta in
Ġauto bus
Ġmo mencie
en o
Ġu bezpie
} .
Ġkontek st
ĠpieniÄħ dze
Ġatmosfer ÄĻ
ĠRo sji
ssi on
Ġwyb ory
Ġso cja
ĠQ u
Ġmili onÃ³w
8 6
Ġnie mal
im na
Ġgrani c
Ġkobie ta
ĠI t
Ġinterpre tacji
Ġin ni
Ġpie lÄĻ
ĠzaÅĤo Å¼y
ĠwojewÃ³dz twa
Åģ Äħ
Ġdzien nik
Ġkier owca
Ġnum ery
Ġo ther
Ġszos owy
Ġ194 6
Ġaktyw noÅĽÄĩ
Ġst resu
ĠS k
ce na
Ġzmie niÄĩ
Ġprac ownika
num s
ĠâĪ ļ
K rok
Ġbez wzglÄĻd
Ġpotrzebu je
pow szech
Ġka wa
Ġzy ska
Ġspo Å¼yw
Ġkontro lÄĻ
O S
sty cznego
Ġus un
Ġstruk tur
ĠAn to
Ġmin u
Ġregular ne
ĠNiemie c
Ġniepa rzy
7 7
ni ona
Ġzapa lenie
Ġrosy jska
ĠrÃ³wnowa gÄĻ
Ĩ Ĵ
dy na
ĠPa weÅĤ
ĠS pe
Ġbud ow
czy ÅĤy
"}, "
Ġt ÅĤo
niÄĻ ta
Ġser ce
Ġznaj dÅº
stan ce
Ġ196 8
Ġdem on
ĠkomÃ³r ki
Ġbel gi
Ġdzie dzin
Ġproje ktem
S c
f in
Ġtrzy ma
âĢ ľ
ĠPary Å¼u
rÃ³ g
ĠpÅĤ ci
Ġb ru
Ġtema tÃ³w
ve s
ĠB ia
ĠDa j
ĠUÅ¼y waj
Ġkogo ÅĽ
ty cznÄħ
ĠB la
Ġkorzy stania
Ġki lo
ÅĤa wa
lu je
Ġza pÅĤa
Ġsub tel
Ġpod anych
Ġpubli ka
Ġpar ty
Ġzgod ne
Ġlite rac
ĠH T
Ġkre dy
Ġbo ku
ĠSt ar
Ġharmono gra
Ġwydo by
Ã ¨
L o
b rzy
re ak
ĠTo m
ĠObej muje
Zmar li
ÅĤu go
Ġo Å¼y
Ġc ar
ĠMar k
owi u
Ġsamo po
f ind
Ġb et
Ġobjaw Ã³w
E T
le tnie
Ġefe kt
Ġroz przestrze
Ġsz pita
Ġcie pÅĤa
Ġlokaliza cje
ĠduÅ¼y m
ers on
met r
Ġw dra
wo l
Ġprzyja ciel
Ġszere gu
Ġdob ra
ĠWil hel
No de
Ġzbud owaÄĩ
Ġpozosta ÅĤe
k wi
ĠRo man
Ġtre ning
Ġfun tÃ³w
Ġnorwe ski
Ġprze sy
ĠW orld
Ġplan owania
ob serw
ĠT owarzy
8 7
ĠZy gm
ĠSt ra
Ġludz kiej
Ġprogra mi
ĠÅĽle dziÄĩ
Ġa g
Ġf loat
ĠRze czy
Ġ Ã³w
de go
Ġle Å¼Äħ
stan Äħ
"}} }]</
ĠA ma
Ġd Ã³ÅĤ
Ġwy prze
ĠwÅĤas nÄħ
Ġludzi om
Ġwymag ane
Ġuda ÅĤo
pospo li
ste czka
ĠmyÅĽ lÄĻ
ana mi
Ġo szczÄĻd
Ġu ru
Ġsu mie
Ġkieru n
Ġpomo gÄħ
mina cji
Ġs che
Ġpo stanowi
ĠL ou
Ġcza sach
li nie
Ġfizy k
Ġkieru nek
Ġpo par
li b
scy pli
ĠmiÄĻ k
ra cjÄĻ
sz ki
Ġimp li
O r
Ja ko
ĠO gÃ³lnie
Ġw ill
Ġh or
met ria
Ġszero ko
Ġsposob u
ĠAu stra
Ġau tora
Ġprzysz ÅĤym
Ġzapy tania
Ġwysp y
Ð ¾
Ġdo tk
Ġzg ÅĤa
ĠsprÃ³b owaÄĩ
Ġpi lot
Ġp ia
Ġzmniej szenie
Ġoprac owaÄĩ
Ġcuk rzy
C z
f fe
ri c
Ġwyb or
Ġsz ans
ĠwartoÅĽci Äħ
by m
Ġ197 2
Ġstrate giÄĻ
Ġspa cer
Ġwymieni onych
n s
Ġwie cz
Ġzd jÄĻcia
Ġwoka lista
4 3
an em
oÅĽ rÃ³d
ĠS zu
Ġre da
Ġme ksy
Ġdro gÄĻ
er ium
Ġparamet ry
ĠS ze
szy ÅĤ
ĠDo da
Ġg war
ĠÅºrÃ³d ÅĤem
Ġli niÄĻ
Ġtar get
cien ce
l le
prowa dziÄĩ
w nego
en ci
cza ch
Ġpozwala jÄħ
Ġprodu ktyw
ĠnierÃ³w noÅĽci
lo m
Ġdy stry
ĠChar les
ĠS S
ĠÅĽwiÄħ ty
Ġfa kt
Ġint ry
Ġodsta jÄħce
ĠP lan
ĠWy ko
Ġ198 8
Ġ _
Ġnowo tw
ĠB ÄħdÅº
Ġsta tic
Ġzabu rzenia
Z e
glÄħ du
ĠbÅĤogosÅĤawi ony
Ġ197 6
rzysta j
Ġniezwy k
ĠK ul
Ġwyso kie
ĠsprzÄĻ tu
Ġsta tus
dz na
Ġwy pad
Ġwy klu
czu cie
Ġmode le
6 8
ez er
rucho m
owie m
Ġ198 2
Ġcesa rz
Ġm ro
sty ka
w nych
Ġpo ciÄħg
ĠmaÅĤ Å¼e
Ġpo kon
dzie Å¼y
Ġ193 3
Ġry s
Ġsamocho du
Ġtempera tura
Ġwier sz
A u
wa y
Ġpoz na
Ġ192 8
Ko lej
Ġru mu
Ġ193 7
ĠmÃ³w iÄħ
Ġry t
Ġwszech ÅĽwia
Ġzwy k
ĠgÅĤÄĻbo kie
. :
Ġudo skona
d wie
t nymi
Ġ193 8
ĠKoÅĽci Ã³ÅĤ
Ġpre feren
Ġopis uje
Ġ197 0
Ġproble mem
Ġjaki ÅĽ
ĠOr der
Ġse nator
le na
Ġsamocho dÃ³w
Ġkombina cji
Ġkwest ii
Ġnie daw
Ġ192 4
Ġobja wy
k ed
ÅĦ cÃ³w
Ġst ary
sty cznÄħ
ĠgÅĤo su
Ġwi ru
Ġmatematy ce
Ġopar ciu
ĠÅ¼ u
ĠzrÃ³wnowaÅ¼o nego
Ġpo ry
Ġmo rza
Ġko dzie
Ġar che
Ġ198 1
al na
ral nego
Ġprogno z
Ġst e
ĠM il
ĠwejÅĽci owy
W artoÅĽÄĩ
T u
Ä į
Ġprze kro
za mi
ĠrÃ³Å¼ni Äħ
ĠFran k
ĠdÄħ Å¼y
Ġunika lnych
M ia
za leÅ¼
ĠwÅĤa dzÄĻ
Ġzapew nienia
ĠAr mii
Ġ192 2
ÅĽle Äĩ
c ania
cz onÄħ
Ġdw ut
Ġpo peÅĤ
js ko
Ġcza sami
Nie ch
lar ka
Ġsubstan cji
Ġzapa ÅĽnik
Ġmo re
ĠF il
ĠsÅĤ ownika
Ġstos owana
pa ti
Ġproje ktÃ³w
Ġsek cji
ĠzwiÄĻz ÅĤym
ĠB al
ĠMi mo
Ġ192 5
ste ro
Ġwyna laz
Ġroz bi
Ġregi onu
Ġtend encjÄĻ
ge s
Ġtenis istka
st on
ĠS al
ĠK at
mu no
Ġide i
Ġuczni owie
ĠokreÅĽlo nej
Ġob wo
Ġwa ha
k tach
Ġk im
Ġprze ko
ĠA m
Ġ19 14
ĠL ek
Ġ- >
ĠokreÅĽlo ne
op tyma
uk li
la m
ĠAleksand er
Ġprzysz ÅĤoÅĽÄĩ
ĠG er
Ġ4 8
Ġpremie rem
a mple
Ġobli czu
Ġczyn noÅĽci
Ġograni cza
Ġab strak
ĠDo daj
"}} ]</
Ġwa li
g rzy
i ty
al nÄħ
N e
Ġza to
Ġzapew ni
Ġl Äħd
Ġaustra lijski
Ġskonta kt
Ġk war
Ġprzy kÅĤadzie
za ÅĦ
Ġsta cji
ĠÅĽwie Å¼y
ĠM er
cie r
Ġo no
te le
Ġroz win
Ġzastos owaÅĦ
ĠokreÅĽlo nego
ĠrÃ³Å¼norod ne
t ch
Ġmog ÅĤy
dnie nie
Ġgo tÃ³w
Na zwa
Ġofi ar
ĠwyÅĽwiet la
p onu
an n
do lf
Ġzro z
Ġ197 3
Ġpsychi cznego
ĠwspÃ³l nego
ĠW ro
ĠdostÄĻp nych
Ġplat forma
Ġemocjonal ne
W spÃ³ÅĤ
Ġma ÅĤy
Ġ192 9
Ġwy p
Ġpro fi
Ġfa kty
Ġtabe li
Ġja kiego
powie dzi
Ġmiejsc owoÅĽci
ĠJ anu
Ġde te
Ġal fa
rz ono
ĠÅĽredni o
5 4
Ġar mii
Ġa po
gi na
rac jÄħ
Ġkonkre tnej
Ġdowo dy
ĠkrÃ³t ko
Ġocen ÄĻ
Ġpre ferencji
Ġzawiera jÄħ
len da
Ġodw rÃ³
ĠprzepÅĤy w
Wa Å¼ne
} =
chy lenie
Ġtrze ba
Ġze ro
ÅĽcia ch
Ġprezenta cji
mu j
ĠF in
Ġsta tku
Ġoj ciec
ĠStef an
un g
Ġemi sji
u ble
M S
k owany
Ġharmono gram
Äħ b
Ġwz mac
Ġklu czem
Ġnie prawidÅĤ
7 9
ĠB ez
ĠwiÄĻk szych
ĠzwiÄĻk szenia
ĠtÅĤuma cz
Ġznalezie nia
ĠAng lii
Ġwy co
Ġpow stanie
an da
i on
Ġ193 2
Ġeko system
Ġu stanowi
Ġ193 4
Ġkamp anii
rzenie m
Ġpowszech ne
ĠpiÅĤ ka
ĠK ur
ĠO sta
Ġpo ciÄħ
ĠwÄħ tro
Ġ! =
ie go
ĠPrze z
Ġ193 1
j an
Ġal bum
ĠJor ku
ĠrozwaÅ¼ a
ĠuwzglÄĻd nia
Ġprzy kÅĤadem
Ġutrzym anie
d ing
li o
Ġod rÄĻb
Ġofi cer
( (
Ġw krÃ³tce
Ġisto tnÄħ
ĠMich aÅĤ
Ġprawo sÅĤaw
Ġpo p
Ġwy ro
Ġde szcz
Ġograni czeÅĦ
pospoli tej
Ġne u
Ġese j
la t
Ġele gan
ĠokreÅĽlo nym
Ġud owodni
ĠN owym
ek st
Ġzaczyna jÄħ
ĠL ist
Ġo szczÄĻ
Ġser ia
Ġ196 0
Wy obraÅº
Ġuni wersyte
p Ã³w
kie n
ani sta
Ġosobist ych
ie l
Ġzaj m
ĠwiÄħ Å¼e
Ġwz bu
Ġra ch
4 6
ĠÅĽmier Äĩ
Ġa to
ĠF ry
b b
c ro
ÅĤ owa
Ġpre fer
ĠogÃ³l nej
ĠgÅĤÄĻbo ki
Ġboha tera
Ġza by
Ġstud ia
Ġ @
Ġs re
Ġpo dzi
Ġkwe stion
ĠgÅĤÃ³w nÄħ
ĠW sp
ĠwejÅĽci owych
Ġod rÃ³Å¼
bi t
kry p
ĠRe gular
nio sÅĤa
i ny
Ġtren dÃ³w
Ġu ser
ĠdÅºwiÄĻ ku
ra tor
ĠciÅĽnie nia
ĠS mith
con st
Ġscenari u
Ġp ry
Ġpotrzeb ÄĻ
ta cje
Ġkar ty
Ã¡ n
M u
Ġczytel nik
Ġo ver
Ġau tory
ĠSz we
ĠWoj na
ĠzwierzÄĻ ta
P R
Ġsto i
Ġ194 7
ĠdostÄĻp na
Ġ192 3
ĠÅĽwiÄĻ ty
Ġkonser wa
va te
ĠMi koÅĤa
Å¼li we
) .<|
Ġopera cje
Ġnag ÅĤÃ³w
Ġdem o
Ġdocel owej
S e
Ġar genty
szcze ÅĦ
Ġprzej ÅĽci
ĠmÅĤo dy
Ġjeste ÅĽmy
Ġ197 9
j nej
ne w
Ġ198 4
Ġal ko
ral nych
Ġp rzo
Ġs pi
B ar
s ne
el lo
ty ku
ĉĉ ĉĉ
Ġop owiada
a st
Ġpra wej
ĠI mp
inte gr
Ġtrady cji
ĠRzeczy pospolitej
ĠB ob
ĠZ identyfikuj
niu ans
Ġ194 8
Ġwiel ki
Ġwie my
Ġofer owaÄĩ
Ġwnio ski
Ġiz rael
rzÄħ c
Ġ192 6
Ġpopraw ÄĻ
ĠZ na
Ġpierwiast kÃ³w
N um
Ġprze dziale
Ġpasa Å¼er
ĠI r
Ġtem po
ĠZ de
ĠPod obnie
Ġwnio sek
ĠFranci szek
} +
Ġz niuans
Ġpo b
ĠL y
Ġzaj mu
8 3
Ġ ant
ĠÅĽwiadom oÅĽci
ĠN owy
ĠU nikaj
ĠÅģ Äħ
Ġpremie ra
Ġzmini malizowaÄĩ
Ġzroz um
u ni
Ġupew nij
ĠFi bonac
ĠczÄħ ste
== ==
sta ÅĤ
ÅĦ sko
ĠPa ra
ty cznym
Ġsp Ã³ÅĤ
Ġsku pi
nika ch
Ġhistory czne
ĠrÃ³w ny
Ġmuzy czny
Ġw ÅĤÃ³
Ġ" )
ĠTo masz
ĠbÄĻdzie my
Ġprofesj ona
Ġin c
vi ce
ze ÅĤ
A L
sto m
st nia
Ġza obserw
ĠM al
Ġspotka Äĩ
ĠAna liza
ĠuÅĤat wia
ĠUniwersyte tu
Ġsp oÅĽrÃ³d
liza cjÄĻ
Ġdra ma
Ġ9 5
tera pii
Ġu czyÄĩ
bo ok
h ol
ju sz
Ġ196 9
ĠPrze ksztaÅĤ
ĠwspÃ³ÅĤprac owaÄĩ
Ġkon wer
sty cznym
k en
ĠnajwiÄĻk szych
A n
S S
Ġwi try
Ġtym czas
ĠPro ces
Ġ198 3
Ġwy obra
ĠP RL
ĠG ar
Ġm enu
ĠwspÃ³l ny
Ġprzedmio ty
ĠKsiÄĻ Å¼y
l anie
wa gi
duk cja
Ġko ÅĤo
ĠJa c
ĠponiÅ¼ sze
ĠÄĩwi czeÅĦ
Ġzagro Å¼enia
ĠszczÄĻ ÅĽli
Ġz ary
Ġnau kÄĻ
Ġpowsta ÅĤa
MoÅ¼e my
Ġmacie rz
Ġ198 5
Ġpowod Ã³w
4 7
Ġmiejsce m
Ġdowie dzieÄĩ
Ġchi rur
ĠsÅĤ owe
Ġc ier
Ġgospodar ki
ĠÅĽpie wa
Ġv ar
R Ã³w
Ġse g
Ġfra zy
Ġm Äħ
Ġ nik
Ġser b
Ġzmniej szenia
Ġkwadra tu
d ery
Ġdzie liÄĩ
Ġwar unek
Ġ198 7
Ġkol ory
Ġzjawi ska
Ġsamo chÃ³d
Ġ198 6
Ġpopular ne
st and
Ġb Ã³l
Ġte matu
Ġutwo rzyÄĩ
Ġodpor noÅĽci
ĠposzczegÃ³l nych
wiÄħz anie
ĠwyrÃ³Å¼ nia
Ġos kar
Je stem
Ġpoprawi ona
Ġu miar
cia mi
Ġsp is
Ġwystarcza jÄħco
ĠÅĤy Å¼
ĠwyÅĽci gowy
ow niki
Ġwy my
ĠZa pro
ĠpeÅĤ ne
ĠTho mas
ve ra
Ġwyda waÄĩ
Ġpol skie
Ġte sty
ĠF lo
ĠrÄĻ ce
Ġoptyma lizacji
D ane
re st
Ġba z
Ġho mo
Ġpo mara
ĠÅĽwia tem
Ġwykon uje
Da ta
Ġf rak
Ġ19 00
iÄħ g
Ġproce sy
Ġresz tÄĻ
h en
Ġlu ks
Ġszwajcar ski
Ġos ÅĤa
rÄħ z
Ġpo py
Ġc ierp
rze ni
Ġwo li
Ġal so
" >
pe k
Ġcz oÅĤ
Ġpoz ba
ĠwyjÄħ tkiem
Ġstanowis ko
Ġze sz
Ġprze mie
Ġwyb orÃ³w
Ġpro pon
cia l
Ġpozytyw ne
ĠzaczÄĻ ÅĤa
Ġprzew lek
Ġzaktu aliz
a mi
Ġw ho
Ġz are
dzie li
v ing
kie run
rip t
P A
ĠwÅĤas nego
Ġklas ÄĻ
ki o
Ġg aÅĤÄĻ
Ġfor mÄĻ
ĠSa mo
ĠporÃ³w ny
Ð ¸
ĠwpÅĤyw em
ÅĤu dnie
Ġry b
Ġdia log
ÅĤo d
Ġobszar u
Ġwo da
s kÄĻ
Ġzn anych
Ġskon stru
Ġchwi lÄĻ
ĠXV III
Ġco mp
Ġpo szu
ĠwyÅ¼ sze
rze c
Ġwykre s
ĠB ri
ĠgÅĤÃ³w nego
ĠD anie
j ona
Ġpopraw nie
Ġwol noÅĽci
Ġmiejsca ch
Ġaspe ktÃ³w
Ġinstru kcji
mi on
ĠsÅĤ owy
d f
p art
Ġmeto dÄħ
f noÅĽci
Å¼ anie
Ġwar sza
ko la
Ġ193 5
Ġfun du
Ġgo d
4 1
Ġspo tyka
ste my
Ġra por
ĠM ek
In nÄħ
ĠP amiÄĻtaj
Ġ195 6
Ġalternatyw ne
w ent
te t
ta t
ĠokreÅĽ lenia
Ġpowierzch niÄĻ
ÅĽ lenia
duk owaÄĩ
ĠKaÅ¼ da
lien t
ĠrozpoczÄħ Äĩ
p owo
logi cznego
ĠKon stan
Ġutra ty
Ġ192 7
ĠCzer wo
Ġz optyma
Ġkon stytu
Ġto p
ĠFibonac ciego
t z
ĠR ol
C a
Ġw ÅĤÄħcz
ron Ã³w
Ġtera pii
Ġex cept
Ġza wie
Ġos obie
kow nik
ni ce
Ġpostrze g
Ġupro ÅĽciÄĩ
S ON
j czyk
Ġprzed staw
ĠWy so
ral nej
Ġsze f
Na me
Ġ8 5
Wy jÅĽcie
Ġkul turÄĻ
lan dzki
u jÄĻ
ran sp
Ġ197 7
ĠwÅĤo ska
Ġhistory cznych
Ġukry te
Ġekspery ment
Ġprzy padek
Ġprioryte ty
ĠsÅĤo d
ĠpowiÄħz ane
Ġimpli kuje
Ġpo roz
ĠC la
Ġ19 50
sco re
Ġnie ko
Ġre spon
ction s
Ġprojekt owania
Ġabo ut
m owe
Ġner w
tu ÅĤ
ĠPo li
Ġprzysz ÅĤych
ĠJa ku
Ġsu ch
ĠszczegÃ³ÅĤ owe
ĠÅĤat we
ti o
Ġza gra
mo m
al nym
Ġsto pieÅĦ
Ġor to
Ġdziedzi ny
W ÅĤa
Ã³ ra
Nie ktÃ³re
Ġsze ÅĽÄĩ
Ġtygod nia
k tora
ĠÅĽle dzenia
Ġd is
dni o
ĠwskaÅº nikÃ³w
re na
Ġu czenie
ĠKa ta
list Ã³w
Ġczyn nikiem
ĠwaÅ¼ nym
s ÅĤÃ³w
Ġwykon anie
ĠuÅ¼y ciem
Ġsk Ã³r
Ġwiel kie
rie d
Ġko ÅĤa
ca m
ĠE gip
Ġto bÄħ
ga jÄħ
Ġcieka w
sz czu
mi strz
Ġ6 5
Ġreprezenta cji
ĠCh ry
op le
ĠsprzÄĻ t
Ġniepew noÅĽci
ne tu
P y
! âĢ¦
Ġ5 5
niÄĻ Äĩ
Ġmul ti
Ġmie jskie
Ġobli czeni
ĠciÄħg Ã³w
Ġprzeprowa dziÄĩ
ĠRich ard
lko pol
Ġcz ujesz
Ġna wia
or der
Ġfir st
ĠzwrÃ³ Äĩ
sz anie
Ġsp or
Ġalgoryt mÃ³w
ĠKrzyszto f
Ġ196 7
Ġzak water
Ġz integr
Ġo l
ĠdziaÅĤa czka
Ġsta ÅĤe
Ġastro nom
C O
re i
Ġ197 4
I d
Ġwy miar
sty na
Ġzapewnia jÄħ
7 3
Ġgwia zdy
w ny
ĠN ad
Ġch at
Ġwie dzieÄĩ
Ġka wi
Ġunika lny
kaza ÅĤo
Ġzale ty
liby ÅĽmy
Ġw ciÄħga
ĠZa sa
Ġprzej ÅĽcie
Ġresz ty
ĠpowaÅ¼ aniem
Ġf u
Ġzaku pu
cie ra
Ġâ ĨĴ
wi zji
sze m
ĠZ ÅĤo
k er
Ġfilozofi i
8 1
i ma
na leÅ¼
Ġna ru
forma t
nÄĻ ÅĤy
Å» y
ĠWy korzy
Ġstos owania
Ġmo mentu
Ġga z
Ġpasu je
Ġzosta li
ĠprzyjaciÃ³ÅĤ mi
Ġzob owiÄħz
z jo
Ġw ery
Ġnaj star
czÄĻ st
Ġwybo rem
Ġzach owaÅĦ
Ġchcia ÅĤbym
Ġwyda ÅĤ
Ġwspom nieÅĦ
Ġzad aniem
Ġkonstru kcji
7 4
d on
sta wa
Ġprze cho
W edÅĤug
Ġstanowis ka
Ġtery torium
Ġd s
ĠO ba
Ġprzypad ki
ĠM ist
ĠzwiÄħz ki
ĠIn te
ĠU r
Ġfil my
Ġkwadrat owych
Ġ? )
Ġwyja ÅĽnia
j na
t Äħd
ne ÅĽ
Ġk g
Ġnie od
Ġbi twa
Ġregi onie
ĠsÅĤy n
Ġin west
ĠP orÃ³w
ĠrozwaÅ¼ my
Ġwska z
Ġpla y
Ġodz na
Ġrodzaj Ã³w
"]}} }]</
ĠspoÅĤe cze
Ġ196 4
Ġf ru
Ġsta tu
Ġloka lnymi
Ġg al
Ġwa gi
Ġdostarcza jÄħ
Ġzakup Ã³w
k r
ja mi
Ġczyni Äħc
ĠpoÅĤudni u
8 2
ra cja
ĠD ane
Ġp ane
ro po
Ġsz ki
ĠÅĤa god
Ġzdoby Äĩ
\ ),
Ġdoty ch
prowa dzenie
Ġga zÃ³w
Ġsyn te
Ġarchi tek
ĠrozpoczÄĻ ÅĤa
V a
w ka
Ġwy ru
Ġin for
Ġbakt er
v y
w anÄħ
li zm
ĠPa u
Ġprzekon u
ĠÅĽwiado me
Ġ16 0
Ġn ull
Ġcen ÄĻ
Ch cia
Ġdotych czas
Wy jaÅĽnij
Ġistnie nia
ĠÅĽcieÅ¼ ki
Ġpod ca
Ġprzej ÅĽcia
Ġfinans owych
ĠD NA
Ġsztu czna
Ġwie dzÄħ
Ġrodzi na
Ġmoc ne
ĠpodkreÅĽla jÄħc
ĠzÅĤa go
ĠJ os
Ġy e
Ġ19 17
Ġprzyczy ny
z j
Ġusta wiÄĩ
Ġskorzy staÄĩ
or g
Ġspo dzie
Ġsam ych
Ġusun ÄħÄĩ
wÅĤa ÅĽci
Ġu pa
Ġnie ja
C ie
ver se
' .",
Ġz anu
Ġnie ch
Ġniemie ckiego
Ġtrady cyjnych
e lement
Ġli n
Ġjas no
ÅĽ lenie
Ġpowsta ÅĤ
Ġmotywa cje
Ġprzestrze n
Ġb owiem
ca Äĩ
Ġklu b
ck et
mia rach
Ġumy sÅĤ
Ġgle by
b lo
mb da
Ġwielokro tnoÅĽci
Czy m
ĠÅĽmier tel
word s
C A
Ġwie m
niej szÄħ
v ec
Ġofer ujÄħc
ĠPy thon
print ln
f ul
Ġ197 1
Ġza jÄħÄĩ
Ġedy t
ktÃ³ rzy
Ġprzepis aÄĩ
ure at
Ð µ
or ien
ĠV I
z el
Ġo szu
Ġpo lu
Ġ197 8
Ġpo kÃ³j
ĠT rze
Ġkolej ny
6 9
T P
l ant
ro ot
ĠL it
Ġ194 9
Ġlog isty
Ġinf lu
ĠwÄĻz ÅĤÃ³w
sp er
Ġdzie ÅĤ
Ġprze ja
Ġma tki
ĠTo kio
Ġklasy fikacji
ĠS il
ĠzakoÅĦ czeniu
to rek
dow n
) ]
Ġwy ch
Ġpolity cznych
Å¼a jÄħc
Ġistnie nie
em pty
Ġar te
ĠZ ba
Ġku piÄĩ
Ġupra szcza
5 2
6 3
aÅĤ Ã³Å¼
Ġdecy zja
Ġwybu ch
a p
finiu j
ĠciÄĻÅ¼ ar
Ġtra kta
ĠDzie ÅĦ
Ġprzeka zuje
Ġszk lan
mi u
ĠspoÅĤe czeÅĦstwo
Ġargument Ã³w
dy stans
ĠWy jaÅĽnij
Ġma p
cha Äĩ
Ġautor stwa
Ġdystry bu
ĠuÅ¼y tku
Ġt war
Ġfizy cznych
Ġtechno logie
ĠQ ue
lin dro
Ġprzo du
Ġsku tkÃ³w
Ġs ÄĻ
czy ÅĤo
Ġin stan
ĠwspÃ³ÅĤpra cu
f fi
Ġw ez
Ġthe re
Ġod noszÄħ
Ġkonfli ktÃ³w
Ġze ra
ĠÅ¼ arÃ³w
Ġkol oru
ist ory
Ġwyra zy
ĠPod sumowujÄħc
g Ã³r
Ġzaprojekt owane
de rem
Ġkomu nik
kaza ÅĤy
ĠA K
Ġpier ÅĽcie
obie ÅĦstwo
ĠciÄħ gÅĤ
sze Äĩ
ĠCho Äĩ
pli ca
Ġekstre mal
ni Å¼
re o
Ġpta kÃ³w
Ġpro stej
P e
Ġnie na
Ġzdoby ÅĤ
}{ \
len ku
Ġodpowiedni Äħ
Ġklarow noÅĽÄĩ
p r
Ġgatu nku
Ġczu Äĩ
Ġzdr owiu
Ġwy czer
ct wie
ĠkrÃ³ lew
ĠdostÄĻp ny
Ġdysku sji
ÅĽ wie
ĠwiÄĻ zie
Ġportu ga
n or
Ġpod ÅĤo
bie nie
Ġstosu nek
Ġsy mu
Ġmarket ingu
Ġwnios ku
Ġpu sta
ĠR Ã³Å¼
Ġzna czeniu
que st
Ġdzie je
Ġpraw da
Ġsek wen
Ġpierwia stek
ĠzupeÅĤ nie
ĠA mer
Ġ19 10
bo o
Ġimp re
ĠwiÄħ z
S to
niej sza
ĠokreÅĽ lenie
iaÅĤ em
low er
Ġmis ji
Ġu cznia
Ġpew noÅĽciÄħ
ĠsÅĤuÅ¼ by
C za
no s
ĠgÅĤÃ³w nej
Ġfizy ki
Ġpierwia stki
i da
Ġdo d
ss o
ss on
wy miar
Ġosob Äħ
ĠprzeksztaÅĤ ciÄĩ
v in
bi li
Ġpraw dy
Ġzmody fik
Ġza stÄĻp
Ġja zdy
Ġdu ÅĦski
deks cyt
Ġin nÄħ
Ġrzeczywi ste
Ġmaszy ny
fe ra
Ġoka zji
Ġ art
Ġt onu
Ġm ary
mi l
Ġw ek
Ġw glÄħd
Ġprzy wrÃ³
Ġcen nych
Ġpodkre ÅĽliÄĩ
Ġwyj ÅĽci
Ġchro niÄĩ
le ktu
Ġro biÄĩ
Ġobra zy
ĠÅĽwieÅ¼y m
Ġd er
Ġm isty
Ġpsychi czne
5 7
Ġmaksymal nÄħ
ĠnapÄĻ dz
ge q
ĠD em
Ġnau kowych
Sc ript
Ġa ro
ĠOb ecnie
ĠgÅĤ oÅĽ
Ġw kÅĤad
ĠIn stytu
or ii
ĠÅļ rod
ĠwaÅ¼ nych
Ġuli cy
Ġs mo
go da
Ġma ÅĤej
Ġli m
Ġru n
Ġmo d
ona ch
Ġmiesz an
Ġ195 4
Ġjas ny
Ġtransforma cji
szcz one
Ġefektyw ne
O dzna
b Ã³r
Ġza prezent
Ġme tro
Ġbu ÅĤgar
Ġstand ar
Ġimplementa cji
d go
Ġpro sta
Ġka lenda
ĠciÄħ Å¼y
ver t
Ġpoda je
gu jÄħ
Ġkon figu
Ġpod Äħ
Ġwia tr
ĠpostÄĻp Ã³w
ĠwÄħt pliwoÅĽci
A ccount
Ġs ho
ksztaÅĤ t
Ġpozytyw ny
Ġzao fer
Ġby cia
ĠÅ¼ ona
Ġdoko ny
S praw
cz oÅĽÄĩ
liz mu
Ġklimaty cznych
ĠB ryty
Ġla ureat
Ġzaimplement owaÄĩ
m owa
os ob
Ġuzy sku
Ġdoro sÅĤych
I S
Ġs mart
G ÅĤÃ³w
la k
ta rz
Ġka pita
Ġmie ÅĽci
ĠangaÅ¼u jÄħce
Ġu ch
Ġmus ie
Ġdziel Äħc
t ing
mien ne
p ki
Ġwo uld
I V
sza jÄħc
O blicza
ĠU su
p lan
ch am
mi ra
Ġtu re
Ġodniesie niu
z mem
on d
Ġlini owej
Ġzwro t
Ġkon kur
Ġ190 5
Ġran nych
Ġw raca
Ġka p
Ġa kty
ĠXV I
ĠW iÄĻk
Ġloka lnej
Ġfin an
ĠPe ter
Ġdoko naÄĩ
ĠC O
chi sta
ĠÅĽredni ch
Ġnaw zajem
Ġ195 2
ĠkrawÄĻ dzi
Ġsz czÄĻÅĽcie
Ġczas owych
ĠJoh na
Ġdrze wo
ĠjÄĻzy kiem
ĠwÄĻ zeÅĤ
Ġi tem
Ġwy miany
dzi ny
Ġbo mb
s chÃ³d
sta ch
ĠA f
}} ]</
Ġ195 1
Ġotwar ty
s kÃ³w
Ġ= >
Two ja
M ie
y o
Ġd rÃ³g
ak e
7 1
Ġszko le
Ġfizy cznej
Ġde pres
Ġzo stanÄħ
Ġgita rzysta
Ġ19 12
Ġwywo ÅĤy
zn anie
wo ka
art Äħ
no logia
ĠwewnÄĻtrz nych
ne ss
Ġpo dekscyt
ĠWiel kiego
Dz iÄĻkujÄĻ
Ġdo mÃ³w
Ġmuzy ka
ĠA pp
ni ÅĤa
lo pe
Ġkro kiem
Ġpar ÄĻ
Ġkiedy ÅĽ
Ex ception
Ġmo net
Ġ$ $
Ġop an
Ġdnia ch
ĠspeÅĤnia jÄħ
Ġwy trzyma
ku l
ĠPo czÄħ
Ġv an
ÅĽcie j
ĠÅ¼ad nego
ĠbudÅ¼e tu
u f
il s
scrip t
Ġkomunika cjÄĻ
sz czÄħ
ĠM ad
and er
Ġkorzy staÄĩ
Ġma jÄħc
Ġpodejm owanie
P i
ĠniektÃ³ rzy
Ġciep lar
Ġodgrywa jÄħ
ĠP or
Ġkwo tÄĻ
h ar
pe u
Ġzamk niÄĻ
ĠmÅĤod ych
ste in
Ġskute cznoÅĽÄĩ
Ġban k
Ġa para
ty fika
g y
Ġob owiÄħ
Ġch ary
Ġpa pier
ĠpÃ³ÅĤnoc no
mu nika
ĠÅ»y dÃ³w
Ġsztu kÄĻ
ĠÅĽci any
ist o
pro du
Ġ196 2
in stance
ĠB ÄĻdzie
Ġczyn nik
Ġunika lnÄħ
ÅĽla d
-------- --------
Ġtwa rz
ĠZbi gnie
S o
lu zy
Ġze br
Ġpew nym
Ġsku tku
Ġobywa tel
Ġu ka
bal l
Ġsytua cjach
ĠrzeÅº bia
t owej
z my
ĠWy daw
ĠwÅĤas nym
Ġodp owia
tora mi
Ġoprogram owanie
ni ctwa
ĠC D
Ġodpowie dzieÄĩ
Ġzmien na
ĠJednak Å¼e
Ġstos owany
pla y
Ġsugest ii
ĠwiÄĻ zi
js kÄħ
ĠpiÅĤ ki
Ġkla sa
sto p
Ġprzygot owaÄĩ
czy ÅĤem
ĠC om
sza ÅĤek
Ġhand lu
ĠB Ã³g
Ġzach wy
Ġodpowiednie go
ĠzÄĻ bÃ³w
Ġpracowni cy
Ġza kÅĤad
in ga
Ġwynagro dzenia
Ġsprawied liwoÅĽci
Ġwy kÅĤadni
Ġty godnie
Ġzapa lenia
Ġzag ÅĤÄĻ
Ġkwo ta
Ġor bi
cha ch
ĠwiÄĻk szego
Ġzespo ÅĤem
ĠWiel ka
Ġrodzin Äħ
Ġje Å¼eli
sko p
Ġangiel skiego
Ġref leks
ĠdziaÅĤa jÄħ
Ġsprze d
Ġkompu tera
Ġk e
Ġkonfli kt
Ġprze ÅĤÄħcz
th od
ĠKrak owie
Ġ ÏĢ
ch ron
me d
Ġin fe
ĠI gna
Ġstra ty
Ġhy dro
O blicz
ĠJ SON
Ġ19 15
Ġzna czy
Ġan o
Jed nÄħ
Ġna sza
Ġprze by
Ġru ty
Ġzda rzeÅĦ
Ġwspo mina
Ġpodob nych
ĠmiesiÄħ cu
ĠS QL
Ġdu plika
Ġok rÄħg
c ku
h er
Å¼ noÅĽci
Ġprze dziaÅĤ
Ġch le
ĠdoÅĽwiadczenie m
ĠpoÅĤ owÄĻ
ĠAleksand ra
Ġklu cza
Ġtrud no
Ġla bora
Ġpowod owaÄĩ
Ġporusza Äĩ
Ġce na
wÃ³ l
ĠU nii
Ġobec nej
Prze d
Ġchcia ÅĤ
la Äĩ
iera r
Z najdÅº
Ġi stnia
Ġ( âĢŀ
tr wa
ĠwyjaÅĽnie nie
v ali
Ġfil tr
Ġpubli cznej
Ġpew nych
fo ni
Ġprag nienia
Ġpojaz dÃ³w
Ġb ier
Ġg imna
Ġwykorzystu jÄħ
ÅĤo m
Ġwi oÅĽ
ĠmÃ³w iÄĩ
ĠdowÃ³d ca
Ġa war
v ed
spo ko
Ġper ku
ba ck
Ġproje kty
Ġaspe ktem
ĠwewnÄĻtrz ne
t owych
ych a
Ġfa bry
. ),
Ġspa dek
ĠJu li
ral na
Je st
gn or
ĠinÅ¼ynie rii
Ġmniej sza
Ġ196 5
Ġpomoc ne
pa ss
Ġ196 3
Ġsk lasy
ĠMar ek
ĠÅ¼oÅĤnie rz
Ġbelgi jski
Ġpa t
Ġth em
Ġo ÅĽwiad
Ġna grody
mi ary
Ġszyb kie
Ġpozy cjÄĻ
ĠwÄĻd rÃ³w
d owe
p hi
ĠP ri
ĠG daÅĦ
ĠÅ¼y ci
ĠrÃ³Å¼ni cy
ĠT obÄħ
Ġr ano
Ġdoda jÄħc
ĠokreÅĽlo ny
Ġposta ciÄħ
Ġkolej ki
Ġpo et
Ġnau czyÄĩ
Ġwymaga ÅĦ
Ġh el
Ġrela cjÄĻ
Ġokoli cznoÅĽci
Ġuczu cie
Ġk ru
wa ga
Ġd if
ĠwyjÄħ tk
Ġogrom ne
ĠM aÅĤ
Ġegza min
Ġkonwers ji
d an
Ġprze reda
Ġma sa
Ġzainteres owany
ĠchÄĻ tnie
ĠdostÄĻp noÅĽÄĩ
Ġ195 7
Ġchor wa
Ġczas owÄħ
Ġmniej szych
Ġrela k
Ġin to
ĠC el
ĠZ wy
Ġni u
ĠKo lej
Ġnapo tka
Ġz ar
Ġsi ze
ĠBo Å¼e
Ġkultur owe
ĠuwzglÄĻd niajÄħc
G a
wi ania
rod ÄĻ
ona r
Ġzwy czaj
Ġprzyda tne
D ru
Ġza raz
Ġgot owy
Ġty dzieÅĦ
Ġprezyd entem
oÅĽ wia
ĠN owa
Å¼d Å¼a
A d
Ġwy bierz
ĠDa ta
Ġg rzy
âĢĿ )
Ġzd aniem
Äħc Äħ
Ġindywidu alnych
ÅĤ owie
rz Ã³d
ÅĦ cy
Ġla su
Ġunika Äĩ
ĠBan k
Ġokaz jÄĻ
sz oÅĽci
Ġdo ce
Ġu nie
by ÅĽ
Ġpla sti
Ġad d
Ġakapi tu
Ġbudy nku
S er
na czej
wod nik
Ġmened Å¼er
ÅĤa ÅĤ
Ġin dek
Ġch roni
Ġnaz w
ver si
Na u
ob Ã³j
ĠspoÅĤe cznego
Ġsce ny
Ġnajlep szy
Ġpo dziaÅĤu
Ġfi li
Ġczer w
ĠC u
Ġnaz wÄħ
Ġreali zacji
ĠO fer
Ġ196 1
Ġodpowiada jÄħ
Ġpo sÅĤu
Ġtr waÅĤ
pla ce
ĠD ol
Ġ190 8
ĠMia sto
Ġpo sze
ĠwÅĤas noÅĽci
Ġrodzi cÃ³w
Ġelasty cznoÅĽÄĩ
B ÅĤÄħd
Ġkwadra tÃ³w
Ġkorzy stanie
6 2
go tuj
tu n
ĠwaÅ¼ ny
met rÃ³w
ty nu
Ġka d
Ġ19 16
Ġmia steczka
Ġnieprze wi
c ÅĤa
Ġtrady cyjne
Ġkonty nen
Ġmodu ÅĤu
Ġzaawans owane
Ġdefini cji
Ġzaga d
Ġpodz bi
l owaÄĩ
ĠA ir
ĠpoÅĤÄħ czeniu
Ġ195 8
Ġwh en
Ġzaplan owaÄĩ
Ġbie gu
Ġdal sze
rz ut
ran ge
Ġpi on
ĠAmery ki
ran u
ĠczÅĤon kowie
Ġ3 3
Ġz groma
Ġda te
po ra
Ġprzyja ciela
Ġchce my
A M
lo ni
Ġregular nie
Ġzanieczy szczenia
ct s
ĠnajwiÄĻk szÄħ
ĠCent rum
Ġwarst wy
ĠO ce
Ġpow rÃ³
cj an
Ġstatysty cznych
ci ty
ĠNa leÅ¼y
Ġnarciar ski
ĠWojcie ch
Ġbizne su
? âĢĿ
Ġma jor
ĠJe z
an su
Ġ196 6
Ġd ÅĤo
ĠO li
di v
Ġzwro tÃ³w
1 20
Ġwsp Ã³lnie
Ġwier sza
ĠprzepÅĤy wu
- \
d owych
Ġ ent
te lne
W o
Ġsp rÃ³buj
Ġpoz o
Ġkoncentru je
9 8
Ġr Äħ
Ġarty sta
Ġostatnie go
C e
s ca
Ġsz kÃ³ÅĤ
m m
m us
ĠWo js
Ġ195 3
ĠDzie je
Ġreli gii
Ġsort owania
fie ld
ĠHiszp anii
Ġte ni
stu j
ĠV er
Ġalgoryt my
Ġprioryte towo
Ġpotrzeb owaÄĩ
Ġmu zeum
Ġprzygot owania
Ġme tal
Ġozna cz
Ġdrama tur
Ġr ower
ĠporÃ³wn ania
Ġod bud
ba se
Ġklucz owa
ĠreÅ¼yser ii
ĠLudwi k
t ani
Ġor ien
ĠwyÅ¼ szych
ne mu
ĠPÃ³ÅĤnoc nej
Ð ½
Ġdy nast
Ġmedi ana
w entu
Ġw Ã³d
logi czny
liz owane
Ġkapi tan
Ġmo ment
ĠdokÅĤad noÅĽÄĩ
lo nego
Ġpro mowaÄĩ
Ġba zie
Ġprze ra
Ġg ar
ĠZa wsze
Ġoryginal nego
Ġkolum ny
co ut
at ch
Ġk ory
ur ce
ĠZa pew
Ġku p
ÅĽcia mi
Ġwyd ru
Ġg li
Ġbud owania
K lucz
ĠÅĽ nie
Ġso cj
ĠspÃ³j noÅĽÄĩ
Ġpod rÄĻ
ĠUÅ¼y wajÄħc
Ġtabli ca
Ġab solu
ci sk
Ġu fnoÅĽci
Ġfi ÅĦski
Ġstos owaÄĩ
Ġzespo ÅĤ
Ġzespo ÅĤÃ³w
Ġdy ry
Ġpozio my
Ġb reak
Ġn ur
Ġ3 4
Ġ195 5
Ġzmody fikowaÄĩ
c urrent
Ġka pe
S D
Ġu kÅĤadzie
Ġro l
fi t
Ġroz leg
ba ty
ĠÅĽrod ka
Ġunika jÄħc
Ġostatni m
v ille
Ġodkry cie
Ġsko czek
ĠgÅĤÄĻb sze
W iÄĻc
an ge
is i
ĠzwiÄħz kÃ³w
ĠksiÄĻ cia
de le
lin gu
Ġmor der
Odzna czeni
5 00
ÄĻ tnie
Ġna by
Ġlub i
Ġka wy
Ġorganiza cje
ĠszczegÃ³l noÅĽci
Ġkon tr
Ġwyda tkÃ³w
Nie prawidÅĤ
Ġgatun ki
aÅĤÃ³Å¼ my
t ana
Ġm owy
Ġmoty wacji
mie rza
ĠPo przez
x y
Ġo pozy
se l
Ġbud owaÄĩ
Ġprzy naleÅ¼
Ġda j
Ġdoda tkowo
Ġwy pÅĤa
Ġprze tÅĤuma
sty n
Ġz mÄĻ
ĠL os
ĠbiaÅĤ ka
s ÄĻ
Ġa ku
dzie siÄħ
Ġta ÅĦ
ĠK siÄħ
Ġpa liw
Ġpo kaz
Ġprzy nosi
Ġpro ÅĽ
Ġpowie ÅĽÄĩ
Ġi mienia
le cia
Ġproje kcie
ĠwyjaÅĽnie nia
ĠPoÅĤudni owej
ĠpiÅĤkar ski
Ġprawdzi wa
Ġ190 4
Ġgener owania
Ġkoncep cjÄĻ
Ġa f
Ġza chodzi
ĠÅĽ lu
Ġnapis aÅĤ
ĠWilhel m
F a
d is
Ġma ÅĤÄħ
ĠI P
ĠsÅĤo ÅĦce
ta m
zu jÄħce
Ġspecja lne
lementu j
szÄħ c
Ġ[ '
ujÄħc a
Ġinternet owÄħ
Ġszere gÃ³w
ĠprzyciÄħg nÄħÄĩ
Ġb rzu
Ġpod wyÅ¼
ĠH an
Ġ190 6
o nymi
ba ÅĦski
Ġs ol
Ġcz ci
Ġwo dÄħ
Ġarty stÃ³w
ĠczÅĤon kiem
Ġbran Å¼
math bf
j nego
Ġale r
Ġregi onal
Ġkatego ry
ĠtoÅ¼sam oÅĽÄĩ
Ġobec ne
ĠwspÃ³ÅĤrzÄĻd nych
ĠzakoÅĦ czenie
Ġnie bo
to rze
Ġsta wia
Ġop ty
H a
p end
Ġasy n
tri angle
Ġstopni owo
gra ph
ĠciÅĽnie nie
W szystkie
la bel
T rue
Ġ195 9
Ġ19 11
Ġprzyczy nÄħ
sze ÅĦ
Ġroz powszech
a meryka
Ġd ba
Ġu j
Ġch cÄħ
Ġprakty ce
ĠÅģ o
Ġodchy lenia
) =
ĠMa g
the ta
Ġpodsum owanie
Ġluks us
mia rze
Ġprzeci na
ÅĤ ki
Ġdo chodzi
Ġwy pis
ĠZa cznij
Ġcy klu
Ġinstru k
) $,
ow ne
do ks
ĠcaÅĤ oÅĽci
Ġprzebie gu
Ġhistor ie
p an
Ġre feren
Ġzb ierania
ar i
Ġzrozumie niu
ĠmieszkaÅĦ cy
Ġkonta ktu
Ġboga te
Ġwra Å¼enie
Ġnieu stan
6 1
Ġt an
Ġwy twarz
mie ra
Ġprowin cji
Ġ190 9
Ġ nego
la tor
ÅĤo s
Ġpoko j
Ġzatru dnienia
Ġ rzÄĻdu
ĠwÅĤas nymi
ĠwspÃ³l noty
( [
Ġpod mio
Ġinicja tywy
ĠS kon
Ġs or
ĠÅĽ rodek
Ġsz pi
Ġopowia dania
ĠFry dery
z an
ĠJose ph
Ġprzy stos
ko ma
fi kuje
Ġh ad
Ġeksp lo
ow nie
Ġzna ku
Ġpl any
je k
ĠO kreÅĽl
ĠuÅ¼ytkow nicy
ar ki
Ġludz kich
je nia
ĠSt ring
Li ne
ur l
bi ny
ĠO statecznie
Å¼a ch
Ġzjawi sk
Ġ owa
es ar
ĠnajwiÄĻk sze
Ġkoncep cja
Ġprzyt ÅĤa
Ã §
Ġraz u
ĠpamiÄĻ taj
Ġsza chista
m anie
Ġg rÄĻ
Ġce sar
Ġsi ÅĤa
Ġide ÄĻ
ĠmÃ³z g
Ġ19 13
sto mer
ĠPol skiej
ĠjÄħ dr
Ġefektyw noÅĽci
Ġuni wers
Ġopu ÅĽci
ĠCza s
Ġ rÃ³
5 9
u x
ĠMa my
ĠnajwiÄĻk szy
ĠAugu st
ĠW is
Ġbo kÃ³w
Ġ190 7
t owi
Ġastro no
Ġf lu
Ġkul tura
Ġisto tnych
Ġpew noÅĽÄĩ
w artoÅĽÄĩ
Ġtre nin
Ġim muno
Ġzy sku
l st
Ġk lÄĻ
Ġpoja wiajÄħ
Ġwybr any
Ġ2 50
Ġle ki
ja jÄħc
stÄħpi ÅĤ
Ġkonfli ktu
Ġcesa rza
po p
Ġwz rasta
Ġsk oÅĽ
ĠpoÅĤ owy
5 8
b Ã³
te tu
Ġcon st
Ġanaliz owaÄĩ
wan ge
Ġnie ruchom
Ġkolej noÅĽÄĩ
Ġkryty cznego
Ġuzasa dni
o pera
st d
Ġklien ci
Ġinternet owe
ĠKana dy
to dy
Ġpro stych
Ġsie dli
szcze niu
Ġinnowa cji
d l
Ġg lu
Ġz ÅĤam
Ġ4 2
Ġosta tniej
Ġzbi ory
lo se
ĠC aÅĤkowi
ĠkoÅĽci Ã³ÅĤ
Ġwy pro
ĠI m
il y
Ġhi gh
H e
c ti
t kÄĻ
ty l
Ġwie ÅĽ
Ġser we
ĠniepodlegÅĤ oÅĽci
Ġwymie niÄĩ
Ġcho ice
szcza jÄħc
ĠmiaÅĤ em
ĠMy ÅĽlÄĻ
ĠmÄĻÅ¼czy zna
Ġcen ne
Ġnie dob
Ġwymaga Äĩ
Ġwy sÅĤa
Ġznie ksztaÅĤ
A P
Ġpolski m
Ġ6 4
Dzie ÅĦ
ĠoszczÄĻd noÅĽci
B ad
Ġf re
ĠumoÅ¼li wi
Ġw chodzÄħ
Ġu wie
ĠK tÃ³
pa dy
Ġpodstaw ÄĻ
Ġproces em
Ġâī ¤
ĠuÅ¼y j
tm l
Ġodpowie dniej
Ġplat form
Ġrozpo czyna
5 1
L L
Ġkla sz
Ġwprowadz ony
pati i
Ġza wi
Ġja ÅĽniej
Ġko me
Ġkon feren
Ġsta ÅĤÄħ
ĠRzy mu
tu m
Ġsta tek
js c
prowadzi ÅĤem
Ġwy rzu
Ġra port
ĠpiÄĻ cio
kÅĤada jÄħc
c encji
li ce
Ġpopraw ki
Ġzapy ta
ĠMek sy
Ġce remo
Ġc ali
ĠK lucz
ĠwÄĻz ÅĤa
Ġulu bi
] [
Ġc ur
Ġprzeana lizowaÄĩ
nie c
to log
ĠT re
Ġkontynu owaÄĩ
} ^{
tu jÄħc
12 3
Ġinteres ar
l ory
Ġwy odrÄĻb
da jÄħc
ĠsÄħ sia
Ġgra czy
Ġobej mu
Ġzmienia Äĩ
ĠmiesiÄħ ce
dz kiego
Ġkonta ktÃ³w
fi r
ĠrzeÅºbia rz
N one
da y
Ġpolity ka
ĠZ wraca
stra cji
be ta
Ġisto tny
ĠzrÃ³wnowa Å¼one
Ġseku n
Ġpowta rz
Ġw torek
ne cie
ĠMo sk
ĠstÄĻ Å¼enie
d owy
t owego
ni ÅĤy
ĠP K
Ġty pe
muje my
ĠPod staw
Ġ190 2
ĠJÃ³ze fa
Ġm nÄħ
Ġh ierar
ĠJed no
Ġu dziaÅĤu
Ġg waÅĤ
ĠgÅĤo sÃ³w
Ġwe Åº
Ġwska zywaÄĩ
Ġwyz wanie
ĠA zji
ĠIn nymi
Ġefektyw nie
ĠRzy m
\ _
Ġpolity czne
Ġcze mu
ĠsÅĤu ch
gi o
ĠzÅĤoÅ¼ ony
Ġprzetwarz anie
Ġcharakter u
Ġu ÅĤam
ma p
Ġle kcji
Ġnad chodzÄħ
ĠpowiÄħz ania
ĠsÅĤa be
Ġwir tu
m and
ĠT ro
Ġpowinni ÅĽmy
ĠG ali
Ġzauf ania
\ ).
Ġw st
Ġnie wo
ĠN owo
ĠPro gram
Ġwh at
Ġdodatni ch
Ġargenty ÅĦski
h an
ck s
Ġgra fik
Ġzau waÅ¼
Ġkonfli kty
3 00
ce niu
Ġsy metry
value s
Ġsuger ujÄħ
Ġd um
ĠP hi
do mo
Ġco s
ĠZygm unt
Ġchat bo
' );
w ani
Ġp ul
Ġu pÅĤy
la jÄħc
Ġma ÅĤym
ser t
ĠKra kÃ³w
Ġseku nd
si ÅĤek
t kami
mi j
Ġczym ÅĽ
ĠÅļwiÄĻ tego
wo od
ĠspoÅĤe czna
ĠBo g
Ka Å¼
Dz iÄĻki
z jÄħ
cz ono
for d
Ġodp ar
Ġelem entami
Ġodkry wa
18 0
Ġlog ary
Ġpie choty
ĠzarzÄħ dzaÄĩ
ĠmyÅĽ lenie
Ġfoto graf
Ġre pu
Ġwz ory
Ġ\( \
Ġzg ÅĤÄĻ
ni ÅĤo
stnie jÄħ
Ġpubli cznych
Ġdowol nego
Ġi naczej
ÅĦ scy
Ġpew nego
] ]
Ġs cience
Ġto tal
Ġprzyczy nia
ĠWol ne
Ġm any
ĠMar ian
Ġszko lenia
Ġprzemy sÅĤu
Ġzre aliz
Ġs an
Ġg miny
grafi czne
Ġak cep
Ñ Ģ
ĠJ en
Ġek sk
dra w
ĠnieskoÅĦczon oÅĽci
Ġobie ktyw
Ġ190 1
Ġintera ktywne
ĠJanu sz
Ġklien tom
S i
m ania
Ġin spir
Ġsiat karz
Ġ any
on tar
ÅĽcie n
Ġza my
Ġha sÅĤo
Ġgatu nek
Ġod po
ĠZ o
Ġba daÄĩ
Ġobli czeÅĦ
Ġzn Ã³w
E D
ty na
Ġrozmiar u
r Ã©
Ġm io
Ġna turÄĻ
Ġg ÅĤad
9 2
or s
ĠD ro
mal na
Ġhistor iÄħ
ĠpotÄĻÅ¼ nym
Ġzao szczÄĻ
ĠzÅĤ oÅĽ
Ġma ke
Ġpro mieÅĦ
da je
Ġnie wi
Ġsa mi
Ġfabu lar
Ġoto czenie
Ġpoz naÄĩ
Ġkonie cznoÅĽci
ĠrÃ³w nie
Da j
Ġmag ne
Ġzapa ch
Ġoprac owy
Ġsze p
cie p
Ġgrup Äħ
dr owie
Ġopubli k
Ġma tka
Ġkur su
Ġwybo rach
Ġrezulta cie
J ÄĻzy
Ġte xt
UÅ¼y j
Ġodkry wania
Ġnum bers
ĠAu st
Ġprzewidy wania
T wÃ³j
Ġnie cier
Ġmi d
Za cznij
Ġopera tor
Ġ lar
Ġog Ã³lnie
Ġcy f
ĠpÅĤa tnoÅĽci
Ġkry pto
Ġk now
Ġpis aniu
Ġdoko na
Ġpa ÅĦstwo
w ork
v ery
in fo
Ġsta ck
Ġkatego ria
h ren
ĠH it
Ġznaj om
Ġodwie dziÄĩ
Ġodwiedza jÄħcych
r in
ĠFranci sco
Ġro cznie
Ġra m
Ġzapy tanie
ÅĤ anie
us h
Ġ qui
dni cy
Ġpa le
Ġkra je
ĠzrÃ³wnowa Å¼ony
Ġotwar te
ĠPrzeksztaÅĤ Äĩ
Ġbi or
Ġusta lenia
Ġstaran nie
Ġk oÅĽ
wi cza
Ġprzy wi
W z
Ġnie s
Ġsatysfak cjonu
Ġre cep
Ġkr wa
Ġpo in
ĠP et
ĠSt re
Ġ189 6
ĠXV II
Ġowo cÃ³w
d ÅĤo
Ġdo minu
Ġbi le
ĠdoÅĽwiadczenia mi
un kt
ĠksiÄħÅ¼ kÄĻ
Ġrad oÅĽci
Op rÃ³cz
Ġwy sÅĤ
ĠwystÄħpi Äĩ
d b
Ġte olog
wie ni
Ġle g
ĠÅĽwiÄĻ ta
ĠA s
Ġzale ca
Lu dzie
ĠChry st
Ġli der
gi ne
Ġbe st
C H
G o
Ġs qrt
Ġm ent
po pular
Ġdzie lenie
ĠÅ¼y wi
Ġdramatur g
D E
Ġwy mienia
Ġfir mÄĻ
Ġwers jÄĻ
Ġodpowiedzia lnoÅĽÄĩ
Ġme da
ĠnastÄĻp nego
Ġodby ÅĤa
Dro gi
Ġre szta
sty mi
ĠwÅĤa dze
Ġal bu
ĠjÄĻzy ki
() `,
Ġkry ter
ĠniezbÄĻd nych
Ġpow i
Ġde s
Ġwo dzie
ck er
ĠtrÃ³jkÄħ t
Ġskontakt owaÄĩ
ĠS ka
Ġprzy nieÅĽÄĩ
dzo nego
Ġmatematy czne
Ġobro ny
W D
Ġpraw dÄĻ
Ġofer ty
Ġeduka cyjne
Ġwynika mi
Ġsens ory
po le
ĠciÄħg le
ĠUÅ¼y cie
Ġsytua cja
ĠÅĤaÅĦcu cha
c anie
Ġpod anej
Ġch y
Ġ7 2
ĠSÅĤo ÅĦca
Ġko ron
un ter
Ġwie dza
Ġ6 00
tera pia
Ġformal nym
Ġme lo
Ġdobre j
Ġdyry gent
: ",
Ġte mp
Ġmo ne
Ġja zz
un ki
dni u
ĠBi bliote
Ġmag nety
Ġneu ron
B u
Ġroz ma
Ġzaawans owanych
Ty pe
Ġznalaz ÅĤ
Ġna stro
Ġroz bud
niej szego
co daw
Ġpan cer
Ġtrakt owaÄĩ
Ġniepoko ju
k ana
v iÄĩ
Ġnie peÅĤ
Ġwie sz
Ġba j
Ġzale dwie
ĠtÅĤuma czenie
Ġzga dza
Ġkwali fika
ĠU RL
Å ¾
Ġz le
re c
Ġaplika cjÄĻ
cza jÄħc
Ġroz mÃ³w
Ġga lakty
g owania
Ġpowierzch nia
Ġochro nÄĻ
c an
k ani
Ġfi gur
Ġrodzi nie
Ġcz uje
ĠZbignie w
d owo
Ġ( `
ĠPo mimo
fe rze
Ġdu Å¼a
ransp ort
Ġp anie
Ġodpowiedni m
Ġpro st
Ġpa liwa
uje m
Ġstud iÃ³w
t in
no cy
ĠK ro
bi i
sÅĤ owa
mag ania
Ġjas noÅĽci
Ġkuli nar
Ġzw ery
Ġilo czy
Ġprzer wy
Ġcy fry
ĠwyjÄħ tek
Ġkier owni
Ġtery toria
p unk
sze ni
Ġ" "},
stru je
Ġprawdzi wy
Ġpo br
Ġmodel owania
Ġzesz ÅĤym
Ġoce nia
Ġp ru
ĠS ko
ĠmÃ³wi Äħc
Å¼ onÄħ
te mp
ĠP ana
Ġwe ek
owymi ar
) );
Ġs padku
Ġludz kie
Ġpri vate
sta wia
nia k
Cze kam
Ġb en
Ġdro g
ĠprÄĻdkoÅĽci Äħ
Ġb rÄħz
Ġop cjÄħ
Ġsprze cznoÅĽci
F ir
ĠG or
Ġwo do
ste ty
ono mii
Ġgra cz
ĠS ha
Ġpotrze ba
dot s
ie ld
Ġkom pa
Za uwaÅ¼
Ġproble mami
Ġw or
ĠrÄĻ kÄĻ
Ġopar ty
Ġskle pie
Ġz bo
ĠZ ak
Ġmu ze
ĠzÅĤoÅ¼ onÄħ
ĠzaleÅ¼ noÅĽÄĩ
Ġmened Å¼e
ĠJava Script
Ġu se
imp lementuj
Ġmonitor owania
ja k
staw ÄĻ
Ġzaw artoÅĽÄĩ
glÄħ daÄĩ
rzo nej
c um
zy ka
Ġistnie jÄħcych
now u
Å¼ nej
em u
sp lit
ĠH el
Ġklien tami
Ġhe ad
co nych
ĠMart in
5 3
Ġu ÅĤa
Ġpolity kÄĻ
Ġprakty czne
Ġuzn anie
c m
Ġnie przy
ĠJed nÄħ
Ġpowo li
ĠCh cÄĻ
Ġrozwo jem
ÅĤaby m
szo nej
ĠM ÅĤo
Ġzna cznÄħ
Ġuczest nik
Ġdobro stan
du jÄħ
ĠczÄĻ ÅĽciej
Ġefektyw noÅĽÄĩ
Ġmist rz
Ġeksk luzy
Ġprzed miot
ĠpoÅĤÄħ czone
sor ted
I stnieje
Ġmi nera
ĠnastÄĻpu jÄħco
wrÃ³ Äĩ
Ġz nik
Ġop en
U twÃ³rz
Ġu bo
Ġroz dzie
Ġwa ka
di um
Ġzawiera jÄħcy
1 50
ĠK en
dow s
ĠdÅºwiÄĻ ki
h one
ci ÅĽnie
Ġata ku
cjona ri
Ġta ble
ga dy
Ġzas oba
Ġmeta for
Ġkatastro f
ĠB rak
Ġpubli cznoÅĽÄĩ
Ġgwia z
C D
x i
ĠFa ce
ci li
Ġwy mier
Å¼e ni
ĠÅģ u
] ;
ka toli
UÅ¼y wajÄħc
ĠÅĽrod ku
Ġzie miÄĻ
Ġwyz waniem
Ġ190 3
spi ra
ĠuÅĤat wiÄĩ
Ġtransa kcji
P re
Ġpe ople
Ġwygener owaÄĩ
Ġdo my
Ġbud owÄĻ
Ġutrzym aniu
Ġitera cji
le an
ĠgÅĤÄĻbo koÅĽci
ĠmiesiÄħ ca
Ġpowy Å¼sze
Ġz bÄĻd
ca ÅĤ
Ġszero ki
ra Å¼
ĠA la
ĠN owego
kow ska
ĠznaczÄħ cych
Ġu kierun
Ġwy pa
Ġto ksy
Ġwe re
Ġwyso kim
Ġoce na
kaza ÅĤa
Ġtem pie
tro l
Ġnatural nym
Ġpozwo liÄĩ
Ġdwut lenku
Ġteni sista
ci sz
Ġka mieni
zna j
Ġpi anista
ĠpiÄĻk na
O n
mi czne
Ġg nie
In te
Ġzdrowo tnych
Ġilo raz
s owe
ĠokreÅĽl onÄħ
ĠO N
Ġwa lu
jo in
ĠBy ÅĤa
Ġchemi k
ĠStanis ÅĤawa
ĠAt lan
Ġparla ment
b la
G ra
sz li
Ġprze two
Ġg mi
Ġli ke
Ġwyko naw
Naj lep
Ġprosto pad
ĠMusi my
ĠW artoÅĽÄĩ
Ġwarun kiem
Ġsekre ty
Ġe wentu
ĠwiÄĻ Åº
ĠwÅĤa dz
Ġprzyczy niÄĩ
ĠLondy nie
ob i
Ġuro czy
ĠobsÅĤugi waÄĩ
Ġposzuki waniu
Ġ{ }
ĠRa dzie
Ġit s
Ġstatysty ki
Ġarystokra ta
Ġmeksy kaÅĦski
Ġt ÅĤa
ĠwÅĤÄħ czenie
Ġk ÅĤa
Ġh rab
ĠobsÅĤu gÄĻ
^ (-
Ġzd ra
Ġru chy
ĠW szystkie
cza k
Ġzau waÅ¼y
te lu
ĠZ wiÄĻk
ĠbÃ³ lu
cz kÄħ
Ġro la
do l
Ġograni czone
Ġare szt
Ġcyk li
ia mi
Ġle ka
Ġor gan
Ġ189 5
Ġkreatyw noÅĽci
o po
Ġtra ktu
ka Å¼
Ġczy tania
ĠpoÅĤÄħ czeÅĦ
ĠsÅĤu p
Ġspowod owane
Ġm en
Ġbezpie czne
ĠokrÄĻ t
Ġtor owy
) **:
Å¼ bie
ĠB ry
wane go
Ġczu jÄĻ
ĠNie mniej
ĠzarzÄħdz aniu
Ġgwar an
dni Äħ
Ġdow Ã³dz
par ta
ĠWol nych
ĠKrÃ³ l
Ġszan se
ĠT or
ĠZ godnie
Ġszero koÅĽci
ro mi
Ġza zna
Po czÄħ
Ġsyste mach
ĠprzeciÄĻ cia
f el
Ġsy metrii
mi nal
ĠA BC
ĠZa chÄĻ
Ġs wej
Ġcha rak
Ġwzmoc niÄĩ
Ġa tom
Ġf ali
ĠLe ktury
ĠwÅĤÄħ czyÄĩ
czy cy
Ġdzie lÄħ
Ġdom owych
ĠrÃ³Å¼norod noÅĽÄĩ
ĠrÄħ k
b em
Ġs he
Ġk ÅĤam
ĠF ried
Ġedy cji
Ġrozwa Å¼enie
ĠAnge les
Ġjedy nym
ĠZwiÄħz ku
Ġpomy sÅĤa
zu jÄħcy
ĠPrzy j
fo re
Ġfizy ce
Ġefe kty
Ġogrom ny
W rite
ĠpotÄĻÅ¼ ne
Ġlite wski
Ġprez entu
ex ample
ĠponiÅ¼ szych
wa lu
Ġtech nika
Ġbie rze
Ġter ro
Ġn on
Ġefe ktu
Ġ189 8
nie cznie
in k
u ch
ĠkrÃ³t kie
dzi na
ĠPo m
pi d
ĠTe at
Ġeksp res
Ġoto czenia
Ġchoro ba
Ġzain stal
Ġsamolo tu
mi arÃ³w
Ġcu kier
Ġmetro po
je ktuj
Ġze bra
Ġkoncep cje
Ġkoszy karka
Ġskomplik owane
Ġbit wy
i ca
Ġu ksztaÅĤt
niÄĻ ciem
der ni
Ġpunk tami
Ġjednost ka
Ġkatego rie
Ġpotwier dza
vera ge
S twÃ³rz
Ġod dziaÅĤ
pu je
Ġkon to
Ġszyb ki
Ġw nÄĻ
by tu
ukli des
Ġpowsta ÅĤy
Ġintry gu
ĠwÄħtro by
wane j
Ġpodzie l
Ġs ec
ĠP al
Ġ3 8
ku lar
ĠH am
Ġnieza pom
Ġlitera cki
Ġszuka Äĩ
trzy my
Ġistnie Äĩ
Ġzasa da
Ġrozwin ÄħÄĩ
Ġz du
Ġboga tÄħ
ĠÅĽwiadom oÅĽÄĩ
ĠbieÅ¼Äħ co
Ä Ĺ
Ġpo to
Ġtra fi
Ġtempera turÄĻ
ĠÅ¼eg larz
H ello
S po
z owane
Ġce lami
czyn nik
ĠzewnÄĻtrz nych
k rze
st rÃ³w
li zujÄħc
Ġangiel skim
Ġna wo
Ġry ce
ĠPro du
ĠIn sta
Ġkonkre tny
Ġprzyj m
Ġdzielni cy
Ġmie jskich
Te ch
ĠnastÄĻp ne
Ġz my
ĠH ow
Ġ ane
ĠurzÄħ dzenie
Jednak Å¼e
Ġciep ÅĤo
Ġfak tu
% )
Ġu og
ko ju
Å¼a Äĩ
Ġprofe sor
ĠpoÅĽredni ctwem
I T
Ġd ist
ro ÅĽci
Ġwi dz
Ġsztu ka
Ġmiasta ch
Ġwol ne
Ġblo ku
ĠNarod owego
Ġosoba mi
* .
n ania
Ġw orld
rzy ÅĤa
Ġr ow
Ġ17 0
ĠWo jska
Å¼ ny
di an
Ġpozosta wiajÄħc
Ġzba dania
ĠniezaleÅ¼ ne
Ġspecyfi cznych
ĠPoz osta
Ġnaci sk
ĠRepubli ki
owa ÅĤeÅĽ
Ġpi k
. _
Ã³w i
Ġzabu rzeÅĦ
ni any
logi cznym
Ġbra kuje
ĠumoÅ¼li wiajÄħ
ĠgÅĤ owÄħ
Ġk rew
ti tle
Ġdoda j
Ġstan Ã³w
Ġkwadrat owe
Ġuszko dzenia
Ġodniesie nia
ych o
Ġorgani zmu
Ġposia dania
Ġt rue
sz onych
owa liÅĽmy
Ġprowa dzenia
Ġosob owoÅĽÄĩ
Ġwyraz u
Ġdal szej
Y Y
Z na
re sy
sze wski
ĠÅĽwie t
Ġwyco f
c ono
ĠP ortu
Ġpow iÄĻk
Ġan g
Ġtr wania
ĠksiÄĻ Å¼ni
ĠprawosÅĤaw ny
Ġog Ã³
Ġregu la
Ġpowa Å¼ne
Ġuza leÅ¼
Ġdo prac
ĠP ru
str owaÄĩ
Ġcie szy
ĠÅĽwie tny
Ġdodatni Äħ
je nie
czy ÅĦski
ur i
ĠNarod owy
C lass
Ġi dzie
li zuje
Ġe tni
ĠE li
sza ÅĤ
Ġtechni czne
ĠwszechÅĽwia ta
Ġopty mal
ra me
ÅĽ wiÄĻ
Ġotrzy my
ĠWarsza wy
ĠwysiÅĤ ku
Ġna prawi
dzi ÅĤem
czy mi
Ġser c
Ġzmien noÅĽci
ĠpiÄĻk no
Ġzmiana mi
) }
ne dy
Ġobywa teli
Ġko t
Ġpro pa
Ġtajem nicy
ĠnawiÄħ zy
Ġzmar ÅĤ
Ġolimpi jczyk
Ġprawdopodob ne
$ :
Ġry wa
Ġpodej rz
Ġwar stw
Ġstrate gia
ĠnaleÅ¼ a
ĠstÄĻ Å¼enia
p en
czÄħ ce
ĠsÅĤu Å¼yÄĩ
Ġprzesz ÅĤoÅĽÄĩ
Ġloja lnoÅĽci
d owa
li jska
Ġc ud
niÄĻ to
Ġrekomen da
ĠwÅĤas ny
ĠBy dgo
Ġdoku ment
on ki
Ġod leg
zu ÅĤ
Ġwol ontar
Ġfabu ÅĤy
ĠKali for
ĠP is
Ġwyso ki
Ġuczni om
rzysta jÄħc
Ġposiada jÄħ
Ġorganiza cja
Ġwzro stem
ÅĤÃ³Å¼ my
Ġw ul
Ġpro stÄħ
Ġfizy cznego
lik nij
v ers
Ġt j
ÅĤoÅ¼ one
ĠÅ¼ad en
Ġkwadrat owego
Ġrozm owa
. '
Ġpo ez
ca jÄħ
Ġru cho
v ia
Ġod se
Ġobli czania
ĠNiem cze
b ol
Ġujaw nia
W prowadziÅĤem
Ġdo cze
gie j
Ġ189 9
Ġprzepis Ã³w
Ġtechni cznych
Ġproto ko
ia ch
ĠH istoria
Ġnag le
Ġegzamin Ã³w
e cu
i ana
Ġmia stem
ĠZjedno czone
ĠNiemcze ch
9 7
ar p
Ġ[ "
ĠwaÅ¼ nÄħ
Ġim pu
R E
Ġe gip
ĠWy ra
Ġnau ka
Ġmodu lo
mor fi
Ġmal owni
dzi ÅĤy
ĠprzytÅĤa cza
Ġpo bu
ĠJ ord
Ġusta l
m entem
Ġnie ba
Ġbud dy
Ġdro ga
Ġkwia tÃ³w
go ry
czo rem
niesie nia
Ġpoka zujÄħ
Ġpreferen cje
Ġkwadrat owy
Ġowo ce
Ġsztu k
Ġpopra wia
4 00
Ġsk raj
Ġproduk cjÄĻ
Ġmodu ÅĤ
Ġsal do
ĠLek tur
a mount
Ġnie lini
Ġnaj czÄĻst
ĠokrÄĻ tÃ³w
Ġmoc no
Ġzawod owe
T h
Ġza a
Ġnie moÅ¼li
su wa
Ġkul turze
trze bu
Ġwydarzenia ch
ĠPary Å¼a
Ġperspektyw ÄĻ
lo nym
ĠJ ane
ĠrÃ³Å¼norod noÅĽci
le ktury
tne ss
ĠpÅĤyn noÅĽÄĩ
ni cze
Ġi miona
ska Åº
stu jÄħc
Ġinte lektu
Ġzwraca Äĩ
Sy stem
ĠHT ML
Ġfraz ÄĻ
CaÅĤkowi ta
ier ÄĻ
Ġfi zjo
Ġnau ce
Ġeksp lor
ĠTy m
Ġpomi mo
ĠĠ ĠčĊ
iu szy
Ġpubli czne
ĠT rzy
sto suj
zna wca
Ġaspe kt
ĠstaroÅ¼y tnych
Ġpo jÄĻ
Ġma ÅĤa
owi ce
ĠWi ktor
po int
ĠâĢ ľ
Ġbud owaniu
I tem
Ġo by
Ġh rabia
ter ii
ĠobjÄĻt oÅĽÄĩ
ĠP rac
ĠD ÅĤugo
ĠO pera
Ġthe se
Ġpowinie neÅĽ
B e
in f
ĠÅĽ rÃ³d
ÅĤÄħ czenie
Ġ{ '
ĠIn dia
ĠgÅĤ owÄĻ
w kÄĻ
Ġprze sta
Ġstop ÄĻ
Ġposia danie
gru p
ĠMia sta
Ġrej onie
Ġs ch
Ġd x
Ġstruktu rze
Ġpod lega
ĠAr chi
ĠRy sz
Ġalko ho
ĠF our
Ġwoj nÄĻ
Ġnum s
Ġstar szych
Ġ189 0
Ġskry pt
ĠS pa
ĠGre cji
Ġodby ÅĤ
ĠobjÄĻt oÅĽci
ge d
Ġin duk
Ġprzy jÄĻcie
ĠD r
ĠporÃ³w naÄĩ
Ġnegatyw ne
P T
Ġz wal
Ġskute cznoÅĽci
Ġcodzien ne
Ġzauf anie
ĠDanie l
i dy
Ġpoja wiÄĩ
Ġwykorzysty wana
Ġnatural ny
ĠChcia ÅĤbym
` .<|
Ġroz mawia
Ġodkry ÅĤ
Ġtere ny
âĪ ļ
ie w
ĠMa z
ĠCi ty
Ġcharaktery zuje
Ġhipote zy
Ġ Âł
lo ck
ĠS ku
ĠG rzego
Ġmi gra
dra t
Ġwysp ie
Ġut wÃ³r
Ġcieplar nianych
Ġc menta
Ġdob rÄħ
Ġnum ber
Ġcentral nej
D y
c pp
Ġo stre
Ġna rzÄħ
Ġza cznij
wa gÄĻ
hi bi
Ġper mu
Ġpomys ÅĤem
Ġzama chu
le a
wi cy
nÄĻ ÅĤo
Ġaut onomi
ĠsÅĤone czne
ye e
Ġinfrastru ktury
ĠKrÃ³le stwa
p ry
Ġsp rowa
ĠWy jÅĽcie
zd r
P ow
ĠÅĤa tw
Ġdostarcza Äĩ
ĠH ans
Ġplan owanie
g ÅĤÃ³w
i re
Ġkiedy kolwiek
ĠlÄĻ ku
Ġkorzyst ne
Ġepo ki
b et
m Äħ
an ÄĻ
Ġm er
Ġnie sp
ĠI l
Ġwa h
tra ct
ni g
ĠWy sp
Ġwska zujÄħ
ĠkoÅĽci oÅĤa
Ġcyk l
Ġpomara ÅĦ
ĠJos Ã©
k g
wi one
bo m
Ġbo j
Ġnauczy cieli
cia ch
Ġgo r
ĠCe lem
Ġstanowi Äĩ
Ġdobre go
Ġeta pie
hren he
Ġz mo
ĠO bie
ĠNie ktÃ³rzy
zi ono
ni Å¼ej
Ġaby ÅĽ
dza j
ĠGe o
ĠczÄħ stek
Ġ$ .
ĠJa ro
Ġcze kola
Cho ciaÅ¼
Ġa gre
ĠA meryka
ĠuÅ¼y wanie
ĠrozpoczÄĻ cie
ĠUniwersyte t
Ġrekla my
man na
tar get
Ġwszech stron
ĠSÅĤ owa
ĠBole sÅĤaw
Ġalfa be
T ekst
Ġsku tek
Ġzba danie
Ġdostarcza jÄħc
Ġscen ÄĻ
Ġde ka
Ġtechno logiÄĻ
Ġidenty fik
Ġeduka cyjnych
Ġjakich kolwiek
ĠF red
ĠrozwiÄħz aniem
Ġdo peÅĤ
ĠpÃ³ÅĤ nocy
w ro
Ġzw rac
Ġmatematy cznej
czo nymi
ĠczÄĻÅĽci owo
Chcia ÅĤbym
g wa
s ol
Ġpom no
ĠTe st
ĠLu dzie
Ġdys kre
Ġcze le
che s
ĠzaÅĤo gi
Ġalternatyw nych
ow ce
re ktor
ĠÅĽ lÄħ
Ġfi ction
Ġpi z
liwe go
Ġop cja
Ġaplika cja
Ġchi ÅĦski
Ġwykre sy
Ġzary s
ar ne
Ġdoprowadzi ÅĤo
ow cy
ro zo
ge l
si de
ĠzaÅĤo Å¼eÅĦ
i de
Ġprze test
ĠK ing
let nia
? âĢ¦
u jÄħce
ĠÅļ rednia
Ġsil nie
ĠAl ternatywnie
C iÄħg
ĠW iÄĻc
Ġprzy pisy
si g
ĠÅĽcieÅ¼ kÄĻ
Ġpo gÅĤÄĻ
Ġhist o
logi cznÄħ
Ġ189 7
ĠTho mp
ĠGru pa
Ġdif feren
Ñ Ĥ
ĠS ou
Ġstwier dzono
Ġsyste mem
Ġkore lacja
ĠBer nar
Ġskutku je
ĠM ona
su jÄħc
ĠjÄĻzy kach
ĠwspÃ³l nych
ĠZba daj
cjonal ne
ĠuwaÅ¼ ane
Ġmoty wy
Ġprzebie ga
Ġutrud nia
Ġzare je
ĠPo maga
zu jÄĻ
ĠIn ne
Ġmini ma
Ġuzy ski
Ġdem okra
Ġbrze g
Ġpoet ka
Ġza strze
ĠsiÄĻ ga
ska ch
pie Å¼
ĠÅ¼ o
ĠzaczÄĻ ÅĤy
Ġka ra
praw dopod
ro p
Ġ189 2
ĠrzÄħ dÃ³w
Ġda le
Ġcza sy
Ġfar ma
Ġzmniejsza jÄħc
Ġniecier pliwoÅĽci
Ġbi ur
Ġkonsek went
b en
Ġja va
In ter
Ġprzyjem noÅĽciÄħ
Ġza sÅĤu
ce d
kow skiego
Ġopar tych
Ġstatysty czne
M A
ch ii
pu ter
so ra
ĠJohn son
p matrix
Ġze gar
Ġspra wiajÄħc
ĠPu bli
ro bo
ja z
Ġzna czne
." <|
ĠÅĽrodowis k
Ġpodstaw owy
Ġmie rzy
Ġdoda tnie
ĠBad ania
li wym
ÅĤa mia
Ġbi blio
Ġcho rego
Ġwyd ania
1 000
ĠS ier
Ġszko d
Ġodsta jÄħcych
Ġsen sie
Ġch ÅĤon
Ġmuzy kÄĻ
Ġnieo czeki
ĠzgÅĤa sza
Ġn ow
ĠL w
Ġproje ktami
__ __
ĠzakoÅĦ czenia
ponu j
Ġro le
Ġ3 7
Ġchemi cznych
da s
Ġre zy
Ġposta ciami
h ttp
Ġprac ownik
Ġwiel kÄħ
ĠuÅ¼ywa jÄħ
J u
ĠA B
bo ard
stÄĻpu je
ĠCh ce
Ġkape lu
Ġnie wÅĤaÅĽci
ca go
Ġnau kowe
ĠÅ¼ad nej
Ġfol low
Ġprze no
Ġprzemy ÅĽlenia
Ġpora dy
Ġzaku py
ĠwojewÃ³dz twie
Ġmedycy ny
Ġrumu ÅĦski
! âĢĿ
u me
ĠO fi
Ġryzy kiem
Ġ189 4
Ġznajduje my
Ġpomaga jÄħc
Ġzam ord
ĠJaku b
Ġz nowu
In ne
ĠobsÅĤu guje
r anie
Ġw er
li cy
szy b
ĠU krai
Ġpodejm owaniu
k owanych
z nÄĻ
Ġp Ã³l
du j
gra my
c ted
po niewaÅ¼
Ġwi na
ĠWy obraÅº
Ġmedy cznych
ĠUni ted
Ġz dal
Ġwielokro tnie
Ġludz koÅĽci
ĠkÄħ ta
ĠobowiÄħz ki
stand ard
Ġpra codaw
we en
th a
ran dom
ĠIn forma
Ġsprze daw
ĠEl Å¼bie
ĠÅļwia ta
ja zd
. ).
te ro
Ġsku p
ĠKon stytu
ĠtÄĻtni Äħ
P lan
Ġh u
nu jÄħc
Ġzwro tu
Ġzwo len
Ġpo biera
Ġwy w
ĠÅ¼e la
Ġograni czenie
ro ugh
ĠT at
Ġmog ÅĤo
sa dy
ĠPa ÅĦstw
ĠPre zyd
ĠZmieni ÅĤem
ĠgwaÅĤ tow
P u
ĠV al
Ġmaszyn owe
Ġdynast ii
ĠosiÄħg niÄĻcie
glÄħ dy
Ġwido czne
Ġposzuki wania
Ġporoz mawiaÄĩ
ĠApp le
Å¼ noÅĽÄĩ
Ġza let
ran o
F il
fi x
ĠC esar
wy mi
** ,
Ġkil koma
Ġemocjonal nego
Ġinnowa cyjne
Ġtera peu
Ġs on
ĠW skaÅ¼
Ġli ÅĽci
Ġog rÃ³d
Ġtra sy
Ġobec ny
Ġrad oÅĽÄĩ
Ġdotar cie
ĠPortu ga
io ne
for my
Ġ9 9
Ġga ze
po st
Ġc ien
Ġme cz
lum n
sk owaÄĩ
Ġspecja lnych
ĠuÅ¼y tk
logi czna
ca le
Ġsyste maty
pri me
Ġod waÅ¼
Ġek spozy
Ġ188 9
Ġâī Ī
( ).
ce k
Ġprze szuki
Ġma jÄħce
Ġdzie ÅĤo
ĠAl goryt
ĠZwiÄħz ek
Ġdo rad
mp lo
Ġzach Ã³d
Ġwykry wania
Ġscenari usz
Ġnieruchom oÅĽci
ĠniecierpliwoÅĽci Äħ
" ;
Ġw schÃ³d
Ġ< /
Ġwiel kich
Ġ189 3
ĠWe ne
ĠsÅĤowni ku
Ġdefiniu je
bie j
Ġmi ary
Ġzorganiz owaÄĩ
R I
h tml
Ġ Äħ
ĠU waÅ¼
Ġzach owaniu
Ġuzyska ÅĤ
Ġosie m
Ġaw ary
f re
Ġz loka
}$ .<|
ĠpÅĤaszczy Åºnie
ĠpuÅĤ kownik
Ġop rÃ³cz
Ġla s
ĠFe li
me ga
anie c
Ġpro stego
Ġzasuger owaÄĩ
Ġbe en
Ġgrani cach
j nym
Ġp Ã³j
Ġgrupa mi
ĠA ra
ĠC al
Ġsku pienie
Ġkolo nia
Ġrek ord
Ġby ÅĤem
Ġprac owaÅĤ
Ġszero koÅĽÄĩ
Ġskomplik owanych
Wie l
Ġ5 2
ĠKata rzy
Ġis instance
ĠomÃ³w ie
Ġro ck
owi nie
Ġpodstaw owÄħ
Ġwykre su
u do
er ror
Ġprzy jÄĻcia
Ġopi niÄĻ
Ġpracu je
ch er
ĠpoczÄħ tkowe
Ġlogi czne
ĠAka demii
Ġser wi
Ġwol ny
Ġ189 1
c ane
in s
Ġ4 9
Ġstra Å¼
ĠmiesiÄħ c
Ġelektry czne
Ġprzycho dÃ³w
Ġsmart f
Ġza pisy
ma ÅĤ
ĠD ia
Ġpre dyk
Ġwyja ÅĽni
ĠFe sti
ĠszczÄĻ ÅĽcia
di tional
ĠnastÄĻpu je
Ġtelewizyj ny
rze wa
ĠLe e
ĠUni versi
pass word
ow n
ow skiej
ĠS ej
Ġdz iÄĻkujÄĻ
Ġswoje mu
Ġser cu
Ġzawod owych
Ġpotrzebu jÄħ
Ġdo mem
Ġwy m
ĠH y
Ġse sji
dzo nej
ĠJu Å¼
Ġuzna Äĩ
} ;
dzi ÅĤo
ĠMo gÄĻ
ĠnierÃ³w noÅĽÄĩ
ĠPomo Å¼e
Å «
cze st
Ġbud owanie
Ġzasa dzie
Ġsza cu
Ġp anu
Ġz jedno
kÄħ t
Ġha ÅĤa
Ġu lega
ĠS E
ĠM in
ĠK ol
ĠponiÅ¼ szego
Ġd aÅĤ
Ġnie zna
Ġbu tel
ĠogÃ³l nych
Ġzaprojekt owany
Ġjab ÅĤek
Ġmo dli
Ġme czu
Ġspra wiajÄħ
Ġsy mbol
ĠbÄĻd Äħc
Ġsil ny
Ġpomoc niczy
ĠPow in
ĠTh is
= \
nie Äĩ
ar da
ĠN owej
ĠR ie
ĠPo dziel
rzo nego
Ġdowol nej
Ġra dzenia
ĠZe spÃ³ÅĤ
Ġatrak cji
ĠprÃ³bu je
ow ol
Ġpow strzy
zna w
ĠdotyczÄħ cy
Ġkur s
Ġspostrze Å¼eÅĦ
Ġwynagro dzenie
ĠPart ii
ĠPi ÅĤ
ĠMie czy
Ġdie ty
Ġd ana
re f
ĠH al
Ġno ta
Ġodna le
Ġu mÃ³w
nal ne
Ġ8 00
Ġgrani cÄĻ
Ġpopular nych
Ġuczu Äĩ
Ġsygna ÅĤÃ³w
ĠkrÄħ Å¼
bie g
Ġpodob ny
ic an
Ġzjawi sko
niu sz
Ġoce nie
Ġdro gÄħ
Ġwil go
u ry
wa lne
ĠpeÅĤ no
Ġwido k
Ġogro du
Ġa rab
lo ad
Ġta len
ĠO gÃ³l
Ġtera Åº
ĠP ort
ĠB iaÅĤ
ĠuÅ¼ywa my
Ġo czu
Ġwy bi
prze ciw
Ġno szÄħ
ĠwyÅ¼ szy
Ġosza ÅĤamia
) `
i p
Ġb isku
rzÄĻ sie
ĠMaÅĤ go
g ing
Ġca ÅĤa
Ġh onor
grafi cznych
Ġpromieni owania
Ġpod obie
ĠMon t
Ġnazwi sko
ĠwywoÅĤu je
s Äħd
Ġpo ÅĤudnie
Ġcyfr owych
ĠCon sole
ĠPierw szy
Ġodcin ka
Ġlogary t
si ve
ĠPa ÅĦstwa
Ġmniej szy
Ġzainteres owaÅĦ
stre am
Ġza prze
fi na
ĠÅĽ nia
Ġfi k
ĠÅ¼ ar
Ġpoczu ciem
Ġkomunika t
kan Ã³w
wi c
Ġprzy jÄħÅĤ
ĠwspÃ³l nÄħ
rzo stwa
Ġruch Ã³w
Ġdocel owÄħ
Ġkatastro fie
Ġst wÃ³rz
Ġprogra mie
pe l
du jÄħc
Ġde l
Ġjas noÅĽÄĩ
Ġwykorzysty waÄĩ
ty kÃ³w
ĠP ia
Ġameryka ÅĦskiego
Ġdaw no
Äĩ mi
la j
kie dy
Ġdy scypli
Ġsam obÃ³j
Ġkomunika cja
ĠLou is
st rÃ³j
ĠE cho
Ġmus iaÅĤa
ber ta
naj duje
Ġprezyd en
Ġrecyk lingu
Ġd b
Ġwz gÃ³
Ġchary ta
Ġprze chow
ĠSa int
Ġdal szego
p per
za ÅĤ
Ġ5 6
ĠOd powiedÅº
Ġwarian cji
lar y
Ġsze ÅĽciu
Ġdzieli my
ma j
Ġ\ ):
ĠV II
ĠcaÅĤkowi tego
Ġzespo le
Ġpowodu jÄħc
ĠAmery ce
Ġpokar m
Ñ ģ
Ġpo rzu
Ġst Äħd
Ġsie d
Ġode gra
f li
Ġof f
Ġsze ÅĽcien
Ġeksper tÃ³w
Ġpo nie
te rem
Ġswobo d
Ġinstruk cjami
ty cznie
ge ra
Ġpar k
Ġdia logu
Ġprzebie g
Ġcha o
Ġkontrol owaÄĩ
Ġnieko niecznie
ku la
Ġwielo mi
O W
re ct
ĠWe Åº
Ġwykony waÄĩ
T A
Ġza cznie
Ġroz ciÄħga
liw Äħ
Ġsi ÅĤÄħ
Ġ188 8
Ġoryginal nej
Åļ rednia
Ġosobist ego
Ġs ob
Ġsek wencja
Ġpomiar u
Ġdo prowa
ĠC am
ĠSz koÅĤa
] :
Ġdo me
Ġpowie dziaÅĤa
Ġmarketing owe
Ġo czywi
ta cjÄħ
Ġregu lacji
Ġgrani ca
ĠY o
Ġgodzi nach
ĠNaj wyÅ¼
Ġwykorzyst aniem
ĠzuÅ¼y cie
d t
ÅĤ ko
ĠD ie
Ġsamo gÅĤo
Ġsil nÄħ
ĠÅ» e
ĠKar l
Ġsukce sy
ta rza
ral nym
ĠXI V
ĠBra zy
Ġuprze dzenia
dzo nym
Ġsatysfak cji
Ġwy glÄħd
Ġje sie
ta le
ĠB row
one m
Ġne rek
ĠwewnÄĻtrz ny
re l
ĠposiÅĤ kÃ³w
Ġta bel
ĠU mie
Ġmy ÅĽleÄĩ
ĠksztaÅĤ tu
Two je
ĠÅĤat wy
Ġja my
ĠM el
Ġuz bro
Ġli ne
Ġ3 9
Ġwol no
Ġdal szych
ĠEurope jskiej
Ġszans ÄĻ
Ġs sa
Ġpa da
Ġle wo
ĠzaÅĤo Å¼enie
ĠpotÄĻ gi
Ġpochod na
letnie go
z Äħd
so li
stos owanie
ĠSz wajcar
Ġwyda w
ĠFi lip
sze niem
ĠsÄħ d
Ġter minu
ĠWi to
ĠOrder u
ĠWiÄĻk szoÅĽÄĩ
wi zja
ĠD zi
Ġin wa
Ġroz w
Ġsamodzie lnie
Ġdeko ra
Ġniemie ckich
Ġwektor Ã³w
Ġinspi ru
Ġbudyn kÃ³w
czÄħ cych
ĠangaÅ¼u jÄħcym
Ġtermin Ã³w
me ra
gi Äħ
tyw na
ĠTa y
ĠgÄĻ stoÅĽci
Ġcharak terze
$ .<|
ar nych
ĠA ni
Ġnaj wy
a x
ri o
Ġteat ralny
ĠWyko rzystaj
t j
Ġstro nach
Ġnie typ
Ġg rz
Ġnadzie i
ĠkrÃ³le stwa
Ġna peÅĤ
Ġdo mi
Ġin tro
Ġwyso kÄħ
Ġzy sk
ĠEm ma
Ġp lu
ĠC an
ska mi
Ġit d
Ġo ciep
Ġh od
Ġwiel kiego
Ġstandard owego
Ġprzemy ÅĽl
java script
Ġko or
Ġnaj niÅ¼
czu cia
Ġth an
ĠBar ba
ow skie
Ġod cie
Ġregu ÅĤy
Ġpowszech nych
pus h
o koÅĤo
cy na
Ġfi gu
Ġwykorzy sta
ĠzÅĤo ta
ĠpÄĻ che
Ġinteresu jÄħce
Ġarchite ktury
zy wa
ĠT am
Ġh ttps
ent s
Ġrze kÅĤa
Ġnap rzÃ³d
Ġwi tami
Ġinnowa cyjnych
= '
B A
ĠW ir
Ġe mery
iu sza
Ġok na
ĠwywoÅĤa Äĩ
Ġboga ty
Ġrezer wa
ĠâĢ ĺ
ĠS cho
Ġla mp
Ġpy sz
Ġwyso kich
Ġtu Å¼
ĠwaÅ¼ na
Ġartyku ÅĤÃ³w
Ġwska zaÄĩ
ĠuwaÅ¼ any
Ġi dÄħ
en sy
Ġprzygot owany
Ġmiastecz ko
Ġdziennik arka
Ġzrozum ia
Å¼y ÅĤa
th an
Ġzd jÄĻÄĩ
ĠZa m
ĠÅº le
ĠkrÃ³l owa
ĠGre en
szo nego
A PI
Ġna mi
ob j
ĠczÅĤowie kiem
ta i
Ġlo t
ĠwyraÅº ne
spe kt
Ġutw orÃ³w
Uro dzeni
Ġmo nety
Ġzie mia
Ġâī ¡
Ġpublika cji
Ġarte fa
la tion
Ġprzy jÄħÄĩ
Ġze braÄĩ
Ġwal ce
ĠzachÄĻ ciÄĩ
R P
Ġwy k
Ġby ÅĽ
ĠPrze j
Ġwynosi ÅĤa
RO M
Ġska z
Ġsek su
Ġprzygot owy
Ġwier szy
wiel bia
h r
Ġinter punk
Ġrekla m
h ttps
Ġw rÄĻ
sz ono
czy sz
Ġin cyd
ĠPo t
hi te
Ġisto cie
Ġnatu ra
Pod staw
ĠWe st
Ġo zd
Ġko cha
Ġroz rÃ³Å¼
ĠSt any
Ġczytel nikom
ĠwewnÄĻtrz nego
ĠKrzy Å¼
Ġzasoba mi
Ġna gra
wi anie
no ni
ĠA da
ĠR ed
ĠniezaleÅ¼ nych
Ġzdrowo tne
Ġkonsu mentÃ³w
Ġch wy
Ġal pe
Ġma lar
Ġsta li
Ġba ck
Ġspraw dzenia
ĠpÃ³ÅĤnoc nej
Ġnik t
ĠG al
Ġpolity czny
ĠPro jekt
Ġpowsta je
Ġprzedmio tu
Ġorganiza cjÄĻ
Ġgramaty ki
Ġwyprze dzeniem
s na
s al
Ġza rabia
ard io
ĠPrzy kÅĤady
Ġtest owania
Ġinflu ence
le ct
Ġa ge
sa d
cho dzÄħc
ĠukÅĤad Ã³w
ĠmyÅĽl Äħ
ter n
Ġartyku ÅĤy
Ġkreatyw noÅĽÄĩ
ĠJ ÄĻzy
ĠN ar
Ġle sie
Ġni szczy
Ġodkry waÄĩ
E n
} -
ĠS co
fry ka
G dzie
Ġmie rze
Ġrz ut
Ġpo braÄĩ
Ġr owe
Ġpa tri
Ġopie ku
Ġzre dukowaÄĩ
Ġzda je
Ġemocjonal ny
ĠdruÅ¼y ny
he d
ĠnajwiÄĻk szym
ĠNarod Ã³w
Ġmarketing owych
Ġapo sto
ĠbuÅĤgar ski
e qui
Ġo cze
ĠPo zna
Ġpozosta jÄħ
Ġrzeczywist ej
I le
cj usz
ĠOd powie
Te st
Ġnor my
o logii
Ġnaj dÅĤuÅ¼
nio nego
Ġid io
Ġs ing
ĠPo le
Ġpsych ia
++ )
Ġtle nu
Ġwarst wÄĻ
i ss
Ġin klu
ktor Ã³w
ĠPra wo
h at
ĠnapÄĻ dza
Ã³ rze
ĠA po
al th
ĠwspÃ³ÅĤczyn niki
rz od
fi i
Ġprowa dzenie
ĠTe le
Ġâī ¥
ĠzÄĻ ba
z in
Ġdo sta
Ġnie roz
Ġsta ÅĤych
Ġinternet owa
Ġprawa ch
Ġdziew czy
Å¼ nych
ri Äħ
cho ice
Ġmagi czne
Ar ray
ĠczÄĻstot liwoÅĽÄĩ
Ġserb ski
Ġsta ÅĤej
Ġeko sy
ww w
re j
and ii
spo m
Ġinforma cjami
Ġpotrzeb nych
Ġtajemni ce
Ġjapo ÅĦska
ĠEu ge
Ġoryginal ny
ĠOtrzy masz
d ÅĤem
z ar
ow ujÄħ
Ġnie ujem
ĠT em
ĠB ÄĻd
rzÄħ dzanie
sz ty
Ġprzy g
Ġ$ {
UÅ¼y waj
ĠpeÅĤ en
Ġran dom
Ġtowarzy szÄħ
g owanie
Ġprze chodzÄħ
Ġma ÅĤego
Ġga zu
Ġso jusz
Ġfo od
Ġpapie Å¼
Ġpowia tu
v Ã¡
Ġnaj popular
ĠNa tional
A I
Ġgo spo
Ġsztu cznÄħ
Ġwyd ÅĤu
cal culate
Ġsma ku
Ġmonitor owanie
ĠpomysÅĤa mi
ĠsÅĤowa cki
Ġpo stÄĻ
Ġspe kt
ĠMi cro
ĠksztaÅĤ cie
Ġprze wodnik
lo p
Ġaktuali zacji
Ġrewolu cji
si ÅĤa
Ġprofesjonal nym
prawie d
s ny
Ġin du
ĠK an
ĠuÅ¼y wanych
Ġar ray
czes ne
Ġzam ku
ye ar
Ġtelef onu
Ġodd ych
Ġterro ry
l nia
ni onych
sta mi
Ġnie jedno
szy ÅĤa
ĠPa wÅĤa
ĠLe on
Ġide a
niÄĻ tych
ĠprÃ³b ek
Ġinterfej s
ĠusÅĤy szeÄĩ
czy my
Ġgene ruje
0 2
ĠMa c
Ġgra f
sia ch
ĠprostokÄħ ta
Ġzat wier
Ġotw arto
Ġglu ko
u g
ne lu
czki ni
Ġportuga lski
q l
Ġklu cze
Ġsie dem
zie m
Ġha sÅĤa
duka cja
s kryp
ra m
Ġmo cz
ĠLe onar
Ġzapo trzeb
Ġewolu cji
ci na
Ġu raz
Ġskute cz
ĠAl bert
Cza s
r d
Ġpa to
so ft
dzia ÅĤek
ĠRzy mie
) $.
ty ce
Ġnie powo
Ġg ÅĤu
end l
Ġad woka
ĠIz ra
Ġpo tom
Ġwy padku
Ġwido ki
Ġdat ÄĻ
ĠodÅ¼yw czych
szcz ony
Ġlep szÄħ
Ġprzyt ÅĤo
Ġspersonaliz owane
Cie szÄĻ
ÅĤo Å¼enie
Ġlo go
ĠjÄĻzy ko
Ġcie szyÄĩ
file name
Ġdocho dÃ³w
Ġautomaty cznie
Ġtrenin gu
Ġb Ã³j
Ġdo cenia
niesie nie
w ery
bi ÅĤ
ĠÅĤa go
Ġgu z
Ġgene ru
rozumie nia
Ġinstytu cji
Ġklasz tor
Ġwielomi anu
ĠM us
ĠPo sia
dÅº wie
ĠV an
Ġpunk tach
Ġwybu chu
Ġosobisty m
t owane
Ġre nt
th ing
ĠdostÄĻp noÅĽci
Ġ188 7
text bf
ĠHar ry
ĠdÅĤugotermin owe
Ġpod d
Ġpa kie
Ġv ery
Ġstosu jÄħc
Ġdoskona ÅĤym
Ġu mowy
ĠB ezpie
ĠD el
ona ry
}} ,
ĠV III
ÅĽla ÅĤem
noszÄħ c
Ġcharaktery styczne
Ġuzysk anie
Ġcal culate
Ġant ropo
ĠDem okra
g by
Ġna tk
ĠB ill
il ka
Ġwspom nia
Ġkarie rze
Ġsamopo czucie
Ġzar ezer
la cjÄħ
ur s
ÅĤoÅ¼ ono
Ġwykon ane
Ġbada cze
Ġwyka zuje
Ġra my
ĠÅ¼y we
Ġdoda wania
che mi
Ġho me
Ġpoko naÄĩ
Prze z
Ġkonkuren cji
Ġfanta sy
Ġmo nar
ĠS he
Ġpew noÅĽci
Ã© j
ĠwÅĤaÅĽciw oÅĽÄĩ
Ġreprezentu jÄħ
ĠWin dows
Ġol brzy
a ktyw
Ġprze szcze
Ġdziedzi ctwa
Ġekonomi czne
ĠspoÅĤecze ÅĦstwie
ĠWydaw nictwo
F ran
Ġna gro
Ġdo uble
gu age
Ġelektry cznych
ĠprzedsiÄĻbior stwa
Ġpapie Å¼a
Ġt rz
ĠMo del
mia ÅĤo
ĠOr derem
Ġinteresu je
ĠBad anie
Ġsprinter ka
ĠzÅĤago dziÄĩ
e ta
ier ane
su d
Ġal terna
Ġne tto
Ġzawod owego
Ġgre cki
syn te
F alse
Ġistnie jÄħce
ĠB li
Ġmini mali
Å¼ aÅĤ
wiÄħ zujÄħc
Ġprzyczy niajÄħ
Ġszki c
w scho
Ġp t
ar na
ĠrÃ³w nÄħ
Ġju do
ĠumoÅ¼li wiÄĩ
Ġswobo dnie
d x
to maty
Ġma gia
ĠgÅĤÄĻbo kiego
ĠogÅĤo siÅĤ
ĠprÄħ du
ĠOd kry
ĠD ra
do ra
ĠMa jÄħc
Ã³Åº niej
ĠkawaÅĤ kÃ³w
le ran
ob by
Ġplan Ã³w
ĠmiesiÄħ cach
ĠzasiÄĻ g
ĠD an
ĠRysz ard
ÅĤ ani
re r
Ġwy gra
ĠCh ina
Ġha sh
Ġfabu ÅĤÄĻ
ĠPorÃ³w naj
Ġo po
Ġk wi
ĠZa czyna
Ġfir mom
Ġ188 2
ĠAustra lii
ce do
pie niu
ju sza
Ġpie kar
ĠwspÃ³l nej
Ġbada cz
Ġgu ber
Ġjed noÅĽci
Ġpodstaw owej
ĠwewnÄĻtrz nej
Ġam bi
ĠPraw dopod
ni ana
ÅĤo Å¼yÄĩ
ĠÅĽ wi
oru jÄħc
k ano
nie go
Ġsp ÅĤa
ich a
Ġstwo rzeniu
Ġuwa dze
pri ce
Ġdo ra
Ġu pad
la mbda
Ġprze twarza
de mia
ĠÅºrÃ³d ÅĤ
ĠmiÄĻ sa
ĠangaÅ¼u jÄħcy
Ġwykorzyst ane
Ġsiedzi bÄħ
l dots
s lant
nieÅ¼ d
tÃ³ r
Ġre publi
Ġisto ty
Ġdoku mentÃ³w
t ta
Ġt len
ĠW it
Ġob ron
Ġog lÄħ
Ġwszyst kimi
ĠuwaÅ¼ am
Ġstoli cy
W nio
i ÅĽcie
on oÅĽÄĩ
Ġzdo bywa
kom Ã³r
ĠzamÃ³wie nia
vali d
ĠThomp son
L P
rz onych
Ġniemie ckiej
ĠÅĤÄħ cznÄħ
dz onÄħ
ci ÅĤy
ĠI D
kre ÅĽla
Ġodpowiedzia lny
Ġzaba w
D ob
ĠCh in
legÅĤ oÅĽÄĩ
Ġ188 5
li m
Ġro ot
Ġosob om
Ġoczeki waÅĦ
ĠCie szÄĻ
S ÅĤ
Ġpo kre
Ġzmie rzyÄĩ
Ġnapo tyka
le ry
Ġroz mie
âĢĿ ).
ĠporÃ³wn anie
Ġdra maty
Ġspotka ÅĦ
ĠMak sy
W ar
t xt
ĠW tedy
ĠA g
Ġaby ÅĽmy
ĠWy mieÅĦ
Ġniemie ckie
ÅĤon kowie
Ch cÄĻ
+ \
Ġb ory
Ġprze szedÅĤ
Ġg am
Ġta kty
Ġwra Å¼li
Ġbia ÅĤe
ĠWÅĤo ch
ĠChi cago
Ġnawiga cji
i ck
Ġt ho
be ra
Ġpoko lenia
ĠrzÄħ dy
ĠspÃ³j noÅĽci
Ġstabil noÅĽÄĩ
ĠBla ck
s owych
pa Äĩ
uro pe
Ġpoprze dniego
Ġzapa miÄĻ
ĠciÄħg ÅĤe
Ġpapie ru
ĠnawiÄħ zaÄĩ
Ġsre br
c reate
t no
Ġu padku
Ġwie rzy
ĠG il
ks jo
Ġfrag menty
Ġf er
ĠI za
Ġszko leni
ĠÅĽle dzenie
Ġbiega czka
Ġudowodni Äĩ
Ġszklan ki
i gh
ch el
Ġu wol
me l
gie ÅĤ
Ġisto tna
Ġplatfor mÄĻ
za cho
Ġdrew na
Ġg er
Ġli p
ĠH or
Ġsk rÄĻ
Ġpara fia
Ġpozio mÃ³w
ĠP amiÄĻ
Ġroz e
sku te
Ġzau waÅ¼a
Ġla pto
rza mi
ĠAfry ki
Ġodci nek
fi zy
liz owany
ĠPa le
Ġpochod nÄħ
Ġsklasy fikowaÄĩ
k war
Ġza mian
Ġcy ber
Ġl on
9 3
ĠZa ch
wany m
Ġmodel ka
u b
Ġza sko
u st
ok rÄħg
Ġchorwa cki
Ġza ak
one s
Ġpacjen t
p su
ĠJe Å¼eli
Ġfa le
gna cji
Ġ188 6
gdy ÅĽ
Ġindywidu alne
je w
ĠWÅĤo dzi
ĠImp erium
ni czych
ory zon
Ġwszyst kiego
kon stru
Ġinstru kcje
vec tor
wa it
Ġmo le
mo cy
ĠumiejÄĻ t
ĠwÄħ tkÃ³w
bur ga
Ġrek or
ĠwspÃ³ÅĤrzÄĻd ne
equi v
Ġma py
Ġch cie
Ġlicz nych
fe ktyw
ĠÅĽwie tnie
Ġpowo ÅĤ
Ġodpor noÅĽÄĩ
Ġs chro
Ġi ko
Ġo czach
Ġli cencji
ĠmoÅ¼liwoÅĽci Äħ
Ġcent Ã³w
ĠMa y
ĠMa ciej
Ġrolni ctwa
Ð¾ Ð
Ġwy je
Ġpolega Äĩ
ow ro
on ÄĻ
Ġtra u
Ġpis ar
Ġkolum n
Ġnaczy ÅĦ
m l
ow ny
Ġje zu
Ġprze jÄĻ
ri ck
ĠE ner
Ġumy sÅĤu
ĠOp rÃ³cz
u jÄħcy
Ġa ud
la v
Ġnaj wiÄĻcej
ĠMar cin
Ġ14 0
Ġtema tem
S C
je st
Ġza staje
Ġwy danie
Ġre Å¼
ĠG ri
Ġsk ÅĤo
Ġza prasza
Ġprzed ÅĤu
Ġsk ra
ĠKo lum
Ġbra t
Ġszyb ciej
moÅ¼li wia
Å¼o nego
ĠkÄħ tÃ³w
Ġprywa tnym
ĠwdziÄĻ czny
ĠuÅĽmie ch
or fi
me go
Ġko ali
ĠK im
Ġtek sty
Ġdwu dzie
Ġszuka sz
Ġfili Å¼
9 4
re am
go no
ĠK ru
wiÄĻ Äĩ
Ġtrans mi
Ġir landzki
Ġdocze kaÄĩ
Ġrela cja
Ġpojem noÅĽci
j nÄħ
n ka
Ġpu ÅĤa
Ġwyso kiego
Ġtrans fer
Ġhipote za
ĠwystÄĻp owania
ĠOs oba
ĠtysiÄħ ce
Ġznalezio ny
ĠprzynaleÅ¼ noÅĽci
) ^{
l any
} (
Ġpo gody
ĠV in
Ġosob iÅĽcie
Ġpodzie m
c d
ĠamerykaÅĦski ch
Ġse para
zn aniu
Ġbli Å¼ej
Ġblo ck
Ġsma k
Ã ±
ĠW reszcie
tk owa
ĠPola kÃ³w
t owanie
cz ce
Ġnie re
ĠA dolf
Ġon ly
Ġkomp romi
Ġ188 4
ĠMie szka
Ġuchwy ciÄĩ
s jÄħ
Ġw ork
sz onÄħ
ma cji
Ġjedno zna
Ġszcze pi
ĠnastÄĻp ny
Ġstabil noÅĽci
Ġbudy nek
Ġt rzÄĻsie
ĠTa kie
ĠpÅĤy t
ma tÃ³w
ku jÄħce
Za implementuj
Ġusu wa
Ġrady ka
ta cyjne
Ġby cie
Ġme tra
ĠX III
Ġfil mie
Ġwia domo
da cja
ĠV ic
tr waÅĤ
ĠosiÄħg nie
list ka
ĠPrze my
Ġjednost kÄĻ
Ġgospodar czy
Ġmark down
Ġeli p
Ġrozum owania
Ġniespo dzie
dzie m
Ġpa trzy
Ġpole cenia
wz iÄĻ
Ġhipote z
ch en
Ġlekarz a
ĠobciÄħ Å¼enia
For mat
ĠI stniejÄħ
ĠMar ii
Ġkonkre tnym
op h
Ġkryty czne
Ġdoku menty
Ġczytelnik owi
P owie
Ġg ard
Ġkontynu a
sty cznie
cho dziÄĩ
cho sÅĤowa
ĠRa da
cz aniu
Ġkwa s
ĠKaro la
I C
l Äħc
Ġ" ))
Ġczas ownika
Ġwia tru
Ġstar tu
Ġlini owe
wi ca
Ġak cept
Ġwal k
ĠâĪ «
Ġstre fy
Ġsez onie
Ġ chan
Wy generuj
pi na
Ġsta ÅĤym
Ġpomo gÄĻ
ĠprzeksztaÅĤ cania
ĠmoÅ¼ liwy
Ġwprowa dzaÄĩ
Ġoba w
ĠPier re
Ġnieprzewi dy
f aÅĤ
Ġ1 10
Å¼y my
Ġh ra
ĠgÅĤÃ³w na
ĠkrÃ³ lem
Ġsub telne
Ġusu wania
Ġcyfr owe
ĠdÅĤugi ch
Ġodzy ska
ĠP ani
Ġzmien noÅĽÄĩ
ĠrÃ³Å¼norod nych
Ġharmo ni
Ġwirtual nej
t oÅĽÄĩ
mina cjÄĻ
Ġrek ru
S A
b ez
li ÄĻ
Ġloka lnym
czyn ku
ĠpeÅĤ nÄħ
Ġdostos owania
ĠPow sta
ĠDob rze
Ġimmersyj ne
Ġk ÅĤo
Ġlogi ki
Ġmili ona
przy ro
Ġczte ro
Ġszac unku
Ã º
ĠO tto
ĠSt ru
owis ko
if y
mu la
ĠPo lity
Ġle tni
ĠdÅĤu Å¼ej
ĠrÄĻ ko
Ġchemi czne
ĠZosta ÅĤ
) \
/ (
Ġw g
dz aÅĤ
ĠÅ¼y Äĩ
at s
Ġgru b
Ġskute czny
ĠczÅĤon kami
ĠstaroÅ¼y tnej
Ġwdro Å¼enie
i g
ie d
ÅĽ rod
Ġgru n
Ġdecy zyj
Ġreprezenta cjÄĻ
Ġpowia do
se udo
Ġlo dÃ³w
Ġog lÄħd
Ġkry teria
Ġzagro Å¼enie
Ġwyko na
ĠspÄĻ dza
cz nika
ĠA C
Ġpoe ty
ĠobsÅĤu Å¼yÄĩ
Ġbadaw czego
Ġu sed
ĠA N
pa ir
ĠPre miera
ĠO j
rzÄħ dek
Ġar ku
Ġzmienia jÄħ
s ha
Ġza kaz
ĠW ia
** **
## #
wali fik
Ġzapobie ga
Ġpojaz du
S O
S arah
e mail
Ġz mart
stÄĻpu jÄħc
Ġwar stwa
20 22
Ġstra sz
Ġmniej szÄħ
ex cept
Ġwarzy wa
ĠMieczy sÅĤaw
na czyni
ĠciÄħ gi
ĠWie lkopol
Ġ187 9
ĠSp ÄĻ
Ġszy fr
ĠpoÅĤudni owej
Ġwyzwania mi
ĠÅ¼o ÅĤÄħd
Ġpro si
ĠB it
ĠZ danie
Ġpa ÅĤa
ĠL an
ĠV o
ĠÅĽwie tle
Ġsty le
Ġnajlep szym
Ġa zo
ko rea
Ġprzy god
ĠWy d
Ġfa zy
Ġpis aÄĩ
ĠdokÅĤad noÅĽci
Ġstar ego
Ġkod owania
Ġtor pe
Ġar gs
Ġniepo trzeb
Ġzacho dniej
ĠHenry ka
ĠJ im
Ġroz gry
sza j
ĠFran cu
Ġska lÄĻ
Ġwol noÅĽÄĩ
Ġide e
string s
Ġformal ny
wi ony
ĠÅ¼ Äħ
Ġlep szej
Ġmor skich
ÃŃ a
Ġuzn ania
cha j
Ġwiel kiej
Ġidenty fikowaÄĩ
Ġnadz or
f an
Ġwy stawi
Ġcz ujÄħ
kwa drat
Ġchy ba
Ġniesp Ã³j
Ġdu szy
ĠV R
Ġcza ro
ĠUÅ¼y tkownik
Ġ188 1
Ġporu cznik
Ġklarow noÅĽci
iz ol
R Ã³Å¼
k l
Ġpo kÅĤadzie
Ġbo tani
ĠniepodlegÅĤ oÅĽÄĩ
Ġkosmo su
Ġw here
nie r
Ġwy eli
k y
Ġwy dzie
Ġre duk
Ġsta le
ad er
Ġszko cki
Ġizo lacji
Ġu stanowie
lo tu
sto ne
kÄħ ta
h ard
Ġs os
mi no
Ġmater ii
ĠzaczÄĻ li
Ġsekwen cjÄĻ
Ġ ÅĤÃ³Å¼
Ġwy pu
Ġwy bud
tu res
ĠE i
czo raj
Ġskute cznego
le ci
ĠzrÃ³wnowa Å¼onych
Ġinterak cjÄĻ
Ġtelef on
ĠÃ³w czes
P orÃ³w
na ry
Ġpo sie
Ġu bÃ³
Ġdu cha
ĠbiaÅĤ oru
ĠNor we
sta bil
ko mo
Ġfrag mentu
Ġna szymi
Ġmu zuÅĤ
qu are
ĠpotÄĻ g
ĠRÃ³w nieÅ¼
lo zo
Ġre d
ĠI N
ran sa
Ġkana ÅĤu
ĠÎ ¼
b ÅĤon
ĠT rans
Ġpod anym
Ġwiel kim
Ġopar ta
Ġatrak cje
Ġnajnow sze
ĠWÄĻ gier
l owe
m ary
o ÅĤy
Ġs pada
ĠJe rozo
Ġsk an
Ġru gby
ĠrÄĻ ka
Ġprom owanie
ĠFil m
Ġnego cja
b ow
Ġde bu
ĠbÅĤÄĻ dzie
E k
ty no
ĠS kup
Ġotrzy maÄĩ
Ġharmonogra mu
Ġza jÄħÅĤ
Ġu to
Ġra miona
Ġprzestrze nie
che ck
Ġen zy
Ġwykre sÃ³w
t wem
so urce
ĠUÅ¼y wa
ĠSzwe cji
Ġza rzu
ist e
legÅĤ oÅĽci
Ġwysy ÅĤa
rid ge
k owana
Ġwy le
Ġpa tro
Ġpowie dz
Ġpew nej
Ġwarszta ty
Ġbet ween
c cy
Ã³ ki
dz en
ty cznymi
Ġg nia
Ġop oru
Ġsztu ce
Ġpoczu Äĩ
Ġtow arÃ³w
ĠFour iera
U LL
d frac
Ġu ko
Ġwie czorem
wolu cjoni
Write Line
o ÅĤÃ³w
ka li
Ġwy Å¼ej
Ġsta wÃ³w
ĠZa koÅĦ
ĠJa vie
Ġrzeczywist oÅĽciÄħ
ĠSu ger
Ġend o
i zm
fi c
ga in
ĠD ow
tyw ny
Wy odrÄĻb
ĠwiÄĻk szym
ci ng
Ġprzyja zny
Ġzatru dni
ĠsÄĻ dzia
Ġska lar
Ġeduka cjÄĻ
ĠÅ¼yw ych
O P
Ġnie standard
ĠB ir
ĠÅĽwiat owa
Va lue
li on
ĠW er
Ġ5 4
Ġpre ze
Ġanty bio
ĠobowiÄħz kÃ³w
Ġkomuni styczny
Ġnieustan nie
Ġt we
nio nej
ĠzaangaÅ¼ owaÄĩ
Ġmodu lar
Ġprywa tne
Mia sta
ĠZde finiuj
Ġu tk
ĠW ÅĽrÃ³d
ĠS im
Ġma th
Ġude rza
ĠuzupeÅĤ nia
Ġczwar tek
| -
Ġco uld
ĠÂ ±
gÅĤÄĻ b
t te
w skiej
Ġin do
Ġczy ta
ĠF la
rowa ÅĤ
it le
Ġkar ierÄĻ
ĠJoh ann
ĠGa br
Ġregular nych
ĠprzedsiÄĻ wziÄĻ
Ġprzyro dni
Ġmagazy n
( $
O T
Ġ( )
ĠznaczÄħ cÄħ
Ġspecja lnie
Ġutwo rzono
og rani
Ġuzna je
ĠLin ked
c enty
re y
Ġspo rzÄħ
ĠDo m
Ġoce anu
ĠAl b
Ġpopra wie
Ġ188 3
Ġwarzy w
ie ÅĦ
la jÄħ
ĠF u
Ġelektry cznej
Ġgrupa ch
ĠduÅ¼e go
Ġniewy do
ĠKul tury
Ġmusie li
Ġkli mat
Ġbiznes owych
Ġspecyfi czne
Ġzapropon owaÄĩ
C om
Ġin su
Ġe go
ani na
ur t
sza Äĩ
ĠsÅĤ ownikÃ³w
ĠPol skich
Ġzmien no
Ġszyb kiego
Ġser iÄĻ
Ġpodstaw owym
ĠGa u
ĠponiÅ¼ szy
Ġminu ty
ĠMikoÅĤa j
Ġizrael ski
ĠJez usa
w oÅĽÄĩ
ĠÅĽwie Å¼e
Ġaplika cje
Ġkole k
ĠSpo ÅĤe
Ġo ma
Ġe ach
ga ra
el low
Ġpier siach
Ġstatysty cznie
ĠAmer ican
ĠON Z
Ġpo jÄĻÄĩ
to tal
Ġma y
Ġni sko
Ġgodzi nie
Ġkultur owych
Ġdynami ki
Ġlos owych
Ġfrancus kiego
Ġelektro mag
Ġszer szej
Ġrzad ko
qu al
Ġutrzy muje
ĠlÄĻ k
ĠGrzego rz
rzy ÅĤo
ĠCh ÄĻtnie
Ġter miny
ĠHe in
ĠWÅĤady sÅĤawa
ĠAfry ce
ĠSztu ki
M P
ĠM et
js cy
ks em
szcz ania
Ġopie kÄĻ
Ġpierwia stka
Ġkonstru k
Ġpropozy cji
Ġbry gady
S V
k nÄħÅĤ
Ġargum enta
Ġoszac owania
0 6
Å¼ ar
Ġza spoko
Ġnie wie
Ġf alse
do stÄĻp
Ġintegra cji
Ġmanipu lacji
ĠKla sa
G B
th is
Ġil oÅĽciÄħ
Ġpli ki
Fi le
Ġdo Å¼y
wo lne
un kiem
Ġwa gÄĻ
Ġpis ma
Ġ188 0
Ġwra Å¼enia
ĠEu lera
Ġbile tÃ³w
P ri
Ġp rÃ³Å¼
Ġb r
gi on
Ġze stawie
ba t
Ġwprowa dziÅĤ
ĠOd wie
Ġteren u
Ġprze cie
Ġba zÄĻ
qu es
Ġoprac owania
Ġusu niÄĻcie
me j
ĠN um
Ġmle ka
) }\
: <|
Ġka ja
Ġdzie ciÄĻ
ĠspoÅĤe cznÄħ
ĠÅĤÄħ czna
Ġzdecyd owaÄĩ
ĠzaoszczÄĻ dziÄĩ
D i
ci ÅĤo
ku jÄħcych
Ġpow st
ĠNa pole
Ġ4 4
ĠÅ¼y ÅĤ
ĠWÅĤa ÅĽci
Ġe uklides
ste d
ĠniÅ¼ sze
ph y
Ġczar no
ĠwystÄĻp owaÄĩ
ĠÅļwia t
Ġjezio ra
Ġkomunik owaÄĩ
ĠM ur
Ġpod no
Ġprzed stawienie
Ġzaw artoÅĽci
Ġpotrzebu jÄĻ
Ġodw raca
Ġlos owo
Ġodpowia daÄĩ
c or
cha in
ĠgÅĤÄĻ biej
ĠprzeksztaÅĤ cenie
Ġwizy ty
ĠEk sp
Ġkawi arni
t kach
t zw
io us
Ġbo ol
Ġzach owuje
ĠY a
Ġgospodar czego
Ġkana ÅĤÃ³w
Ġznalaz ÅĤa
U pro
Ġte am
Ġin na
Ġczas ownik
Ġzwro ty
C y
Ġm em
Ġpod jÄĻcia
se nek
sz ÅĤy
Ġko szta
Ġgo od
Ġnad ciÅĽnie
ĠpeÅĤ na
Ġwycie czki
Ġoku pa
ĠksiÄĻÅ¼y c
fi g
ĠB C
gi czne
mo l
Ġkon dy
ar gs
ĠS ÅĤa
Ġre s
et ing
Ġpew nÄħ
Ġrzeczywist oÅĽÄĩ
D r
G ru
Ġkom er
Ġrodzi ce
Ġopowia danie
w oÅĽci
Ġsz um
ĠI X
ĠG r
ĠRa pid
Ġkomu niku
Ġotrzyma ÅĤa
ĠwysiÅĤ ki
Ġupa miÄĻ
Ġpod anie
Ġtwo imi
Ġzw any
Ġprzeciw cia
Ġprzyja ciele
ĠtÄĻtni cy
Ġnaprawi Äĩ
9 1
f ru
Ġro czni
ĠF ra
bie ga
nio nym
Ġho telu
Ġnatural nie
ĠNaj pierw
K od
P ar
ko mp
Ġre aliz
ĠB re
Ġpoz or
Ġopera tora
Ġpart ne
Ġtor bie
Ġpostrze gaÄĩ
Ġzdefini owaÄĩ
Ġucz ci
Ġwy graÅĤ
sÅĤ owia
Ġtrze cie
sku tek
Ġnap ÄĻd
Ġwiarygod noÅĽÄĩ
cjona r
Ġcuk ru
ĠÅĽla d
T ime
Ġod ro
Ġh ow
Ġce lach
Ġla sy
Ġreak cje
ĠCze ch
Ġata k
ĠurzÄĻd nik
ĠprzeÅĤÄħcz nik
ni sz
Ġroz sÄħd
ĠF ar
Ġstud enci
Ġmito logii
2 000
Ġ rzÄĻ
Ġu czÄĻ
ry s
Ġh obby
Ġwi ny
Ġdru kar
Ġzg in
Ġtwier dzi
Ġkanady jska
ta lent
Ġpa lindro
stÄħ pienie
Ġrzeczywi stego
Ġtrud nych
Ġps Ã³w
Ġdostos owanie
Ġ186 3
Ġruch em
Ġkwest ie
Ġdziew czyn
t owania
Ġdz iu
Ġspo koju
Ġog ieÅĦ
Ġo le
li ÅĦski
ĠZ groma
tk owy
ĠksiÄħÅ¼ ka
Ġmaksymal na
ĠAlf red
Ġz obraz
ĠNa tomiast
be la
ĠjÄħ dra
ĠpeÅĤ nego
ĠSe na
Ġdaw ki
ĠgÄĻ stoÅĽÄĩ
Ġrach unku
Ġrekomenda cje
C ha
Ġb ul
ĠO krÄĻ
kÅĤa daÄĩ
Ġfi tness
Ġzespo lonej
Ġpozy ski
Ġstud en
ĠUniversi ty
ce niem
Ġan kiety
ÅĽwia do
Ġsek cje
Ġmini mum
ĠmÃ³wi ÅĤ
Ġaktuali zacje
me ta
Ġod pady
ĠB aÅĤ
ory s
ĠciÄħ giem
ĠCar l
l onÄħ
Ġle t
Ġwa p
ĠAr th
Ġfra za
ĠprzeksztaÅĤ cenia
Ġcodzien nego
Ġinteraktyw nych
dom oÅĽci
Ġucze lni
ĠgÃ³r nej
Ġczaso pis
nos praw
Ġ ÄĻ
ÅĤ oÅĽ
Ġpo daj
is ka
Ġbo o
Ġinter wencji
Ġkonsek wencja
Ġcodzien nych
Ġzain spir
Ġwy two
Ġnie m
ĠT wierdzenie
ĠRo y
Ġsyste mami
Ġuro k
ĠInter net
Ġniedaw no
Ġf ron
zy st
ĠG io
bie go
Ġwz orÃ³w
Ġobli czenie
Ġproduk cja
6 00
p in
ÅĽ niu
ĠS hi
Ġposia dÅĤ
d aniu
ĠW raz
ĠÅ¼ ony
Ġry by
Ġoprac owanie
Ġoryginal ne
ĠÅĽwiadom ych
Ġniezn anej
Ġu leg
Ġstwier dziÄĩ
Ġpio senek
ĠSp ort
ĠwÅĤÃ³ k
ĠIgna cy
an iÄĻ
wie c
Ġprzygot owanie
Pra w
ĠÏ Ĩ
Ġdete ktyw
Ġwst rzÄħ
prawdopod ob
Ġprzy je
Ġprzyja Åºni
Ġmiastecz ku
M I
i la
Ġje lita
ĠcaÅĤkowi tymi
Ġograni czony
ĠumiejÄĻ tnoÅĽÄĩ
wolne lektury
" {
ka jÄħ
ry k
ĠR zÄħd
Ġpotencja ÅĤu
Ġtempera turze
Ġzag nieÅ¼d
ĠPart ia
Ġtk anek
Ġw ino
mo del
pi ÅĤ
io na
ĠwyjÄħ tki
Ġlogi cznych
Ġblo gu
ĠwzglÄĻd nie
Ġprze je
ĠN et
ĠD on
ĠMo nitor
Ġ6 8
ĠX II
ĠosiÄħg niÄĻÄĩ
Ġnowo rod
ĠzakoÅĦ czyÅĤa
Ġemi gra
Ġrecyk ling
Ġsho uld
$ \
Ġw tÃ³r
Ġpo cie
ĠJ er
Ġh oryzon
Ġfunk cjami
ĠV ir
Ġjas nych
kuje my
Ġsymbo lem
Ġkwo ty
Ġle kar
Ġnad przyro
ĠLu bli
bur gu
Ge o
ĠbiaÅĤoru ski
ĠJ ork
wy ciÄĻ
ĠH il
Ġlep szego
Ġprezenta cjÄĻ
Ġrozwij anie
Ġwidzi sz
Ġye ar
b ek
Ġ >>
Ġregi on
Ġpierwo tnego
ĠÅĽlima kowi
Ġprzeszko dy
Ġcer tyfika
Ġgmi nie
ĠPiÅĤ sud
Ġna turÄħ
ĠZa ÅĤoÅ¼ono
Ġkla u
ĠÅĤÄħ czenia
Pro blem
ĠchÅĤo d
Ġpo go
la y
tego ry
Ġide alne
Ġzwery fikowaÄĩ
ĠpojÄĻ ciem
ra s
Ġefe ktÃ³w
Ġlini owych
Ġ... ,
ĠÄ Ĩ
Ġwiecz Ã³r
Ġo go
Ġin hibi
ll y
Ġstud i
ĠChryst usa
ku ment
zy n
ĠU sta
war e
ĠszczegÃ³ÅĤ owy
Ġtowarzy szy
ĠksztaÅĤt owaniu
Ġreligi jnych
0 3
b l
Å¼ Äħd
Ġwyj ÅĽcie
Ġmon ta
s nÄħÄĩ
ĠÅĽredni cy
Ġpoko na
Ġgal onÃ³w
Ġm l
Ġk ary
Ġob rzÄĻ
ĠJa cek
sk ar
ĠÅĽrodowis kowe
r ies
Ġroz dziel
su je
ĠZa to
Ġwyra Å¼eÅĦ
Ġobej m
Ġnieza dowo
ĠY ork
ĠlÄĻ ki
Ġzarezer w
li wie
ĠC V
ĠB io
co re
Ġpla Å¼y
Ġth en
ĠKon tynu
syw ne
, âĢĿ
ka ÅĤ
Ġop cjÄĻ
Ġus praw
Ġogro dni
Ġkal orii
Ġzoptyma lizowaÄĩ
b n
ie ÅĤ
Ġprzy miot
mp li
Ġsu bie
Ġu ra
Ġ- \
Ġska l
ĠJoh an
Ġutw ory
f ront
Ġni skie
ĠopÅĤa ca
Ġodnawia lnej
E F
d in
ĠHa bs
ĠzajÄĻ Äĩ
ĠczÄħste czki
Ġ ver
du r
Ġzmi anie
ĠwczeÅĽniej szych
Ġmani fe
Ġi ra
je wÃ³dz
Å» e
Ġwyka zujÄħ
Ġda jÄħc
Ġfa zie
owis ka
ĠÅĤÄħ czyÄĩ
Ġpew na
sti tu
ĠÎ ²
Ġspowod owaÄĩ
ĠniemoÅ¼li we
trzebu jÄĻ
Ġs wÄħ
Ġpo brania
Ġpo bytu
ĠW ho
Ġko chan
ĠB ran
Ġoto czeniu
Ġtrwa ÅĤe
ĠAlex a
ĠRapid API
Ġpo int
ĠMo ra
Ġche mio
Pol scy
ĠAma zon
Ġkom pi
Ġloka lnego
ĠLi sta
B ud
O s
Ġc reate
âĢĿ <|
Ġstra ch
Ġbu rzy
ĠkaÅ¼de mu
Ġcywi lizacji
Ġprzycho dy
li wi
Ġu rzÄĻ
ĠP oÅĽ
ĠPo myÅĽl
ĠCh or
prze d
Ġgene ral
Ġfizy czna
ĠdÄħ Å¼yÄĩ
Ġdaleko siÄĻ
ĠMini ster
Ġzaofer owaÄĩ
! "
Ġ( \
ĠP h
Ġda jÄħ
Na leÅ¼y
ĠwÅĤo skiego
ĠMe dy
Ġoprac owany
Ġkonf ron
u jÄħcych
ĠJ ad
Ġli mi
do by
tyw nej
mal l
Ġ187 0
Ġekspery menta
Ġdate time
c enta
Ġna sto
wo dni
mu r
Ġbez robo
owni cy
ĠThe re
Ġdostos owane
s le
ĠN y
Ġwsze dÅĤ
ĠNaj wiÄĻk
Ġkata logu
Uro dzili
b ki
ro ss
Ġbi u
ĠPrzy kÅĤadem
Ġopera cjÄĻ
Ġwrze ÅĽniu
Ġrodzin ÄĻ
Ġtytu ÅĤu
ĠczÄħste czek
f ran
Ġp sa
Ã³ gÅĤ
mian ÄĻ
Ġfe de
ĠrÃ³ l
Ġwy szu
Ġmo derni
ali gn
Ġnau kowej
Ġisto tnym
ĠsÅĤowa mi
ĠzakoÅĦ czyÄĩ
ĠwziÄħ ÅĤ
Ġzanieczy szczeÅĦ
Ġprote stan
. \
k si
wa le
ĠT wit
Ġpara doks
Ġsil nika
ĠRob er
Ġplane to
ĠUniwersyte cie
ĠÅĽwiado my
Ġdoprowadzi ÅĤy
ĠH all
Ġsta wiÄĩ
ĠpeÅĤ nym
ĠzuÅ¼y cia
C zÄĻ
f al
n Ã³
Ġwy ÅĤÄħcz
lu jÄħc
Ġpa miÄħ
Ġwe ktory
ĠpÅĤy ty
Ġlep szym
Ġuczestni czyÄĩ
ĠAnto nio
Ġsz ta
Ġ15 00
Ġpla yer
Ġsza ch
Ġgener owaÄĩ
ĠwrÃ³ ciÄĩ
Ġdepres ji
oÅĽwia d
Ġnie gdyÅĽ
Ġko leg
Ġprzy dzie
Ġpan owania
Ġstandard owych
Ġdoskona le
ĠWro cÅĤa
Ġs we
Ġpo glÄħd
ri um
Ġle ÅĽ
ĠPe ar
Ġnag r
ĠAleksand r
ĠzaÅĤoÅ¼y ciel
li te
mie ÅĽl
Ġob lÄĻ
ĠD is
logi Äħ
Ġinforma cja
ĠFran cja
Ġbie d
Ġmetry ki
KtÃ³ re
Ġwzo rem
Ġleg end
b iÄĻ
li nes
wo jen
Ġc iaÅĤ
su muj
Ġ7 8
Ġodzwiercie d
ĠgÃ³ rze
Ġnie szczÄĻ
ĠS ek
ser wa
Ġbra ta
ĠksiÄĻ Å¼na
Ġteren Ã³w
M M
t nik
ĠTe oria
ĠÅĤÄħ czÄħc
Ġl ong
ĠTy pe
ĠmÃ³z gÃ³w
Ġpojawi ÅĤy
Ġrelak su
ĠFried rich
P ara
ĠN owe
gu bi
Ġnaj szyb
ĠrÄĻ cznie
Ġmor skie
Ġdynami czne
ĠÃ ī
Ġrozry wki
Ġp rzod
dz kie
logi cznie
Ġfra me
ĠszczegÃ³ÅĤ owo
Ġuog Ã³l
go dzin
Ġdo myÅĽl
ad res
Ġmniej szej
Ġciem noÅĽci
Ġbur mistrz
0 8
r ien
Ġp ens
Ġod dziaÅĤu
owni kiem
ĠRze cz
Ġzagro Å¼eÅĦ
S Z
en cjÄħ
Ġu talent
Ġpoz drowie
ĠwspÃ³l nym
ĠprÃ³b ÄĻ
Ġtempera tur
Ġkrzy wej
Ġprzedstawi cieli
Ġrad oÅĽciÄħ
Ġtren d
ĠPio tra
hel lo
Ġrecen zji
Ġzagrani cznych
Ġin spe
ĠZ wrÃ³Äĩ
qu ery
Ġbadaw cze
ĠFlo ren
N i
w on
Ġco lle
Ġwz mian
Ġdy rektor
Ġameryka ÅĦskiej
ĠdotyczÄħ cej
Ġrzeczywi stÄħ
Ġcze ÅĽÄĩ
Ġho tel
Ġpozytyw nych
Ġzawod owym
Ġcodzien nym
Ġpracu jÄħ
Ġdysku sjÄĻ
Ġsor ted
Ġfollow ing
Ġozd ob
l anych
s che
ĠJa cka
Ġpu ste
Ġklu czy
ĠdÅĤugo dystans
Ġludz kÄħ
ĠcÃ³r ka
Ġplatforma ch
ĠAust rii
O sta
n owie
w nej
ĠB rze
Ġsp rÄĻ
ĠÅĽwia de
Ġgra cza
Ġglobal nego
Ġform Äħ
Ġo ca
Ġ$ -
Ġfunk cjonari
ĠJed en
ĠprÃ³ ba
Ġzespo ÅĤy
Ġarty sty
ĠrozpoczÄĻ cia
Ġkontra st
Ġun der
T E
z ek
Ġp ÅĤe
Ġprze mÃ³wie
ist nie
Ġmus ia
Ġpodstaw Äħ
ĠuÅ¼ywa sz
Ġjas nego
Ġkonf lik
Ġwod nych
Ġcech Äħ
ĠwraÅ¼ liwoÅĽci
Ġin dex
Ġde szczu
Ġwi zer
ĠdÅĤu gÄħ
Ġsko czkini
ĠmÄĻÅ¼czy zny
ĠKrÃ³ lew
out put
LE CT
Ġuruchomi Äĩ
ĠsÅĤowe m
s owy
t owÄħ
Ġ" __
Ġh an
ĠKa ra
ĠIn dii
Ġse le
Ġbud owni
Ġfizy cznÄħ
ĠzwrÃ³ ci
mon d
ĠCzÄĻ ÅĽÄĩ
ĠwspÃ³ÅĤczes nych
Ġnaukow cÃ³w
posi t
Ġzde termin
syj ne
Ġszczy tu
ĠWÅĤo szech
ĠMusi sz
Ġwyeli min
li ca
ĠK owa
ĠG ot
Ġobec nych
ler ia
ĠudziaÅĤ em
ĠtwÃ³r czoÅĽci
ĠdÅĤuÅ¼ szy
ty ni
ĠU kra
Ġgru czo
ĠKrzy Å¼a
Ġprag nienie
S I
Ġd id
ĠniezbÄĻd na
Ġgeometry cznych
Ġkonser wacji
Ġet no
Ġwie rzÄĻ
Ġsku r
Ġinforma cjÄĻ
Ġzn anym
Ġlini owa
Ġlini owy
Ġhiszpa ÅĦska
Ġwiarygod ne
R ze
Î ±
Ġle gen
tni o
ĠbÅĤogosÅĤawi ona
Ġtrzeci m
P U
Ġs wych
Ġprze niesi
Å¼a jÄħ
szo nym
ĠpasaÅ¼er Ã³w
u de
Ġo stry
Ġprze noÅĽ
ĠB ut
ĠspoÅĤe czno
ĠAr t
_{ \
mien na
ĠPoczÄħ tkowo
Ã³ n
la ra
in sert
nÄĻ li
Ġowo c
Ġawar ii
Ġiloczy nu
Ġni skiej
Ġbad aniem
ĠBo gu
obec nie
Ġwykony wanie
Ġogrom nÄħ
Kolej nym
Ġd Å¼
Ġt zn
kre a
Ġpowie cie
Ġse en
Ġmis jona
ĠÅļwiÄĻ to
Ġreprezent owaÄĩ
Ġkwia ty
Ġo chron
ĠA k
ĠK lu
th or
io ny
Ġpla ce
Ġponow ne
ĠPierw sza
Ġchle ba
à ¤
Ġad resu
sh ing
sh arp
Ġfundamenta lnym
cs v
ĠbezpoÅĽrednie go
Bar dzo
ĠogÃ³ le
ty ko
ÅĦ c
de put
Ġob wÃ³d
so m
Ġog nia
ĠTo ma
Ġudo godnie
Ġczerw cu
Ġna wie
Ġdoda tkowÄħ
ĠokrÄĻ ty
Ġpowro tu
Ġchmu rze
ty tuÅĤ
ĠR am
Ġzawiera jÄħce
Ġkana ÅĤy
ĠwspÃ³ÅĤczyn nika
Ġwybrze Å¼a
Ġzasadni czo
cz niu
Ġza robi
Ġod sÅĤo
Ġprzy wÃ³dz
ĠT rÃ³j
ĠK to
Ġpi lo
Ġniepo praw
Ġrozwij ania
Ġwek tora
Ġalkoho lu
Ġo lej
ĠA te
zuje my
ĠwejÅĽci owej
ĠzwiÄĻksza jÄħc
Ġwice pre
Num ber
Ġzapyta ÅĦ
h l
j m
Ġpo ta
li my
sta wiÄĩ
ĠB art
Ġde ch
ĠwpÅĤy wy
ĠpodrÃ³Å¼ nik
Ġstud ent
ĠrÄĻ ki
ĠciÄĻÅ¼ ko
ĠnastÄĻp nym
Åļ wiÄĻ
ĠAli ce
Ge ne
lu j
ĠA ri
Ġpole ceÅĦ
ĠMi ke
Ġograni czyÄĩ
Ġpopra wek
Ġstatysty cznej
Ġo padÃ³w
ĠÅ¼y cz
Ġhi gie
Ġdostar czania
ĠRze szy
mo na
ĠrÃ³w noÅĽci
Ġorgani zmÃ³w
Ġmechani zmy
Ġmeta li
mody nami
ĠÅļlÄħ ska
ch ÅĤon
Ġna strÃ³j
Ġsukces em
Ġ lan
Ġn owymi
Ġpolity cznej
di tion
Ġprint f
Ġkolo ni
Ġz wi
Ġna chy
Ġg mina
ĠNarod owej
w nie
ne ction
pro cess
ĠSa mu
ĠWi ki
Ġposzuki wanie
Ġeuro deput
ĠBryt ania
Ġi gnor
Ġt i
Ġpo ro
Ġna cze
ĠtÅĤu szcz
ĠspÃ³j ny
Ġczerwo nych
Ġtend encji
F rame
z ur
lu jÄħ
ĠNa uk
Ġszyb koÅĽÄĩ
ĠwspÃ³ÅĤpra ca
Ġdzieci om
Ġpora dziÄĩ
ĠprawidÅĤ owe
Ġkad encji
Ġment or
ĠksiÄĻÅ¼ni czka
Ġka wÄĻ
Ġwi daÄĩ
Ġ4 3
Ġdoda tnia
Ġloka lnÄħ
Ġspraw dzenie
Ġatmos ferze
Ġgu za
Ġaw ans
Ġd anÄħ
re sa
ĠprzykÅĤad owy
Ġ187 8
Ġul tra
Ġtur niej
Ġekstremal nych
or ty
ĠNa zwa
c sharp
li ÅĤa
Ġpod oba
Ġpotencja lnymi
ĠJu an
Ġpierwo tnie
Ġmanipu l
ĠpÅĤywa k
li ÅĽci
Ġpod miot
ĠO chro
ĠsÅĤ owia
Ġpopu lacja
ĠniepeÅĤ nospraw
S p
o se
sti an
Ġteor iÄħ
ĠprzeksztaÅĤ ca
ĠwyjaÅĽnie ÅĦ
ĠTowarzy stwa
Ġwypro duk
Ġm ni
ĠK al
kÅĤada mi
ĠKazi mierza
Ġzob owiÄħ
ĠpÅĤywa czka
R y
l ska
or us
ĠS ak
Ġlu n
Ġaby m
Ġkon sum
Ġspo d
() );
Ġpozosta wi
Ġusta wy
ĠmiÄĻdzynarod owych
Ġiz ol
Ġpostanowi ÅĤ
Ġserwe ra
Ġdifferen t
dz twa
ka ja
Ġwy stawy
ĠK oÅĽ
Ġr dzen
Ġdzie siÄħ
Ġsp ortu
ĠMa sz
Ġmater iaÅĤa
Ġsum Äħ
Ġdoskona ÅĤy
Ġponow nego
WyodrÄĻb nij
Ġo pada
Ġtrzy dzie
Å¼o nej
Ġprzemy ÅĽle
Ġukry tych
Ġwykorzyst aniu
Ġmi le
ĠSt owarzy
Ġsil nik
Ma jÄħc
Ġkur sy
ĠpiÄĻk ne
Ġgot owania
Ġlip cu
Ġpo ran
Ġu dziel
kre ÅĽlenie
ĠszczegÃ³ÅĤ owych
Tu be
H g
Ð º
Ġdo p
Ġja ski
is on
sze wi
Ġka ted
kre sy
Ġba ro
Ġry gory
ĠpÅĤaszczy zny
Ġbal ance
s ma
z orien
Ġprze wyÅ¼
kt ry
Ġwi zji
Ġkosz tujÄħ
Ġwyja ÅĽnij
ĠwskaÅº nika
Pro perties
Ġeduka cja
vie w
d ist
ĠP owo
liz owana
Ġpotencja lny
ĠJo e
Ġwej ÅĽÄĩ
legÅĤ ych
Ġdoku mentu
ĠrozwiÄħzy wanie
t nikÃ³w
ĠZ ad
Ġka mieÅĦ
Ġwprowa dzajÄħc
Ġlitera turze
ĠTowarzy stwo
Ġgospo da
D u
o ro
end er
ĠD al
Ġczy nienia
Ġ4 1
Ġwa ter
__ ":
Ġwil got
Ġz magania
ty wa
Ġprzy nios
ĠB roni
ĠI d
Ġba zÄħ
Ġczyn nikami
Ġgospodar kÄĻ
Ġzadania ch
Ġinicja tyw
c ra
k owymi
po te
ĠLe a
Ġnegatyw ny
Ġadministra cji
Ġza licza
Ġroz czar
ĠD io
Ġwynosi Äĩ
fika cjÄĻ
Ġkompleks owe
s ur
ĠS ar
ĠD Äħb
Ġsz cz
sza jÄħ
Ġ4 6
szyst ko
Ġno gi
ĠwyjÄħ tkÃ³w
Ġzb rod
Ġdocho du
mira ÅĤ
ĠKatarzy na
Ä ģ
Ġod Å¼y
Ġspo kÃ³j
ĠKo t
ĠĠĠĠĠĠĠĠ Ġ
jo ni
Ġsamocho dy
ĠczÄħ stki
Ġopiera jÄħ
Ġujem ne
ĠÅ¼y jÄħ
Ġ> =
Ġs ej
mp ty
ĠmoÅ¼ liwa
Ġtele foni
Ġoficja lnie
Ġwypis uje
Ġwie kiem
it s
Ġ187 6
Ġpiosen ki
Ġoka zja
ĠÅĤatwiej sze
Ġkopa lnych
Ġpodobie ÅĦstwa
ĠI wan
ĠU stal
Ġgru nt
Ġszwe dzka
ĠPoz wala
cy fr
ist er
Ġpi sze
Ġba b
Ġsty czniu
ĠRu mu
Ġtkan ki
j ka
mo ve
sty ce
Ġszyb koÅĽci
Ġaktu alne
mien nych
Ġ186 4
Ġwycie czkÄĻ
Ġwdro Å¼yÄĩ
ĠpÅĤynÄħ ce
Ġwitry ny
ri k
Ġusta lenie
Ġzre wolucjoni
ĠbiaÅĤ ych
Ġinfrastru k
Ġkryter iÃ³w
R A
Ġu czÄħ
lo nia
zu jÄħcych
qu ence
Ġpowsta ÅĤo
Ġprzeprowa dz
Ġusu niÄĻcia
ĠtrÃ³jkÄħ tÃ³w
ĠkrÃ³t kÄħ
S tru
Ġa li
te x
cza Äĩ
Ġla sÃ³w
Ġelekt row
Ġwynika ch
0 4
Ġma la
ana lizuj
ĠWy bÃ³r
Ġmar szaÅĤek
Ġklien t
ĠNi co
Ġaspe ktach
Ġ& =
Ġbrze gu
Ġprzera Å¼a
Ġprze rzu
ÅĤo Å¼y
kt ery
ĠpeÅĤ ny
Ġodzy sk
U wagi
j anie
Ġro kiem
owe m
ĠL am
Ġ8 8
menta cji
Ġfinans owania
Ġ187 2
Ġindy jski
Ġnada je
ĠsÅĤab oÅĽci
ĠwioÅĽ larz
( ),
Ġko ÅĤ
Ġpla cÃ³w
Ġpopraw na
Ġnajlep szÄħ
Ġzain west
Ġidentyfika cjÄĻ
e urope
Î ¸
Ġi ÅĽÄĩ
Ġa st
Ġnie stabil
Ġle ku
Ġni skich
cyj noÅĽÄĩ
cep cja
Ġrozwo j
Ġochro na
Ġinsta lacji
zel an
Ġaf ter
Ġd nie
Ġpro mieniu
and ro
sk y
ĠwÅĤaÅĽci ciel
let niej
zio m
Ġdwu mian
ĠPar ku
ĠBarba ra
E lement
O pisz
Ġlu ki
ĠPol skie
ĠzÅĤoÅ¼ ona
Ġprzysz ÅĤe
Ġniebie skich
Ġnu kle
Ġpropozy cjÄĻ
Su ma
Ġdo tÄħd
ĠB on
Ġle ga
Ġwspiera jÄħ
Ġkryzy s
ĠÅ¼u Å¼
Ġloka lizacja
ĠÅĽrodowis kowych
ĠwÅĤaÅĽci wie
ĠpoÅĤ owa
Ġnu me
Ġkomponen tÃ³w
Ġkilo metrÃ³w
Ġopozy cji
= $
K om
V A
Ã ¸
lo k
ĠM Ã³j
Ma my
ĠPra cu
Ġautor ka
Ġini t
Ġprocedu ry
ĠS I
Ġwi dzieÄĩ
Ġprowa dziÅĤ
Ġczytel nicy
ĠpowyÅ¼ szych
ĠSej mu
" ))
Ġwy ma
Ġn oÅĽ
Ġpodzie lne
Ġujaw niÄĩ
Ġprom owania
Ġprzyjaz ne
Z wraca
Ġo ty
Ġk ano
ro czy
Ã³w ki
ĠT ru
Ġfor te
prze cin
Ġzw ane
os for
ĠPierw sze
Ġpta ki
Ġidentyfika tor
d nik
en g
Ġpro fil
Ġob cho
ĠMo rza
ĠÅļ wiÄħ
Ġwyz wo
Ġfinans owej
Ġhum an
Ġszlach et
F o
|> ```
Ġwy naj
ĠZ rozumienie
Ġharmo nii
Ġszlach ci
Ġprze dziaÅĤu
ĠM Ã³wi
ĠK ir
Ġla st
Ġjedno czes
Wy bierz
Ġkana ÅĤ
are a
kan in
Ġstatu su
ro l
Ġemo cjami
Ġdow n
Ġtest owanie
ĠPierw szym
Ġwynalaz ca
D A
M icha
cz noÅĽciach
Ġorganiza cjami
fir st
Ġi mi
dz kiej
sty k
Ġostatni Äħ
Ġpromieni owanie
prasza m
Ġo ÅĤ
Ġnie chÄĻ
ĠW prowa
Ġzbie ga
Ġpozo stanie
Ġna ft
Ġu spo
ca se
ĠPrzy gotuj
Ġsyn chroni
Ġwprowadz ono
ĠZapro jektuj
Ġzareje str
Ġzobraz owaÄĩ
y es
ar n
Ġproce ss
^{ \
Ġblo k
Ġkim ÅĽ
ĠÅĤyÅ¼ wi
Ġprzy kÅĤadu
Ġli mit
Ġparamet r
vo id
Ġdw or
ĠBernar d
z owania
st rza
ni cja
Ġwy kazaÅĤy
Ġpod da
ĠK el
dej mujÄħc
ĠRo ck
ment s
Ġnaz ist
Ġener giÄħ
ĠwejÅĽci owa
Ġscenari usza
szy ng
pra szczajÄħc
niej szej
Ġ- =
ĠSt wo
re g
si l
sa da
ĠPa w
Ġzdr owe
ĠRa y
Ġth rough
Ġprzedmio tem
Ġmeta boli
ĠprawidÅĤ owo
ĠYou Tube
Ġsocj olog
c ard
Ġw ch
Ġza ra
Ġco f
Ġdzie Äĩmi
Ġsa li
pre ss
ĠdoÅĽwiad czyÄĩ
Ġklasy cznej
Ġprakty cznych
Ġobser wu
Ġpolega jÄħ
ĠFir ma
S QL
w skim
Ġp seudo
Ġna du
ĠdÅºwiÄĻ kÃ³w
Ġnormal ny
ĠFrydery k
Fir ma
] `
mi ne
ĠA e
ĠF re
Ġwyda wca
-- -
ord s
Ġemocjonal nej
Ġinnowa cje
Ġmagi cznych
Ġkomputer Ã³w
Ġrekomen dacji
ĠÅ¼ela za
ka l
Ġ( (
Ġf ut
ĠB lue
ĠF unk
ĠH um
Ġnad miar
Za pro
Ġmeto dami
Ġregi onach
Ġutw oru
ra dy
Ġwy twarza
ĠA ch
ĠR an
pra ca
Ġpodzie lone
Ġzaczyna jÄħc
ĠBar dzo
Ġnaukow cy
ĠP owinie
Ġnie forma
ĠA h
dni ÄĻ
ĠH ali
Ġwi dziaÅĤ
Ġth row
Ġszko lenie
Roz po
Ġprioryte tÃ³w
wange li
skaÅº nik
n an
ĠM anu
and ra
ĠWie lu
Ġstos owanych
mer ce
Ġstron ni
r ÄĻd
ĠR zÄħ
ĠktÃ³re mu
ĠÅĽci an
Ġbada czy
Ġzapy taÄĩ
Ġkreatyw ne
Å¼d Å¼
dziesiÄħ t
Ġ ÅĤÃ³
Ġklu bu
Ġofer owanie
Ġsygna ÅĤ
Ġwybo rze
Ġzamiesz ki
Ġminimal nÄħ
ĠmÄħ Å¼
Ġzmo tyw
K to
ĠD wa
Ġopera cja
ĠnastÄĻp nych
ĠprÃ³bu jÄħc
Ġmieszan kÄĻ
ĠMeksy ku
Ġodpar ÅĤ
Ġzmienno przecin
de sa
ĠO pracuj
Ġwart oÅĽciach
ĠMa in
Ġsku tk
now ski
mina cja
Ġstar ych
ĠÅģ uka
Ġokoli cach
ĠsÅĤone cznego
ĠRozpo czÄĻ
Ġjazz owy
wa rza
Ġko rzeni
Ġnag rÃ³d
Ġnazy wany
ĠWal ter
ĠpoÅĤoÅ¼ one
Ġperso nelu
N owy
ĠZa stanÃ³w
Ġda y
ĠRe a
ĠFi li
Ġwyszuki war
ĠIs land
Ġproduktyw noÅĽÄĩ
ry m
Ġka li
cho dzÄħcych
Ġ[ [
Ġinterfej su
ĠKsiÄĻÅ¼y ca
Ġrozma it
ĠMicro soft
D D
en cy
Ġma ju
Ġzespo lonych
Ġodpowiedzi Äħ
ĠpÅĤyn ne
Ġrozsze rza
Ġeksplora cjÄĻ
Ġwzmac nia
Ġpoin form
) <|
P at
Ġs kÄħd
ĠO grani
Ġczy niÄħ
ĠdotyczÄħce go
ĠogÃ³l nym
Ġzaka Å¼enia
H o
Ġjedno raz
szcz ona
Ġminut ÄĻ
Ġformal nego
Ġdostosowy waÄĩ
n ne
Ġob jÄħÅĤ
cia rz
Ġsta ÅĤego
Ġmar cu
ĠMar sa
Ġzni Å¼ki
Ġutra ta
Ġklimaty czne
Ġbinar nego
Ġpopy tu
Z aÅĤÃ³Å¼my
w cÃ³w
Ġ },
Ġb iaÅĤa
Ġa wan
Ġwy padek
ga m
kty wa
Ġbe ca
Ġdzi wne
Ġdynami kÄĻ
ĠzaÅĤoÅ¼ ono
H i
Ġw ell
Ġh im
ĠmÅĤo da
Ġgospodar cze
Ġpass word
cho d
ĠE wa
math bb
ĠðŁ Į
Ġkandyda tÃ³w
Ġrefleks ji
M E
na stu
Ġa e
Ġcz ujÄħc
Ġpa li
Ġwi dzÄĻ
Ġrze mieÅĽl
Ġczas owa
Ġgru dniu
graf iÄĻ
Ġostatni o
Ġrozpozna wania
Ġpracowni kom
ci ÅĤem
Ġu zdr
ĠA gnie
Ġprzed stawienia
Ġbia ÅĤek
ĠrosnÄħ cym
Ġstworzy ÅĤ
Ġskar b
Ġlokaliza cjÄĻ
Z godnie
l ies
Ġw reszcie
ĠT wier
ĠrÃ³w ie
owi cy
Ġkombina tory
Ġbro ÅĦ
Ġzbiera Äĩ
ĠpiÄħ tek
Ġzakwater owania
Ġdo stÄĻ
cie lami
pu ÅĤ
Ġkon t
co nej
mier nie
ĠrozwiÄħzy waniu
Ġmale je
Ġwitami ny
$ <|
I A
de t
Ġre gene
ĠÅ¼y je
Ġodpowie dnia
ĠNie zaleÅ¼
ĠPod stawiajÄħc
ĠciÄĻÅ¼ kie
Ġkonstru ktyw
g ÅĤy
Ġre nes
ĠN ULL
Ġwie kÃ³w
Ġju tro
Ġskute cznym
ĠÅĽredni m
Ġtar czycy
Ġzbio rem
ĠdziesiÄĻ Äĩ
Ġpropor cjonal
Ġstres em
Ġword s
Ġ lÄħ
Ġza piera
Ġnie ud
Ġprzekon ania
Ġnegatyw nych
Ġdodatk owego
unda cja
' t
f on
Ġst ÅĤu
Ġwie dziaÅĤ
Ġzd jÄĻcie
Ġbu rz
ĠSy stemy
Ġdom owe
Ġ186 1
ĠmÄĻ Å¼a
account s
Me toda
Ġm ur
Ġa ss
Ġko la
Ġprzy tu
em p
pa che
ant s
cent ra
Ġstar e
Ġpropor cji
ia m
Ġog rod
Ġsk ÅĤania
ĠSt rze
ÅĤoÅ¼ onoÅĽÄĩ
Ġprzyja cielem
Ġska lowa
Ġnowo zelan
ĠpaÅºdzier niku
Ġeg zem
Ġplane t
mplo yee
Ġa ksjo
Ġodpowiada jÄħce
ĠzakoÅĦ czyÅĤ
ĠskÅĤada jÄħ
wi u
mie sz
Ġty cz
se y
Ġwp ÅĤa
nosi Äĩ
Pod stawiajÄħc
Ġprzyj mowaÄĩ
Ġwprowadz ania
Ġperku sista
Q R
Ġna ma
Ġza stana
ral nÄħ
ĠÅĽrod ÄĻ
Ġsty mu
Ġpew ny
Ġchoro bÄħ
Ġczeka m
Ġwy twÃ³r
ĠK y
ĠDz iaÅĤa
Ġautor Ã³w
ĠpiÄĻk ny
ĠbÅĤo ny
Ġzaby tkÃ³w
Micha el
Ġu czeÅĦ
Ġ( "
Ġteor iÄĻ
Ġrugby sta
Ġdo lnej
Ġcz os
Ġ` [
Ġpoprze dnich
call y
Ġszczy cie
Ġdostrze gaÄĩ
ra to
ko log
lo nymi
cza ka
ÅĽci ÅĤ
ĠNa wet
ĠSt rona
Ġfa ctor
Ġartyku le
Ġrobo ty
z owanie
Ġo ÅĤÃ³w
ia t
sie ÅĦ
ĠPa cyfi
ĠwaÅ¼ noÅĽci
ĠMe tody
ĠBy Äĩ
ĠwyÅ¼ szej
Ġmedy cznej
Ġ186 5
Ġprogno zy
Ġfundu szy
Ġwyw nio
S zu
Ġza szczy
Ġprze formuÅĤ
Ġpa st
ĠrÃ³Å¼ nym
Ġwzro sÅĤa
chow ski
Ġstosun ki
Ġtury stÃ³w
g he
t rans
Ġ ve
Ġo czywiÅĽcie
Ġwy gr
art er
ĠwÅĤaÅĽci wej
ĠangaÅ¼ ujÄħcÄħ
Ġ187 3
ĠÅĤo te
ĠElÅ¼bie ta
n ane
Ġwy star
ĠS ur
szy fr
Ġfi nal
Ġ6 3
ĠKo s
ll s
gro up
ĠmÅĤo dego
Ġkonstru ktor
Ġtrwa ÅĤy
z onu
Ġza daÄĩ
Ġu rzÄħd
ta tion
ĠW ali
to k
ĠU N
one r
Ġbo gÃ³w
Ġrozm owie
Ġs enty
Ġi P
ĠP on
Ġroz kÅĤadem
ĠI f
Ġszy i
Ġefektyw ny
ĠĠĠĠĠĠĠĠĠĠĠĠĠĠĠĠ ĠĠĠĠĠĠĠĠĠĠĠĠĠĠĠĠ
Ġpo grze
bi lity
ke ys
Ġen ume
Ġwynagro dzeÅĦ
Ġprzypom nienie
Ġwidz Ã³w
wie niem
Ġv i
mpi ry
ĠposzczegÃ³l ne
Po le
Ġmeto do
Ġzasa dach
Ġtajemni c
Ġcia sta
ĠpoÅ¼ ar
ĠCza sami
Ġprotagoni sty
s ing
t owany
Ġu stawie
ma d
Ġko ni
rÃ³ dziem
Ġre tory
ĠJe rzego
Ġpraw em
Ġmiejsca mi
Ġmedi any
Ġinterpre tacjÄĻ
Ġtrakta t
B rak
S tu
nia ÅĤ
ĠA bra
fa ctor
ĠrÃ³Å¼ni cÄħ
ĠkoÅĦ cÃ³w
ĠBi bli
Ġznajd owania
Ġp H
an k
Å¼ Äħcych
Ġprze szu
aÅĤ em
Ġintelig encjÄĻ
Ġkrajobraz u
cz kÃ³w
ĠK re
Ġoryginal nÄħ
Ġwy bie
Ġog Ã³ÅĤ
Ġprowa dzone
Ġzau wa
ĠWro cÅĤaw
Ġ ery
Ġko lora
Ġpod jÄħÅĤ
ĠTa j
Ġmin us
Ġkonta kty
Ġemocjonal nÄħ
By ÅĤ
pat ia
ĠprzesÅĤ anie
Ġekosystem Ã³w
ro dy
le wski
Ġb lue
Ġpil noÅĽci
Ġza okrÄħg
ĠwÅĤo sy
ĠpostÄĻp owania
Ġzakon nica
Ġinfluence rami
ty cy
mi anie
ĠW en
ĠM it
Ġma larka
th o
ĠzwiÄħz ani
ĠSt ary
Ġliczba ch
mieni ny
Ġpopular noÅĽÄĩ
metr iÄĻ
ĠMaÅĤgo rza
Ġgrz bie
s ql
wo daw
Åº ÅĦ
gi nes
Ġbar w
tar i
Ġkrzy Å¼a
Ġfilm owa
Pobie rz
ĠEgip tu
go nal
Ġdo chÃ³d
Ġma kro
Ġprzy wo
Ġsta cjonar
ĠTe o
ĠzwiÄĻk szy
Ġzdecyd owanie
Ġczaso przestrze
w art
Ġm enta
Ġprzeprowa dzenie
Ġlos owe
Ġsygna ÅĤu
Ġprofi lakty
ĠRegular ne
Ġkategoria ch
ce i
po lu
Ġh am
âĢĿ :
pro gram
log y
Ġtrze ciego
Ġzn anego
ĠnajwiÄĻk szej
Ġochro nie
Ġodbi ja
ĠRie manna
a le
ra sa
Ġpo rzÄħdek
owa j
he ight
ĠMo ja
ĠgÅĤo sem
Ġdowol nym
Ġwyszuki wanie
Ġekstre malne
Ġkomponen ty
Ġwyczer p
U N
m iaÅĤ
bi Ã³r
Ġpoz wÃ³l
Ġfi na
ĠsÅĤowa ch
Ġzdoby ÅĤa
Ġdopas owania
ie m
Ġp rÄĻ
ĠBy ÅĤo
Ġtrady cje
Ġnazy wane
ĠCel s
Ġweek end
Ġf ront
ĠT rybu
Ġra k
Ġne ed
Ġhipote zÄĻ
Ġbohater Ã³w
Ġegza minu
ĠK obie
ĠPo lega
Ġprawdzi wÄħ
Ġ187 1
Ġrzu ca
Ġpoez ji
ĠChina ch
Ã ½
Ġu cho
Ġst any
zy waÅĤ
al ly
czas em
Ġpie s
Ġoryginal nym
Ġrecen zje
Ġkupi ÅĤ
Ġfakty cznie
O bie
S tra
Ġa loka
ĠM en
Ġobie tni
Ġusta wia
Ġakapi ty
Ġdrob nych
Ġkawa ÅĤek
dzi Äħ
du m
Ġtra sÄĻ
Ġzapa da
ĠLu cjan
ĠzasiÄĻ gu
ĠÅ¼uÅ¼ l
sz ÄĻdzie
Ġprzez wyciÄĻ
co mp
Ġwsp ier
dej ÅĽcie
roz um
Ġdoko naÅĤ
Ġmonitor owaÄĩ
ĠWÅĤodzi mierz
Ġe mail
ĠKon kre
Ġskon sult
Ġche ck
Ġjedy nÄħ
Ġ186 8
ĠpÄĻt la
ÅĦczy kÃ³w
ĠgaÅĤÄĻ zi
Ġpozdrowie niami
Ð »
ani ny
Ġwi rus
ĠpÅĤy nie
metry czne
ĠchÅĤop cÃ³w
g g
Ġwy chodzi
Ġe ste
Ġob chodzi
ur ing
ĠG PT
ĠWy Å¼
bra ÅĤ
rzch nia
ĠpoczÄħtk owej
ĠMog ÅĤoby
ĠÅ¼Äħd ania
Ġszacu nek
Ġp sy
Ġsztu cznych
Ġ187 5
Ġpogod owe
ĠszeÅĽci o
Ġinfor mowaÄĩ
n owo
ch or
Ġa gen
Ġmog ÅĤem
Ġsta tkÃ³w
Ġodpowie dziaÅĤ
ĠpeÅĤ nej
tw or
ĠpowaÅ¼ nie
Ġmm Hg
Ġspoj rzenie
Ġwzajem nie
Ġt rac
Ġma ksi
Ġroz ciÄħg
ĠE in
). ",
Ġsprze ci
kla sy
Ġobserwa cje
ĠKalifor nii
A BC
¹ rÃ³d
Ġo czami
le ksy
Ġnie ograni
Ġeksp ans
Ġotwar tym
Ġoj czy
Ġhod ow
la ks
ĠP O
Ġnie e
ĠZ dzi
ĠZ miany
Ġca se
Ġznaj o
ĠPrzy ja
ĠwÅĤaÅĽci we
ĠMag da
ow skim
czÄħ cym
Ġde tali
ĠprÃ³b owaÄĩ
ĠrozpoczÄĻ ÅĤy
Ġeksper ty
Ġtelewi zji
ĠpoÅĤo Å¼enie
Ã§ o
t d
pa dzie
ĠZ dr
Ġcz wo
gra mÃ³w
Ġtra m
Ġobie cu
obÄħ dÅº
Ġzamie rza
Ġlud noÅĽÄĩ
ĠkawaÅĤ ki
ĠuÅĤa mek
0 9
li no
Ġto leran
Ġin form
Ġma jÄħcych
ĠR en
Ġsa teli
ĠwyÅ¼ sza
ĠwspÃ³ÅĤczyn nikÃ³w
om orfi
Ġser wer
Ġwzro k
Ġzb ieranie
Ġziem nia
ĠZmieni ono
Ġe sto
ĠK le
du plica
Ġbi bli
ÅĽnie nie
ĠzarzÄħ dza
ĠOp en
q quad
Ġw kro
Ġ9 2
Ġwielokro tnego
Ġsolid ne
Ġbudyn ki
WÅĤa ÅĽci
s ent
ni czne
Ġk Ã³ÅĤ
ĠH istory
Ġsta w
Ġdy rek
ĠcaÅĤ oÅĽÄĩ
ĠwpÅĤyw Ã³w
ĠciÄĻÅ¼ arÃ³w
Ġkolo nii
Ġrozry w
Bad ania
Ġpod ano
liz owanie
Ġsytua cje
Ġwier sze
Ġmili tar
ĠwyraÅº ny
Ã¶ r
Ġzanieczy szczenie
ĠChrist ian
Ġzakwater owanie
ĠpiÅĤ karka
fik owane
Ġtwier dzÄħ
ĠNiem cÃ³w
ĠBole sÅĤawa
Ġ va
Ġp lus
Ġro m
Ġma ci
ĠDo mi
dom oÅĽÄĩ
Ġmeta lu
cyk lope
ĠzakÅĤÃ³ ca
fra me
b ru
an se
in du
ĠG ran
Ġklasy czny
Ġide alnie
Ġzmienia jÄħcych
Ġun cji
Ġelasty cznoÅĽci
Ġnawy ki
Ġprzyg Ã³d
z owany
Ġdo g
Ġdo ciera
Ġn ÄĻ
Ġdy wizji
Ġpozio mem
Ġpew no
ĠSy l
Ġbibliote ce
Ġwczes nych
d ry
Ġpow rÃ³t
Ġsa id
Ġse e
Ġzrobi ÅĤ
ĠSpe cja
0 7
Ġw nÄĻtrz
Ġs ier
Ġd ania
Ġro gu
ĠZ el
user name
Ġplan owaniu
Ġtow ar
li kÃ³w
ĠWa cÅĤaw
lig ia
ĠLa u
Ġkrzy wi
ĠÅĤy Å¼e
ĠInter necie
Ġwaha j
p m
Â »
Ġpo bo
ar ed
rzy ÅĽci
to mii
sko nal
Ġsek cja
Ġter modynami
nar ki
Ġ186 2
Ġastro nau
ĠWito ld
Ġadwoka t
U waga
Ġo pe
Ġna tive
ĠO bo
praw ÄĻ
Ġsk rom
Ġbia ÅĤy
ĠÅĤu ku
cz nikÃ³w
Ġra dziÄĩ
Ġpozy cje
ĠnastÄĻp nej
ĠpociÄħ gu
kano c
ĠW ier
Ġso cze
Ġspraw dÅº
lÄħ t
Ġzda rzenie
mien ny
ĠRu ss
ĠWol f
of ia
Ġust nej
Ġwymy ÅĽliÄĩ
Ġruty ny
ĠArth ur
si us
stu je
ĠnastÄĻpu jÄħcÄħ
Ġuczy ni
ĠszczegÃ³ÅĤ owÄħ
Ġdwu krotnie
ĠrozpoczÄĻ ciem
Ġpropon uje
li nÄĻ
ma cie
Ġpow ÅĤo
ĠPro blem
Ġpocho dzenie
Ġpomy sÅĤu
Ġsprze czne
ĠNi koÅĤa
Ġ186 7
Ġeurope jskich
L T
z no
Ġw strzy
Ġe xt
Ġdoda wanie
Ġarty lerii
Ġboga ctwa
Ġnajmniej szÄħ
ĠPary Å¼
ta sk
cze b
wi ga
ĠOb sÅĤu
Ġzastosowania ch
Ġpojedyn czej
ĠwielokrotnoÅĽci Äħ
Ġs cep
Ġwy miarach
Ġpole cenie
ĠogÃ³l no
Ġl st
Ġuprze dzeÅĦ
Ġprzyby ÅĤ
Ġzabie gu
je ÅĽli
ĠT im
Ġroz ka
lem enty
Ġ18 60
Ġdziedzi na
==== ====
a spekt
i ra
sta tus
Ġcy to
Ġzwy cza
Ġniedo kr
Ġpiersi owej
Ġbase bal
Ġrys ownik
Ġhrab stwie
li ght
re ci
ce ni
Ġnie dÅºwie
ku ry
us ing
ĠSta ck
Ġpsych olog
ĠchÅĤo pca
Ġpozytyw nego
Ġstre f
Ġpokry wa
ĠUwaÅ¼ am
ĠZ u
Ġmiejsc owoÅĽÄĩ
Ġtere nach
Ġwidzi my
ĠSzu kaj
Ġpodekscyt owany
ar nia
ĠgÅĤ owie
Ġasyst ent
Ġmechani zmÃ³w
col or
ĠZwy kle
D ÅĤugo
Ġwy krzy
wia rz
ĠJe zio
ad ditional
Ġaktyw nie
Ġuro dzin
Ġ187 7
Ġcyfr owej
Ġh ttp
ĠO prac
Ġmuzy kÄħ
Ġniepo kÃ³j
Ġ187 4
pol ski
ĠchÄĻ Äĩ
ĠzakÅĤada jÄħc
p ka
Ġroz puszcza
tyw nÄħ
ĠKo rei
." ""
Ġstar szy
ĠAnd rze
Ġchro mo
Ġwizy tÄĻ
Mia sto
b on
b owych
Wy korzy
Ġkwa su
Ġpodzie lenie
Ġzi lu
Ġczerwo ne
Ġodzwierciedla jÄħ
ĠSzy b
ĠwyobraÅº ni
c kiem
c Äħc
Ġme te
Ġni ko
Ġ18 00
ĠprzesÅĤ anki
ÅĦczy cy
ĠpowrÃ³ ciÅĤ
cz by
Ġza lu
Ġwy glÄħdaÄĩ
ĠS en
si li
Ġzie lone
Ġprakty cznie
ĠwyÅ¼ szego
Ġczar ne
Ġmno Å¼enia
Ġklau zu
i do
Ġu staw
Ġwy gÅĤo
Ġob cych
Ġsp on
Ġsty czni
Ġ186 9
Ġniepew noÅĽÄĩ
Ġinspi racji
Ġarche o
ĠUsu ÅĦ
M ed
kÅĤada ch
wz or
Ġeg zo
Ġczar nych
p age
zy wanie
ĠS ol
ĠT ri
Ġroz kÅĤadzie
Ġopis aÅĤ
Ġzaj mujÄħ
Ġpierwo tnej
KtÃ³ ry
ĠWsp Ã³l
ĠIndia ch
Ġpod ana
ĠH arr
Ġbu dzi
Ġzre zy
Ġutwo rzenia
ĠMu zy
Ġwykony wane
Ġreak cjÄĻ
ĠwiÄħ Å¼Äħ
Ġobszar em
P er
sta li
Ġst warza
Ġsto pa
ĠciÄħg ÅĤego
Ġdolar y
Ġporusza jÄħ
over line
Ġam ba
ĠprzeÅĤo m
Ġprzybli Å¼eniu
L A
Ġin de
ĠI sa
Ġpas jÄĻ
Ġreligi jne
Ġman da
ĠKat owi
GÅĤÃ³w ne
Ã Ł
lo or
dy scypli
ĠPo niÅ¼ej
ĠuÅ¼ywa j
Ġpopraw nÄħ
Ġwia t
Ġlogi cznie
Ġbibliote ka
ĠzastÄħpi Äĩ
Ġadap tacji
h al
ci mal
Ġu nd
ĠZa u
pro st
ĠMar i
Ġofi ary
Ġwscho dniej
ĠMon te
ĠcÃ³r ki
ĠmÄħd roÅĽci
czÄħ cego
ĠWa szyng
ĠbezpoÅĽredni m
Ġtry gono
Ġniebie skie
ĠTu taj
ĠRepubli ka
Ġdys kry
O state
ow ar
ty zmu
Åº Äĩ
si gn
Ġr i
Ġzde cy
Ġ186 6
Ġdowol nÄħ
Ġela styczne
ĠzrÃ³wnowaÅ¼o nej
RÃ³w nieÅ¼
g ery
cz niki
na ÅĦ
Ġnie dzie
Ġprzy gody
ĠI ra
Ġlo tu
Po dziaÅĤ
Ġobec na
Ġofer tÄĻ
Ġindek su
z ol
Ġi mieniem
ĠA ry
Ġbo ki
wska z
Ġdodatk owy
Ġprzeko ny
ĠciÄħgÅĤ ych
j ki
ĠW prowadzenie
Ġpod p
wiÄħ Å¼
Ġrze k
Ġrze ka
Ġry ba
Ġfir mami
ĠSu per
ĠpowiÄħz anie
Ġnowotw or
uni que
Ġimpu l
Ġs ki
Ġna chylenie
Ġg min
Ġod ku
ĠS mo
od or
Ġtrze ma
Ġmedy czne
Ġsierp niu
ĠHu go
Ġw czoraj
Ġst owarzy
ĠZ mniej
ĠG ol
Ġczy tanie
ĠU l
ste czek
Ġdru ku
ĠÅļ wie
ĠAr mia
Ġak cjÄĻ
tt en
ĠLudwi ka
ow skich
sz ar
Ġc ano
ĠA ll
Ġimp erium
ĠrozwiÄħz aniu
Ġlogi czny
Ġ184 8
Sz cze
Ġzab Ã³j
remo ve
Ġsklep Ã³w
ĠM ali
Ġta cy
bi jski
Ġ7 6
Ġszero kie
Ġbada jÄħc
Ġzwo l
Ġilu stra
ty zm
sy st
Ġgo ÅĽcie
ej ÅĽcie
wiÄħz ania
ĠSo cja
ĠwrÃ³ ciÅĤ
Ġuwie rzy
Ġw enty
Ġz mysÅĤ
Ġpo mp
Ġwar unk
ĠJed na
ĠMi ss
Roz wi
Ġwydaj ne
Ġuro dziÅĤ
ĠSÅĤo ÅĦce
ĠprÄħ d
S P
ÄĻ ÅĤa
Å¼ nÄħ
Ġbezpie cze
Ġlek cje
ĠksiÄħÅ¼ ce
Ġnor ma
Ġdia le
ĠwczeÅĽniej sze
Ġlotni czy
ĠKrak owa
Ġzidentyfik owania
nie mie
pi tal
res h
ĠpeÅĤ niÄħ
Ġzastos owaniu
Ġnajlep szego
ĠSte ve
Ġunik anie
RozwaÅ¼ my
Ġwali dacji
ĠGio van
T er
Ġz by
no logii
Ġli fe
ĠZ d
Ġgra Äĩ
Ġodkry wanie
Ġrozsze rzenie
Ġregres ja
Ġliterac kie
additional Properties
ty godni
ĠW szyscy
ĠU pro
Ġha szu
ĠsÅĤu sz
Ġstandar dy
p tr
Ġz gody
Ġza bud
Ġwy rÃ³w
lo nie
Ġin styn
ur se
Ġos cy
ĠLe o
Ġutwo rzenie
Ġdrz wia
znacz my
Ġdo ros
Ġka mienia
Ġbez pÅĤa
ĠKa wa
Ġorgani zm
Ġisto tnoÅĽci
ĠkÄħ ty
Ġtransp or
Ġkwant owej
ĠPortuga lii
ĠT oru
Ġtra ge
Ġne xt
ĠÅĽci s
Ġ24 0
ĠspÃ³j nÄħ
ĠwyrÃ³Å¼ niÄĩ
Ġmian ownik
) `,
Ġka mer
Ġwa ga
di r
zumie m
Jed no
ĠPi tago
Ġbiz anty
Ġelektry cznego
Ġzacho dzie
Ġchmu r
ĠEr ne
Ġspodzie waÄĩ
Ġ queue
en cie
Ġzna kiem
Ġsy noni
Ġnor m
Cz ÅĤonkowie
Ġumiar k
ĠBibliote ka
Ġz ÅĤe
ko mi
ĠCh ris
ĠTwo rzenie
ĠRe wolu
ĠJo anna
lik wid
Ġszero kim
Ġkrzy wÄħ
Ġuli ce
la dy
da Å¼
Ġl ow
Ġsuger owaÄĩ
ĠokrÄĻ tu
ĠGÅĤÃ³w nym
U T
ĠU E
Ġce bu
el se
Ġotrzy m
ĠNaj bardziej
Ġlini owÄħ
Ġher ba
Ġane g
Ġi grzy
cy tÃ³w
za cjÄħ
sÅĤu ch
ĠĠĠĠĠĠĠĠ čĊ
ĠpoczÄħ tkowych
Ġmniej szoÅĽci
Ġprojekt owaniu
Ġchoro bÄĻ
Ġner ki
Ġpasu jÄħ
ĠPale sty
h and
ro Å¼y
Ġpo glÄħdy
Ġdo zwo
Ġa pe
ĠB il
Ġde kla
âĢĿ ),
ĠÄĩ wier
Ġpierwo tne
Ġogro dzie
Ġzaprezent owaÄĩ
p mod
Ġprze ÅĤoÅ¼
wi sz
fi gur
ĠB r
ĠB iu
ĠDo ro
Ġwielo aspekt
Ġjaki mi
Ġfrancus kiej
Ġpotwier dziÄĩ
Ġalge bry
Ġniezn ana
Wi taj
ĠdalekosiÄĻ Å¼ne
ĠK ie
ĠK lasy
Åº nia
al noÅĽÄĩ
ĠsÄħ dzisz
ÅĤÄħ czenia
ĠCh ro
Å¼o nym
ĠkÄħ pie
Ġmaksymal nej
Ġdefini cjÄĻ
ĠdziesiÄĻ cio
Ġwspania ÅĤe
Ġhan del
g ers
r m
y d
Ġroz ko
Ġpolity ce
ard Ã³w
Ġwprowa dzeniu
Ġkonie cznie
Ġsil nym
Ġpoja zdy
Ġska ÅĤ
Ġzwro tnej
Ġzre alizowaÄĩ
ĠPer u
Ġznie chÄĻ
je wski
gÅĤ ych
zie nie
Ġkonkre tnie
Ġpotrzeb ny
ĠtwÃ³r ca
ĠopÃ³Åº nienia
ĠCol le
Ġarche olog
inf ty
) **
T ransport
Ġna sy
Ġa x
Ġprze mawia
Ġod gry
Ġma ka
ĠK od
Ġkur sÃ³w
Ġprywa tnych
Ġniezn ane
qu a
Ġinter netu
Ġrozpo znania
Ġstandard Ã³w
Ġdoskona ÅĤÄħ
ĠjakÄħ ÅĽ
ĠopÅĤa ty
ĠwyciÄħg nÄħÄĩ
ĠzagÅĤÄĻ bia
Ġd re
Ġwy prawy
wo da
ĠR ec
Ġde lega
Pro gram
Ġzo o
Ġzbud owany
ĠÅĤad owania
la ta
jÄĻ ciu
ĠE du
Ġ4 7
dzÄħ cy
Ġzapis u
ans Ã³w
Ġkoszy kÃ³w
Ġgen Ã³w
Ġjezu ita
ĠAgnie szka
ĠW nio
cie ÅĦ
ĠC er
do s
Ġbo ok
Ġzdr owych
Ġmuzy cznych
Ġotwar cie
ĠstaroÅ¼y tne
Ġnowoczes nych
ĠprzesÅĤ anek
Ġinteres Ã³w
Pierw sze
Pu bli
Ġkoor dyna
a pi
dz two
ĠA R
ĠPo za
ĠnastÄĻpu jÄħcym
ĠAr tur
ĠPod rÃ³Å¼
Ġpoli cji
Ġzmu szajÄħc
Ġtri um
Ġste reo
ĠInstytu t
Ġw skutek
Ġpo gor
Ġna ÅĤad
ĠP rowa
Ġmi g
Ġinstru menta
Åļ wia
Ġakapi cie
Ġprzechowy wane
Ġa spira
wa t
ĠM ass
ĠmÅĤo dzieÅ¼y
Ġmoc nych
Ġwynika jÄħce
Ġponad to
Ġtry bu
syn c
ĠwierzchoÅĤ kÃ³w
c ana
Ġt rzu
sie d
ĠTe go
Ġku pu
ĠÅļ redni
dzÄħ ce
ĠDla czego
ĠSte ph
Ġtajemni cÄĻ
Ġosobist ej
ĠCar los
ild ren
rec tory
Ġprze bud
ĠF ri
Ġga me
Ġnag rodÄĻ
Ġserc owo
K S
Ġpo stu
Ġna rzu
Ġna cjona
ĠW prowadÅº
pe t
Ġwyso ka
mar k
Ġznalezie niu
Ġzdefini owana
c cess
Ġd anie
ro dzenia
czÄħ tk
Ġfa ktÃ³w
ĠPe ters
ĠmiÄĻ ÅĽnia
Ġspotk aniu
Ġcia sto
ĠuwzglÄĻd nienie
Ob ecnie
ĠwystÄħpi ÅĤ
ĠwspÃ³ÅĤczes nej
Ġjaj ka
A b
Ġwy kracza
ĠG ry
ste ÅĽmy
ĠMa jÄħ
Ġszuka jÄħc
Ġwod ne
ĠobciÄħ Å¼enie
Ġiter uje
Ġkryzy su
ĠwÄĻgl owod
ĠwnÄĻ trza
ÅĤ ow
Ġz suwa
Ġcie szÄĻ
ĠÅļ le
Ġzn anÄħ
ĠAu to
ĠSu ma
ĠzginÄĻ ÅĤy
Ġsio stry
Ġdystrybu cji
ĠPK B
ĠÅĤyÅ¼wi arka
ra ktery
mi cznych
Ġnie kiedy
Ġ5 1
ĠwaÅ¼ noÅĽÄĩ
Ġunika lnego
Ġdziedzi ctwo
Ġfun ction
ĠzaÅĤo Å¼eniu
ĠSta tes
par se
Ġhy bry
Ġchmu ry
Ġulu bio
ĠFir my
Ġjakiego ÅĽ
Ġasyn chroni
ĠteraÅº niej
Ġkoleg Ã³w
ĠÅ¼uÅ¼l owiec
f fer
Ġo ri
Ġpo u
ko na
ĠL ar
ĠdÅĤugo trwa
Ġkosz ul
Ġprzeciw nika
Ġryzy k
ĠczÅĤon ka
ĠZie mia
Ġu tru
Ġu stawienia
bo dy
Ġ$ ,
Ġra j
ĠAugu sta
Ġdobrostan u
Ġm Ã³c
Ġspo tyk
Ġprzesz k
ĠzwiÄĻz ÅĤego
Ġinstru mentÃ³w
Ġchi ÅĦska
Ġpojawi ÅĤ
Mi mo
Mu szÄĻ
ĠPacyfi ku
n owi
t ti
Ġwyda rzeniu
Ġstra chu
Ġemocjonal nych
Ġkultur owego
ini cj
Ġsez onu
ĠuÅ¼ytkownik owi
ĠCels jusza
Ġna je
Ġod b
Ġe nig
ĠN u
mo re
czes na
Ġpowierzch niÄħ
Ġpowsta jÄħ
Ġkole kcji
Ġkor pora
ĠOrgani zacji
Ġbakter ii
Ġu kazaÅĤ
Ġje Åº
ali zuj
Ġbezpie cznie
Ġwizu alnie
ĠzwierzÄĻ tami
Ġreprezent owane
Ġniejedno zna
I P
] <|
le st
owa lne
Ġin tym
kre ÅĽ
ĠU n
Ġlo dow
ĠDo e
log Ã³w
liz owania
Ġkontek stach
ĠciÄĻÅ¼ kiej
Ġdaw ce
Ġblo ka
Ġwod ny
ĠAlex ander
ĠmaÅĤÅ¼e ÅĦstwa
Ġkompa kt
wi na
ani tar
pi ka
Ġwa y
Ġor kie
Ġtrze ciÄħ
Ġgene ralny
Ġho st
ĠzaÅĤo Å¼yÅĤ
Ġprojekt owanie
Ġstanowis ku
Ġjab ÅĤka
Ġszpita la
Ġpopar cie
munika cja
gwa jski
h or
ek la
Ġcy lin
ĠLi te
Ġoznacza Äĩ
Ġtem pa
Ġgenera ÅĤa
ĠchÅĤo piec
Ġprzedstawi one
Ġcount ry
Ġwzboga ciÄĩ
Ġmetropo lita
Ġw stawi
bi ut
ĠRa do
Ġplan ujesz
Ġzasa dami
Ġdzi kiej
Ġregular nego
Ġpartner stwa
rÄĻd koÅĽÄĩ
le tu
Ġprzy noszÄħ
Ġde le
pro sto
Ġry tm
ĠzaangaÅ¼ owany
vi de
jczy kÃ³w
Ġwywnio skowaÄĩ
z nÄħ
ne ga
Ġob ia
ha sh
red niej
Ġbud owie
Ġl Å¼ej
Ġpopra wa
ĠpodrÃ³ Å¼e
Ġsio stra
prawdopodob niej
ÅĤ owi
Ġprzy ci
Ġek ran
Ġzw ÄĻ
ĠRo d
Ġprzeci n
Ġkro tek
Ġlisto padzie
Ġmechani zm
Ġobo zu
Ġbieg un
ĠMc C
Ġwy strze
Ġprze bywa
at tle
di mir
Ġmuzy czne
ĠtÅĤu m
Ġprzech wy
Ġnormal nego
} :
Ġko rea
ist ot
Ġob raca
ĠSt are
Ġpoko leÅĦ
ĠPra cy
Ġdoskona ÅĤe
ĠnajwyÅ¼ szym
Two rzenie
Ġobserw owaÄĩ
Ġparzy ste
ĠpoÅĤudniowo korea
c tive
ÅĽ ÅĦ
lo nii
de ta
Ġe mpiry
ĠG rand
Ġmia ra
Ġprodu kuje
20 20
ĠspÃ³j ne
Ġprywa tnoÅĽci
listy cznej
Ġoszac owaÄĩ
8 00
U ni
p cji
po s
Ġwol nego
tt on
ĠnajwiÄĻk sza
Ġwizu alne
ĠPow szech
ĠdowÃ³dz twem
Ġs wym
ĠZ ofia
szcz anie
Ġsuger ujÄħc
ĠwÄħ tki
Ġdrob ne
Pierw szy
* ,
ÄĻ b
io m
ĠwiÄĻ Åºni
forma cji
âĢ¦ âĢ¦
ĠgÅĤÄĻbo kÄħ
ĠkrÃ³t kich
ĠzwyciÄĻ z
k lÄĻ
s owa
w na
ni cznych
Ġk ina
Ġpa sji
pie niem
Ġsamo lot
mian in
ĠFe de
ĠnajwyÅ¼ szy
Ġnaro du
ĠwyksztaÅĤ cenia
ĠkÅĤo po
Ġkolek cj
ã Ĥ
ĠA M
Ġty ÅĤu
Ġsz Ã³
Ġmar gra
Ġzapobie gaÄĩ
Ġdopas owanie
Ġpotrafi Äħ
ĠodÅ¼yw cze
Ġprze nika
ĠG Ã³ry
ĠuÅ¼y ty
ĠAnd rea
ĠrÃ³wnowa Å¼ne
Ġekonomi cznych
ĠÅĽlu z
Ġmaksi mum
' ;
Ġs fery
ar ta
Ġwy war
Ġor der
Je go
Ġzawiera jÄħcÄħ
Ġkatoli cka
ĠBer linie
tri bu
Ġwybr anych
Ġfundamenta lne
Ġrozwij aniu
tyku ÅĤ
Ġprze wagÄĻ
un ta
Ġwie ki
Ġ3 60
name s
ĠLe wi
Ġbe ta
com merce
ĠÅĽcie Å¼ek
Ġprzechowy waÄĩ
Ġnapo jÃ³w
Ġgramaty kÄĻ
Ġpo ci
Ġza mek
ĠW artoÅĽci
czas ie
ek sa
Ġpraw nych
Ġcy r
Ġczyn nika
Ġszko ÅĤa
Ġuro dzeni
Pierw sza
ĠskÅĤon ni
Ġbiblio tek
Ġzgin ÄħÅĤ
Ġp ur
ĠF al
Ġdom owej
ĠRob o
Ġpostrze ganie
ĠpomaraÅĦ cz
Ġo dzieÅ¼
ĠD en
ers ja
ĠLi p
ĠHe lena
ĠoÅĽ wie
Ġbiznes owe
Ġpowia da
Z am
b ri
go sÅĤu
sk Ã³r
Ġcze ska
Ġmuzy ce
Ġpodzie lna
Ġkryty cznym
inter pre
ĠRad io
d ane
w ory
an in
ĠS pi
Ġlu tym
Ġ12 3
Ġbra ci
Ġoce ani
Ġograni czona
ĠpÄĻ k
Ġdotar ÅĤ
Ġtopo logii
f fa
ĠÅ ł
Ġzmie niÅĤ
Ġozna czenie
Ġmili ony
Ġznajd owaÄĩ
ĠwzglÄĻd noÅĽci
Ġteore tyk
cum ent
Ġprzy niesie
Ġpro stym
ĠÅ¼y wy
ĠAn dro
Ġpotencja lnym
Ġopis owego
ĠAu stria
Ġmedi anÄĻ
ĠsÅĤone czna
Ġkompleks owy
Ġdostrze ga
Ġem patii
N owa
z mie
Ġwy mu
ko p
ĠP Z
Ġro py
wi r
ter Ã³w
Ġznale ziono
Ġgospodar czej
ĠpÄĻt lÄĻ
Ġnowoczes ne
Ġzdrowie m
Ġobo je
Ġautenty czne
Ġmole kular
Ġwie Å¼y
ĠH onor
Ġpubli czny
Ġpoprawi one
Ġpowodu jÄħ
ĠBe at
Ġrzym sko
Ġprzetest owaÄĩ
Ġrozw inÄĻ
Ġforte pi
m ski
ti cal
dni ka
ĠE lekt
rza ÅĤa
hi p
Ġwykon ana
Ġopowie dzieÄĩ
Ġregi onÃ³w
Ġsygna ÅĤy
ĠmiÄĻdzynarod owej
ĠpoÅĤudniowo a
i ÅĤa
Ġwy siÅĤek
lo is
Ġpre para
ĠsÅĤa bo
ĠduÅ¼y mi
e lekt
g ard
ci orys
Ġopera cyjnego
Ġzda jÄħ
ĠP Ã³Åºniej
ĠO bywa
ĠÅĽwie tne
Ġwiel owymiar
ĠRoz wÃ³j
poÅĽ rÃ³d
Ġteor ie
cdot s
Ġspowod owaÅĤo
Ġczerwo ny
ĠpublicznoÅĽci Äħ
Ġpromo cji
Ġreda k
ĠCaÅĤkowi ta
Ġpo kro
le nek
ĠG wia
Ġpow ol
Ġnaj p
Ġczas owe
Ġkro kami
Ġniespo dzi
Ġwarsza wskiego
D F
P an
y n
Ġza ska
Ġprze mian
ry n
ĠI T
Ġdy sko
Ġkombina cje
Ġodcin kÃ³w
ĠÅ¼Äħd anie
Ġpodca stu
Ġture cki
ÅĽwiÄĻ t
K ul
pa lindro
ĠD anii
Ġba terii
Ġwe ge
ĠamerykaÅĦski m
Ġbezpie czny
Ġwojs kowych
Ġkoncep t
Ġopu szcza
Ġwio ski
Sz tu
ĠâĪļ (
Ġkalenda rz
Ġma de
bli ca
ing er
Ġsi ÅĤami
ĠpoczÄħtk owy
ĠposiÅĤ ki
ĠpomyÅĽl nie
Ġsiedli sk
M usi
S L
st ant
mi ÅĤ
ma tor
us u
Ġek spo
ĠwpÅĤy wie
it z
Ġreprezenta cja
Ġautomaty zacji
Ġaustra lijska
f ak
dzie ja
Ġra per
Ġ8 4
Ġuczy nienie
ĠSy m
Ġdaw na
ĠÅĽwiÄħty ni
ĠApo sto
g aniu
na rzÄħ
Ġna ÅĽlad
|> "
ĠP C
Ġpod nieÅĽÄĩ
ca ses
Ġci ch
Ġtrady cyjnej
Ġche mii
ĠpÃ³Åºniej szych
Ġeta py
Ġimplika cji
Ġmotywa cjÄĻ
Ġwczes nym
Ġoblicza my
ĠpudeÅĤ ka
ĠwÄĻdrÃ³w ki
Ġeksplo a
ĠBrazy lii
D aw
Ġko ja
ĠS un
ĠC lar
ĠK liknij
Ġsz ar
ĠnastÄĻpu jÄħcej
Ġnum py
ĠczÄħ stecz
ĠRegular nie
I mp
P ier
ĠW H
ĠK wa
stu dent
lan g
ĠzwiÄħz anymi
Ġdoda jemy
Ġzdr owego
ĠWarsza wskiego
Ġgre ckiego
Ġ185 9
Ġodchy leÅĦ
ĠWz rost
Ġudoskona liÄĩ
Ġniena wi
Ġkon wen
Ġsta wu
ĠWy niki
ĠWa le
Ġtyp owe
Ġwers je
Ġnatural nÄħ
Ġotwar ta
ĠczÄħ st
Ġniewiel kie
E C
ne zy
ĠT V
pra wia
ĠIn nym
Ġisto tÄĻ
Ġpoprawi ony
Ġczytel noÅĽÄĩ
ĠBy ÅĤy
Ġak cent
Ġoba j
Ġzgod na
Ġutra tÄĻ
ĠrÃ³wnoleg ÅĤe
Ġgluko zy
dz kich
by Äĩ
Ġsz u
Ġ8 1
Ġwyra fin
ĠbÅĤ on
ĠTy lko
ĉĉ ĉ
ĠLo ka
add ress
ĠIr landii
z owanych
Ġwz ru
Wy d
ot ÄĻ
ĠmÃ³w ie
Ġnatu rze
Ġrela cjach
Ġelekt ronÃ³w
Ġprzysz ÅĤy
Ġkwiet niu
ĠnajwyÅ¼ szÄħ
Ġekscytu jÄħce
E dukacja
p ni
Ġa lu
pa ty
Ġlicz nik
Ġnaj gor
ĠV ol
Ġmiesz kania
ĠwspÃ³ÅĤpra cÄħ
com mon
Ġstandard owym
Ġkombina cjÄĻ
Ġreje str
) *
i zmu
ÅĤ owski
Ġd niem
Ġf ry
Ġprzy chodzi
ga me
Ġczas owej
Ġgra cze
Ġsko ja
ĠzaÅĤo Å¼yÄĩ
Ġodby ÅĤy
Ġpomi d
rÃ³bu jÄĻ
ĠMed i
Å»y ciorys
d owego
ĠJe ff
Ġce rami
Ġok ru
Ġpopular noÅĽci
Ġodwro tnie
ĠzÅĤ owro
Ġuru cham
Ġz em
ĠS prze
dzie siÄĻ
ĠJ ona
nal d
Ġefektyw nego
bonac ci
ĠdoÅĽwiadcza Äĩ
Å Ļ
Ġpa sj
Po mimo
Ġhistory cznego
vi ty
Ġtabli c
Ġprezent er
ĠPrezyd ent
Ġp szcz
Ġw szÄĻdzie
Ġna pa
ĠE dy
stÄĻp ne
Ġwa m
fa ce
Ġcy ta
Ġstra t
usi ness
Ġotwo rzyÄĩ
Ġgrawi tacji
V ID
Ġwy prowa
ĠZa zwyczaj
Ġameryka ÅĦskie
liz owanych
Ġcy try
Ġpisa rza
Ġrozwija jÄħ
ĠKana dzie
Ġstoli cÄħ
Ġdoj ÅĽÄĩ
a jÄħc
Ġnie ÅĽ
Ġko rona
Ġfa ktory
Ġtrze cia
Ġwra Å¼liwe
Ġab sor
ĠmiÄĻdzynarod owe
Ġgrawi ta
s kow
en queue
ĠB ol
zu jÄħcym
Ġpom nik
Ġfoto synte
Ġwirtu alne
* }
e ner
j one
ÅĤu dnia
ĠrÃ³w nych
ĠmÃ³ rz
ĠBi g
ĠFa hrenhe
Ġrobo tni
Ġki j
Ġwnio sk
lo sa
Ġko pii
nÄħ ÅĤem
Ġ6 6
ĠwyÅ¼ szÄħ
Ġcodzien nie
Ġsin us
Ġodej mujemy
ĠmyÅĽla mi
Ġbotani k
p ÅĤ
s no
cza ÅĤ
ĠMo je
ĠÅĽrod kowej
onÄħ ÅĤ
ĠKrzy Å¼em
jczy cy
O pera
Ġz li
Ġod wzor
Ġpod nie
Ġre quest
Ġ" ,
ĠzwiÄħz anym
Ġdy sp
Ġzasa dÄĻ
ĠGu sta
Ġformal nie
wani om
ĠIzra ela
I F
ni cza
Ġa fryka
ĠS ara
al noÅĽci
Ġsta wki
Ġni czym
Ġra tun
Ġbo gi
Ġmu ch
stro no
Dla czego
Ġniebie ski
Ġodwro tnoÅĽci
Ã§o is
j nie
p owiada
Ġod not
Ġrze kÄħ
ĠbÄĻdÄħ cy
Ġsce nie
ĠpodkreÅĽla jÄħ
Ġprzechowy wanie
Ty p
Ġznajdzie sz
sz Ã³w
Ġa kt
ĠL is
co me
per ty
ĠKon rad
Ġzwro tne
Ġrozsze rzyÄĩ
Ġpowia t
Ġreje stra
Ġfunkcjon owania
Ġnadu Å¼y
Ġbasebal lista
z du
dy jski
du nek
ri an
ĠzÅĤoÅ¼ onym
Ġwiel ka
Ġmis jÄĻ
Ġzatrzy maÄĩ
Ġhistoria mi
Ġwypad kÃ³w
ĠÅĤyÅ¼ wiarz
ĠGiovan ni
O f
S ze
` )
l ono
ani m
ĠG dzie
Ġtak e
ĠPa s
Ġpie ÅĽni
Ġzapa sÃ³w
Ġwiarygod noÅĽci
ĠuwaÅ¼a sz
Ġpogod owych
ima ge
ĠSuger uje
Ġprze ÅĽlad
sa rz
ÅĤÄħ b
ste ina
Ġra cjonal
pre fix
Ġsil nych
Ġaktyw ne
ĠdoÅĽwiadczenia ch
Ġblo ga
Ġdal szÄħ
Ġtry b
ĠJack son
Ġzyska Äĩ
Ġwery fikacji
Ġdo puszcza
Ġza gi
Ġu prawi
Ġmo mentÃ³w
Ġte o
Ġprzy cisk
Ġme t
Ġek ranu
Ġwe ne
tyw nych
Ġsek cjÄĻ
Ġrosy jskiego
Ġopar tego
ĠSzwajcar ii
i b
Ġs kÅĤadu
ro ka
Ġza mach
ĠG Ã³ra
Ġop or
Ġau dy
Ġsze fa
Ġse a
ĠÅĽwiat ÅĤem
Ġopera cyjne
ĠÅ¼yw noÅĽÄĩ
ĠpotÄĻÅ¼ ny
Ġkwestion owaÄĩ
c onÄħ
g owa
Ġwy powie
ĠS kar
Ġpro mienia
ani om
Ġch ory
Ġka sz
Ġde k
be th
Ġpozosta ÅĤ
ĠwÅĤaÅĽci ciela
Ġspra wach
Ġpopra wiajÄħc
Ġpart nera
Ġwido cznoÅĽÄĩ
Ġzy ski
Ġnarod owych
Ġdelika tny
ĠNor th
Ġrozumie Äĩ
prawie dli
ĠMaÅĤgorza ta
Ġprzeszk Ã³d
z wi
Ġ Â°
re ali
ĠP rus
Ġja z
ĠZ miana
ĠO pis
Ġwi ta
Ġ18 50
ĠÅ¼y wieni
ona mi
ĠDo ug
ĠniÅ¼ szych
Ġopis ujÄħ
Ġstwier dzeÅĦ
ĠUÅ¼y wanie
ĠuwaÅ¼ ana
Ġdrze wie
ĠzaczÄĻ ÅĤo
Ġkomputer owych
ÃŃ n
ĠChi ny
Ġnowoczes nej
korzy st
Ġprofesjonal ny
Ġprzetr wania
Ġkal kula
Ġmaci cy
p tu
ta ki
Ġwie lkopol
owaÅĤ bym
Ġszyb kim
Ġpotra w
ĠMat ki
zj um
Ġkonsekwent nie
K u
me ni
ĠwÅĤa dza
ĠIn terna
Ġprawdzi wym
ĠBe a
Ġanty ko
Ġkreatyw nych
Ġmobil nych
Ġmisjona rz
r owaÄĩ
Ġsp owol
Ġpowo dy
Ġrozpo zn
ĠJu lian
Ġfe ed
Ġhel p
[ -
Ġw cale
Ġza Äĩ
ta s
ĠS oph
owy wanie
Ġkon tu
ĠF un
Ġgru zi
ĠNie pod
ĠAr genty
ĠciÄħg ÅĤa
Ġfinans owÄħ
Ġmiar Äħ
Ġzaba wy
\] <|
ĠÏ ĥ
Ġkomenta rze
ĠDoda ÅĤem
m und
Ġz bu
dz kim
Ġ5 8
Ġauto stra
Ġotwar cia
Ġbinar ne
Ġsamolo tÃ³w
Ġye ars
O D
m ÅĤod
Ġna czyni
Ġu wiÄĻz
ĠI grzy
ĠZa py
ĠÅĽrod kiem
Ġkonie cznoÅĽÄĩ
chu nek
Ġwykorzysty wany
ĠÅĽwiÄĻ to
ĠzwiÄĻksza Äĩ
Ġglobal ne
ĠCzerwo nej
ĠGau ssa
Z de
d entÃ³w
u szy
Ġko tÃ³w
ga s
Ġwi dziaÅĤem
Ġzach owaniem
Ġobec nym
ĠbÅĤÄĻd ne
Ġsport owe
Ġzni szczenia
wid th
Ġwdro Å¼enia
ĠEx ception
li ki
Ġpraw dÄħ
Ġbi lety
Ġkosz tu
Ġzie mianin
ĠBa zy
Roz wÃ³j
Ġdom owego
Ġzgod noÅĽci
Ġrozu mienia
ĠMon go
âĪ Ĵ
Ġdoprowadzi ÅĤa
Ġrozumie m
ĠiP hone
d rze
wi sta
ĠW spom
Ġzie lonych
daw ca
ĠRoz wi
ĠmyÅĽli wski
ĠOb ec
ĠpostÄĻp owanie
Ġpojedyn cze
Ġflo ty
wa ys
ĠB et
Ġlo du
Ġwyda waÅĤ
Ġcho le
Ġbra Äĩ
Ġplan uje
Ġtam tej
Ġinstru menty
ĠÎ »
den sa
Ġnarod owej
Ġzat ÅĤo
Ġinteresar iuszy
Ä ĥ
Ġa ser
la ÅĤ
ciÄħ gaÄĩ
ĠZa uwaÅ¼
Ġkla tki
Ġgro Åº
fry kaÅĦski
dyscypli nar
n on
t re
Ġprze mocy
Ã³b r
Ġbo les
sc end
Ġposia daÄĩ
ĠspoÅ¼yw czych
Ġnastro ju
M Ã³j
s owej
ow ers
en cer
Ġza cie
Ġwy dziel
ca j
Ġroz miarze
cki ng
Ġal baÅĦski
ĠwÅĤaÅĽci cieli
ĠY ellow
ĠAnd rew
Ġmedy tacji
Ġotwar tych
ĠBank Account
JÄĻzy k
pote za
Ġ ).
ĠP s
ĠZ naj
kow skiej
UÅ¼y cie
ĠDo kÅĤad
prez entu
Ġcon sole
ĠÅĽle dzi
Ġczar ny
Ġkonsu mp
Ġzbro dni
ĠzamÃ³wie ÅĦ
Ġir lan
Ġrowe rze
ĠjÄĻzyko znawca
S et
v ier
ar ning
ka ta
ku jÄħcy
sza ÅĤem
Ġ$ |
ck e
Ġzro bienia
ĠFran ces
ĠmÅĤo dej
ĠrÄĻ czny
Ġulep szenia
plan uj
re z
Ġna tÄĻ
Ġsz kie
Ġregu l
Ġrela ks
Ġlisto pad
Ġziemi Äħ
Ġmody fikacji
ĠTay lor
g la
t is
Ä Ľ
ni aniu
ni czej
ro ÅĽÄĩ
Ġf el
Ġko ro
ĠO soby
Ġ5 3
maty cznych
ĠzÅĤoÅ¼ onej
chi um
a ther
Ġo mawia
wa lny
Ġc atch
Ġe cho
id er
Ġunika j
wz glÄĻdni
ĠDa w
Ġkata liza
ĠprzeÅĤo mie
ĠTech nologia
Ġniesamowi te
Ġa do
Ġob rÃ³b
mat ch
Ġpozio mach
Ġwspom ni
ĠBar ce
Ġnieo ce
Ġwytrzyma ÅĤoÅĽci
Ġchcie Äĩ
Ġegzem pla
A meryka
u ght
â Ĥ
Ġs kÅĤadzie
re place
Ġu lo
ÅĤa j
Ġnie win
Ġli niÄħ
ana ger
Ġpl anie
ĠobsÅĤu ga
Ġuli c
Ġzaprojekt owana
ĠnastÄħpi ÅĤ
Ġustanowi Äĩ
ĠwiÄĻzie nia
ĠdÅĤo ni
Ġsied miu
ĠAda ma
Ġza miar
to mia
Ġce chami
ĠWy da
Ġwyda ÅĤa
Ġgospodar stwa
Ġzapobie gania
Ġrozum owanie
a ÅĤa
Ġz ma
li mit
my mi
ĠJ ones
tru e
ĠwynoszÄħ cy
ĠStef ana
Ġinstytu cje
Ġpomie szczenia
Ġtechnologi Äħ
K lasy
Ġp lo
Ġw czeÅĽnie
Ġod miany
ĠH ist
Je Å¼eli
Ġne o
Ġarty styczne
ĠFran z
ĠRu dolf
Ġstruk turÄħ
Ġekspery mentu
ĠwypeÅĤ nia
Ġzakon u
My ÅĽlÄĻ
ĠÅĽnie gu
e vent
Ġdo ÅĤÄħcz
Ġza mienia
rzy ÅĤy
skie mu
ĠPo znaniu
ĠU czest
ĠmiÄĻdzy czasie
ĠRe gi
Ġprzysz ÅĤego
Ġwspom nienie
Ġdie ce
Ġdziel nik
Ġenume rate
ĠPitago rasa
ĠZ wie
Ġkon fe
Ġgru be
20 21
Ġskute cznych
Ġprzeprowa dza
Ġdowo du
ĠwystÄħ pienie
Ġprzekazy wania
Ġout put
Ġnajnow szych
Ġbrzu sz
Ġkwi tnÄħ
u er
ia s
ist s
Ġby wa
Ġob fi
ĠG y
ĠH IV
ĠJe szcze
co nego
ĠWie m
Ġwol nym
ĠzaangaÅ¼ owanych
ĠmÄĻÅ¼czy Åºni
ĠFace book
Ġs ery
mi Äĩ
ce um
it ar
ĠpÅĤy nu
Ġtrzy maÄĩ
Ġcon tin
ĠbÅĤÄĻ dach
Ġkole gami
Ġblo kÃ³w
Ġsia tkÃ³w
Ġdowol nych
Ġlabora tory
Ġaud io
c ord
Ġk lik
le ss
dy ka
ĠÅĽ lub
ĠgÅĤo sy
ĠgÅĤÄĻbo kim
Pro ces
Ġsport owych
Ġwspiera jÄħce
Ġwscho dzie
âĪ Ĥ
Ġintro spe
Ġuwierzy tel
Ġwy trwaÅĤ
Ġma z
ÅĽci Äħ
th y
ĠciÄħg ÅĤy
ĠspeÅĤ nienia
Ġuczest nicy
Ġgot owa
ĠKu la
Ġsen su
ĠwstÄĻp ne
ĠspoÅ¼y cia
sso cia
stop owej
Ġprzereda g
ty ny
Ġmo imi
Ġpa ch
Ġniez li
ĠLu ksem
ĠSe ba
dÅĤu go
Ġnawy kÃ³w
Ġlim fo
ĠrÃ³wie ÅĽ
E mpty
Ġni skim
Ġok no
Ġkolej nym
Ġnor malne
Ġzestaw Ã³w
Ġszero kiego
Ġwyd any
Ġlep szych
Ġodpowiedzia lne
Ġmas ÄĻ
Ġciekaw oÅĽÄĩ
Ġf ur
du ra
Ġ6 2
Ġosta tnia
Ġkonkre tnÄħ
Ġszko dy
ĠpeÅĤ niÅĤ
Ġper fe
Ġwysp ÄĻ
Ġfesti walu
F F
M ak
ia ÅĤo
Ġprze nieÅĽÄĩ
Ġe very
no ta
Ġpod nosi
Ġor mia
Ġku lek
Ġpodstaw owego
Ġbie giem
Ġbran Å¼ach
Ã¼ r
Ġutrzymy waÄĩ
Ġprecyzyj nego
Ġfascynu jÄħce
Ġnaczy nia
ĠoÅ¼y wiÄĩ
ĠprzejÅĽci owych
S pe
Ġo cho
nie ni
Å¼y na
Ġe ro
ĠU trzy
Ġaktu aliz
Ġucie czki
Ġrezer wacji
ĠI nicja
Ġpole cam
Ġdostar czanie
Ġprawdzi wej
Ġtrud nym
Prze ksztaÅĤ
ĠÅĽmier ciÄħ
tic s
Ġwojen nych
ĠmiesiÄĻ cznie
Ġhor mo
Ġinit ial
G ro
Ġz nika
Ġm leko
ĠC ra
ĠO limpi
Ġmu st
Mo del
Ġkomunika cyjne
Ġzmienia jÄħc
Ġprzewi dzieÄĩ
Ġnazy wana
Ġinteresu jÄħcych
ĠCze sÅĤaw
ĠPla t
vis ion
ĠAlgoryt m
Ġnasto la
Ġskutk owaÄĩ
ĠG on
Ġczas ownikÃ³w
Ġ} );
ĠdokÅĤad niej
ĠBu ÅĤgar
Ġfunkcjonal noÅĽÄĩ
Ġwy kazaÄĩ
ÅĦ czyk
Ġba sen
gÅĤ oÅĽ
Ġstwier dziÅĤ
pp ing
Ġboga tej
Ġzre wid
ĠMich el
Ġlini owego
Ġgeometry czne
kin gu
Id enty
ĠBydgo szczy
H P
I miÄĻ
Ġdo sÅĤ
Ġmo to
Ġprzy pada
Ġwi zjÄĻ
Ġok rÄħ
Ġhe re
Ġsub skryp
Ġwprowadz one
ĠwÅĤad cy
Klucz owe
Ġodse tek
S am
le sa
Ġdo ktry
pad ÅĤ
ĠKo szt
Ġobie ktami
ĠWiel kanoc
Ġinstan cji
p ur
Ġe ven
ĠPo st
ĠWy wo
Ġ9 6
Ġfran kÃ³w
Ġzapo czÄħtk
ĠgÅĤÄĻbo koÅĽÄĩ
biera jÄħc
Ġnormal nym
Ġholender ska
Ġpojem noÅĽÄĩ
Ġkomfor towo
Ġobwo du
Ne w
Num er
palindro me
% ),
t wy
sz aniu
Ġg ieÅĤ
ĠZ im
ĠZ aÅĤÃ³Å¼my
Ġba tali
Ġsh ow
Ġzabezpie czenia
ĠEmi lia
ĠÅĽrednie go
Ġdzia d
ĠMikoÅĤa ja
prosto kÄħ
O C
Ġdo min
art h
Ġre ha
Ġroz bie
ĠIn stru
Ġpis em
Ġsekre tarz
ĠWilliam s
Ġzapotrzeb owanie
Ġdop Ã³ki
a th
e xt
Ġwy czu
ĠI miÄĻ
mp to
Ġnapis any
Ġkompu tery
ĠPar la
Ġ185 8
Ġwierzcho ÅĤka
ĠnagÅĤÃ³w ek
\ \
Ġe vent
ĠB ona
ĠWy ÅĽwiet
rac ter
ĠtÄĻ sk
Ġ& &
Ġalge brze
Ġniebezpie czeÅĦstwa
Ġnaci skiem
ĠOsta tni
X V
le vel
Ġkon soli
ĠF lory
Ġsy nem
Ġmatematy cznego
ĠpowiÄħz anej
ĠpoÅĽwiÄĻ ciÄĩ
Ġminimal na
ĠSamu el
: ")
L D
{ -
Ġre ad
Ġ7 00
Ġsku pienia
ĠpiÅĤ kÄĻ
Ġpodzie lona
Ġare a
ĠkrÄĻ gosÅĤu
Ġodci nku
ĠspÃ³ÅĤ gÅĤo
ĠJord an
S ku
g owie
o th
Ġza braÄĩ
za pa
stÄħ pienia
Ġfa st
Ġobie ktem
Ġprzestrze niÄħ
Ġkolej na
ĠbÅĤÄĻ ki
Ġuzna ÅĤ
Ġpopy t
L au
Ġw on
Ġmo czu
ta lne
Ġli czy
Ġbra kiem
Ġunika lnej
Do daj
Ġnar ciarz
ĠLa s
ĠÅĤaÅĦcu chÃ³w
Ġrzym ski
ĠPie choty
Ġupra wy
ĠÂ «
Ġmeksy ka
ĠBrow n
Ġblock chain
H z
g rÃ³d
Ġs us
Ġd f
Ġni ski
Ġrzeczywi sty
pozy cja
rzo stw
Ko rzystajÄħc
ĠspostrzeÅ¼enia mi
Ġpomie ÅĽciÄĩ
ĠprzetÅĤuma czyÄĩ
u da
w czeÅĽniej
Ġo ch
Ġroz kaz
ĠO koÅĤo
Ġzdr ow
Ġaktyw nego
Ġak cje
Ġzanie po
ĠpoÅĤo Å¼enia
' .<|
Ġ json
Ġdo es
Ġpro gu
pa trz
Ġar mia
ok racji
ĠprÃ³b owaÅĤ
Ġintelig encjÄħ
Ñ Į
ni sta
Ġwy su
Ġc enty
Ġre n
ĠMo Å¼liwe
ktu rze
rza dziej
Ġtra wie
ĠMar ka
Ġ12 5
ĠRa chel
Ġdostar czy
Ġszyb sze
Ġbryty jskiego
Ġkomp let
Ġbio logii
Ġstatysty k
ĠRu ch
Ġczar nej
Ġprzetr waÄĩ
go m
er Ã³w
Ġkom ory
Wy mieÅĦ
imp lies
Ġinstru ment
Ġaustria cka
Ġhy m
Ġpodz iÄĻk
ĠKomi tetu
Ġzako rze
' ],
( {
ÅĤu je
ĠO ne
ĠMi li
Te oria
Ġpierwszy mi
Ġfilo log
Ġzas ob
Ġnazwi ska
ĠmenedÅ¼e ra
Ã £
Ġpo po
Ġna daÄĩ
ĠL ily
Ġsk oru
Ġba za
maty czny
Ġfran cisz
Ġwol na
pada mi
Ġszero kÄħ
Ġkore lacjÄĻ
Ġbia th
ĠLud owej
Ġprzekon wer
Ġuczestni ctwa
Ġstyl Ã³w
Ġpsycho logii
CaÅĤkowi ty
N ad
g owe
Ġco sin
ĠH and
Ġrzeczywi stymi
wu j
Ġopie ce
Ġnapis ane
ĠDzie ci
Ġgeometry cznego
Ġkandy data
ĠÅĽpiewa czka
Ġpozor nie
b re
Ġz likwid
ĠP ass
Ġod daÄĩ
Ġc or
em plo
ĠPo ÅĤÄħcz
Ġ6 7
Ġniemiecki m
Ġfinans owego
Ġoprac owaniu
Ġlog owania
Ġpracu jÄĻ
ĠSto s
Ġprecy zji
Ġner wu
ĠsÅĤucha Äĩ
ĠSzko cji
Ġzapom nij
Ġperso nel
Ġzaraz em
k li
Ġko ta
Ġlu Åº
Ġre krea
Ġle ngth
ek onomi
Ġ8 9
Ġstan ÄħÅĤ
stru ktury
be s
ĠzÅĤoÅ¼ onego
Ġdostar czenie
Ġbli skie
Ġbli skich
Ġproduk tem
Ġwyj ÅĽÄĩ
app le
Ġurucho mienia
Ġstworzy sz
Ġwierzcho ÅĤek
199 8
Ġmary na
Ġniewo li
Ġknow n
Ġsob otÄĻ
d ien
mi ÅĦski
Ġre formy
Ġwyb ier
Ġzmian Äħ
Ġprecyzyj ne
Ġniewo lni
ĠMona chium
Ġu brania
ĠG od
Ġwal kÄĻ
Ġjedy ny
ĠDz iaÅĤ
Ġstrategi Äħ
Ġwygod ne
Ġza licz
Ġprze li
lo ro
Ġob wod
Ġka mienie
he im
Ġdu sz
ĠÅ¼ onÄħ
Ġrozpo znanie
Ġwyraz em
tt le
Ġsur owicy
Ġprag nÄħ
Ġznajd owaÅĤ
Ġprzewodni czÄħcy
ĠKlucz owe
ĠW hite
Ġprzy siÄĻ
mu jÄĻ
ent ry
we ll
ĠksztaÅĤ tujÄħ
Ġkraj obra
Ġzre laks
ĠszczegÃ³l ne
ĠÅĽmie ci
" ).
l ana
Ġdo prowadziÄĩ
czy ÅĦ
Ġg lo
wi ÅĤa
Ġre pres
ĠwystÄĻpu jÄħcych
liwe j
Ġreprezentu jÄħcy
Ġdysku sje
Ġprzypis uje
Ġprocedu r
ĠLinked In
Ġmo ra
ĠP iÄĻ
Ġto re
Ġczy taÄĩ
Ġsy pia
ĠJa giel
Ġbi ura
Ġpodej ÅĽciu
Ġzapew nieniu
Ġpotencja lnego
Ġsprzeda je
ĠprÃ³b kowania
twarz anie
ĠskÅĤada jÄħcy
Ġskrzy Å¼
Ġutra tÄħ
Ġszcz ery
s ÅĤem
Ġje lit
Ġmo rze
ru p
ani Äħ
di cti
() `.
Ġso ju
Ġfizy cznym
Ġdow ci
ĠSzcze gÃ³lnie
W pÅĤyw
m owanie
w cy
Ġz orien
Ġza mieni
Ġni by
Ġga ÅĤÄħ
Ġgrani cÄħ
ĠGdy by
Ġlep szy
ĠrozpoczÄĻ to
ĠsÅĤone cznych
Ġ183 1
Ġzi ar
()` :
ĠZbi Ã³r
Ġwybrze Å¼y
ecu te
Ġponie dziaÅĤek
Ġinfrastruk turÄĻ
Wyd obÄħdÅº
Ġ jÄĻ
Ġz rzu
le b
de na
ĠC ez
Ġdzie cku
Ġsta bi
ĠspoÅĤe cznym
Ġ9 00
ĠdokÅĤad nych
Ġprzyja ÅºÅĦ
ĠwystÄĻpu jÄħce
Ġprojekt ant
ĠzÅĤo ty
Ġkompozy cji
Ġgot owi
Ġreak cja
ĠÅĽcieÅ¼ ka
Ġkor pus
Ġzilu strowaÄĩ
Ġek stra
Ġdob rych
Do da
Ġ13 0
starcza jÄħce
Ġdostaw cÃ³w
letni m
ÅģÄħ czna
ĠchÅĤon nych
) !
} ^
Ġ owi
Ġo c
Ġpo sÅĤugi
Ġna cie
Ġu moc
czy ciel
Ġwe se
ĠzwiÄħz anej
Ġobsz er
Ġporu szania
Ġobserw uje
B ez
O kreÅĽl
f la
Ġkon gru
Ġ- -
Ġos krze
Ġpi rami
ut il
Ġwe ga
sÅĤ ania
Ġser de
Ġobec nego
Ġpoda tkÃ³w
ĠwÄħ tek
Ġuro dzenia
ĠPe wnego
AT E
Spraw dza
ĠuÅ¼ytk owania
Ġinklu zy
Ġpalindro mem
S ie
n owy
ma tem
in Äħ
ĠU staw
bo ur
Ġ8 2
Ġzach or
rzenia mi
Ġuwa lni
Ġprzeprowa dzenia
Ġniepo Å¼Äħd
ĠXX I
Ġdie ta
ĠStu dio
ĠChce sz
Ġprzechow uje
Ġw ciÄħg
Ġna kÅĤad
Ġna prawy
Ġto bie
Ġpod jÄĻcie
pi ony
gra mie
ĠAn th
Ġodpowiedni mi
ĠrÄĻ kach
ĠwyjÄħ tkowe
Ġkore spon
' '
Z wiÄħz
wo ta
ÅĦ cem
ĠW at
Ġspe cy
Ġtwier dzeÅĦ
Ġnadmier nego
ĠpÄĻche rzy
ĠidÄħ ce
W N
k ÅĤo
Ġp d
Ġza tytuÅĤ
Ġwy chwy
ĠG et
ĠMa ÅĤo
fa Äĩ
ĠosiÄħg nÄħÅĤ
ĠSy d
Ġwyobra Å¼a
Ġa lar
Ġza stanawia
Ġu wielbia
Ġnie obec
Ġko ty
ĠO ceÅĦ
pi ÅĦski
di on
Ġzrozumie niem
Ġ12 00
Ġci cho
Ġopera cyjny
ĠThe y
ĠwpÅĤywa jÄħc
ĠrÃ³wnowa ga
ĠtrÃ³jkÄħ cie
ĠdÄħ Å¼enie
ĠÅ¼oÅĤnie rze
Ġeta p
Ġsubstan cje
Ġscenariu szy
Ġzniuans owane
ĠwypÅĤa ty
c lose
p lik
lo ud
pa to
ĠG wi
Ġ3 000
ĠczÄĻ st
Ġek onomii
ĠRo k
Ġno sa
Ġ9 8
Ġpodstaw owa
Ġskute czna
Ġter mina
ĠpÅĤu ca
ĠodrÄĻb ne
Ġdoprowa dziÅĤ
narzÄħ dzi
ni cz
Ġro du
ier Ã³w
Ġkom end
pro blem
lan o
Ġuwa l
Ġbe fore
ciÄĻ cie
Ġprzesz ÅĤa
Ġide alny
Ġspotka ÅĤ
Ġela styczny
ĠpaÅĦstw owy
fil ter
Ġzaga dnie
ĠChe ÅĤ
Ġinc lude
Ġrepu tacjÄĻ
ĠpaÅĤa cu
Ġo ur
Ġroz grywa
ĠO sa
par ty
Ġmor skiej
przy pisy
Ġmanipu lowaÄĩ
Ġpodwod ny
Ġpsychia tra
ĠE liza
gra cja
ali zacja
Ġmar gines
Przy kÅĤady
Ġzba daj
ĠJapo nia
Ġkosmi cznej
leq slant
u ko
na cji
Ġna rasta
Ġu stro
Ġin di
Ġprzy rod
su nek
ĠNa prawdÄĻ
kin s
Ġobni Å¼yÄĩ
Ġzaak cept
ĠposiadÅĤ oÅĽci
Ġwy kaz
Ġ3 50
Ġde gra
ĠKo le
ĠLe g
Ġstru mieni
Ġth ree
ĠpoÅĤÄħ czonych
Ġuzna wane
Ġzgod ny
Ġcom mon
Ġkamp anie
Ġwysy ÅĤ
Or gani
Ġmeda lista
ĠL en
Ġde kre
Ġzd ob
Ġwykorzy stana
Ġpopu lacjÄĻ
Ġani m
ĠrÄĻ czna
Ġdowol ny
Ġnarod owy
ĠdÅĤugotermin owych
ĠzakÅĤÃ³ cenia
Ġentuzja zm
ĠCO VID
ĠPhi lip
ĠId enty
DÅĤugo ÅĽÄĩ
Z identyfikuj
Ġpo siÅĤek
Ġb un
owe mu
Ġwie dzÄħc
ĠL ake
ĠÅ¼y ÅĤy
gum enty
Ġcie le
Ġwprowa dzi
ĠLe szek
Ġobec noÅĽciÄħ
Ġmatematy ka
ĠbÄĻdÄħ ce
Ġgodzi nami
Ġdaw nych
Ġelektry czny
Ġodpor ne
Ġrolni ctwo
Ġtabel ÄĻ
Ġwyk walifik
skute cz
Ġutru dni
I ON
Ġla mbda
ĠChcia ÅĤem
ĠHol andii
Ġkonfigu racji
Ġmo menty
ĠT ÅĤu
Ġre be
ĠZ bro
Ġwz niesi
ĠpowiÄħ zaÅĦ
Ġtytu ÅĤem
Ġwid th
ĠLondy nu
Ġro tacji
fi kujÄħc
ĠC ro
Ġbe ing
Ġtrud na
ĠrÄĻ kÄħ
Ġzda rza
tain s
Ġprofi lu
ĠSco tt
Ġpo sa
Ġza rob
Ġu kÅĤady
ĠO t
el la
ĠwÅĤas noÅĽÄĩ
Ġujaw niajÄħc
lima k
Ġpracu jesz
ĠEr n
Ġrespon se
Ġnie kon
ĠâĢ ¢
Ġpod porzÄħd
Ġpod niesi
Ġn ut
cznoÅĽci Äħ
ĠÅĽrod kowy
Ġumie ra
Ġpora Å¼
ĠgÅĤÄĻb szego
ĠOrgani zacja
ne u
li dar
Ġa mpli
ĠNa cze
Ġstan em
ĠzaÅĤo ga
ĠspeÅĤ nione
gene rate
ĠzewnÄĻtrz nego
Ġintensyw ne
ĠprzywÃ³d ca
l li
s is
Ġp w
al nymi
ĠU zy
Ġra tu
Ġprzed stawie
Ġinte resy
Ġmiesz kanie
Ġfunda ment
Ġkatastro fy
ĠopuÅĽci ÅĤ
ĠBog us
ĠZdzi sÅĤaw
a pache
rzy li
Ġst rzaÅĤ
ĠJe dy
logi cznymi
Ġtra gi
Ġmiesz anki
Ch ar
Ġczu ÅĤ
ĠrozkÅĤad Ã³w
Ġdziew czyna
ĠSÅĤ owo
Ġalgebrai cznych
Ġpopro siÄĩ
Ġchirur gi
W sp
m t
Ġwy tyczne
Ġli cen
Ġze gara
Ġce nie
ĠCze chosÅĤowa
Ġese ista
Ġpob ierania
Ð ²
Ġo kiem
Å¼e Äĩ
ĠG da
Ġle ad
ĠRo sj
rza ch
Ġjedno rod
Ġtrud ny
Ġludz kim
Ġpart ie
ĠrosnÄħ ce
Ġs un
Ġk s
ia st
Ġdo stawy
Ġpro f
Ġde fi
Ġnaj skutecz
wer tuje
Ġboga ctwo
Ġpr owo
ĠKaÅ¼ de
Ġskoncent ruj
ĠLon don
=$ <<
W prowa
Ġi mion
us ie
ĠK am
ĠJe steÅĽ
ĠZa wiera
ĠWy maga
Ġpotrze bom
Ġspe kta
ĠRa fa
Ġszko ÅĤach
Ġbezpie cznego
spodar ka
grafi czny
Ġzoba czenia
Ġsymbo le
Ġprzesu wa
ĠTur cji
plika cja
part ment
Ġgli ko
A pp
wa ku
owa w
Ġle a
ĠwÅĤo sÃ³w
Ġklasy fika
Ġniedo skona
Ġpostrze ga
ER E
ĠKomi tet
ĠzamÃ³wie nie
Ġfiltr owania
NieprawidÅĤ owy
katoli cki
K rÃ³
Ġe j
ĠT ry
Ġdz ier
Ġan tagoni
Ġfa ra
ĠdoÅĽwiad czeniu
Ġkorzy ÅĽÄĩ
Ġoto czeniem
Ġwydarzenia mi
gres ji
Ġeg zyst
ĠwystÄĻp owanie
Ġkoncer t
produ ct
ĠSou th
Ġna le
ÅĤa ÅĽ
Ġ( '
ĠP anie
szcz onych
Ġpozy cja
Ġutrzy mujÄħc
Ġzdoby cie
Ġeko logicznych
ĠWÅĤo chy
ĠwÄĻz ÅĤy
spon se
Ġoczekiwania mi
Ġinfe kcji
ĠNorwe gii
) }{
Ġu czeniu
ĠW krÃ³tce
mie Äĩ
ĠL and
Ġsto le
pro fit
str Äħ
Ġv is
lnoÅĽci Äħ
ĠniezbÄĻd ny
Ġwarun ku
Ġcyfr owego
Ġpojedyn czy
ĠdziesiÄĻ ciu
ĠpoczÄħtk owego
SE LECT
Ġprzemie szcza
ĠHein rich
ĠSak so
Q ue
Ġpo spo
la sa
Ġprze pu
Ġh al
do k
ĠJa me
Ġregu ÅĤ
Ġdzien na
Ġter mo
Ġpowro cie
Ġperspekty wa
Ġkuch en
Ġlin k
ĠJedno czeÅĽnie
Ġtycz karka
ĠNikoÅĤa j
) ):
re gu
Ġb er
Ġu ci
rzy jmy
on ka
ĠW Äħ
Ġre qui
Ġn Ã³g
ĠKon ferencji
Ġtry bie
Ġalterna tywy
ĠRoy al
: .
O M
Ġza ro
tu ral
Ġto ken
ĠK lub
Ġcy fra
ĠzwiÄĻk szone
ĠmÅĤo dzieÅ¼
Ġmor fo
Ġnapo je
Ġdocho dy
Ġdelika tne
Ġwio dÄħ
ĠsÅĤowe ÅĦski
ce u
ÅĽli ÅĤ
Ġmie jskiej
Ġsta te
Ġpoja zd
Ġkonta kcie
ĠangaÅ¼ owaÄĩ
ĠangaÅ¼ owania
Ġzak lÄĻ
Ġdelika tnie
ĠpielÄĻ gni
i ku
n nych
Ġpo piera
owe ver
Ġlo tÃ³w
Ġumie ÅĽciÄĩ
Ġkry szta
lista mi
Ġ184 6
ĠCent er
Ġster owania
Ġczuj niki
ĠkoÅĽ ciele
Ġbisku pa
ĠInterna tional
Äħ ÅĤem
Ġprze glÄħdu
ba j
gie go
ĠMa tematy
Ġmy lÄħ
sek su
ĠtwÃ³r cÃ³w
Ġnegatyw nie
Ġwielomian Ã³w
Ġpoznaw cze
Ġlabora torium
c ture
ni na
ĠA D
end o
Ġpra wym
Ġproje ktach
Ġosob no
ĠÅĽwie tnym
ĠuwaÅ¼ aÅĤ
Ġwizu alnych
organi zuj
Ġstre fie
Ġprzyjem noÅĽÄĩ
Ġprzypis aÄĩ
Ġliter ÄĻ
Ġzadowo lony
Ġwy mianÄĻ
Ġzw ar
ien ce
Ġpozosta ÅĤo
ĠKon tro
Ġkontro lÄħ
sen s
ĠDz iÄĻkujÄĻ
Ġusu wanie
ĠfaÅĤszy wych
Ġzatru dnienie
ĠÅ¼eby m
ĠSÅĤo ne
Ġubezpie czenia
Ġseria lu
ĠzobowiÄħz ania
ĠOdwie dÅº
Ġszlachci c
z or
Ġk lo
Ġu wo
Ġli czeb
Ġv al
Ġspra wa
Roz wiÄħzanie
Ġzdoby li
ĠTy p
Ġplane tÄĻ
Ġlotni ctwa
Ob ject
Ġz io
rz onÄħ
Ġpo chy
Ġko rzenie
zu jÄħcÄħ
Ġbu ty
Ġkontro la
Naj wiÄĻk
ÄĻÅ¼czy zna
Ġgot owe
ĠSp ring
Ġbraku jÄħce
ĠKraj owej
H T
do z
Ġpa ÅĤac
Ġdu szÄĻ
Ġdy stans
sc ar
Ġku la
ĠRa zem
ĠDa vis
ĠksztaÅĤ tÃ³w
Ġex pe
ĠwewnÄĻtrz nÄħ
ĠÅ¼oÅĤÄħd ka
Ġprodu cen
ĠAn tar
gro da
Ġniepo rozumie
plo t
ĠstaroÅ¼y tnego
Ġmone ta
Ġlun ch
Ġnowozelan dzki
Ġwy pÅĤy
): **
Ġan kie
Ġcie nie
Ġsi le
ble my
ĠHi gh
Ġsukces Ã³w
Ġzain spi
Ġrewolu cjoni
Ġnauk owiec
Ġbory ka
N N
ki na
Ġa gain
ga cji
fe kt
Ġspraw Äħ
ĠzÅĤo Å¼yÄĩ
syj nych
Ġzer owa
ĠÅĽlima ka
ĠwystÄħ pieÅĦ
ĠInter netu
ĠGdaÅĦ sku
I K
P C
ar ium
Ġb ol
ca t
ĠN SZ
Ġla tem
ĠspoÅĤe cznymi
ĠspÄĻ dziÅĤ
Ġuczestni ctwo
Ġdostrze c
ĠpielÄĻ gn
ĠnarzÄħ dÃ³w
ĠpÅĤe Äĩ
d owej
li czba
ĠP ers
de queue
ĠT ekst
pa l
ÅĤu j
ĠO ÅĽ
ĠI de
forma cja
Ġfa z
biera Äĩ
Ġtro nu
syw ny
ĠSp rÃ³buj
Ġkomputer owej
Ġfascynu jÄħcy
ĠrÄĻko pis
Ġzbrod nia
Ġwy powiedzi
ta ÅĤa
ĠT an
ĠdotyczÄħ cÄħ
Pa th
tni ki
20 23
Ġstra j
Ġfrancu skich
Ġjapo ÅĦskiej
ĠuwzglÄĻd nienia
Ġgre ckiej
Ġ185 7
ĠrosnÄħ cej
ĠDru gi
Ġdeter minacji
Ġnama ca
Ġd io
Ġt aniec
Ġk le
li ch
Ġu ÅĽci
Ġnie li
Ġra cjÄĻ
Ġbi nary
am pi
ho st
Ġpozosta ÅĤa
Ġspraw dzania
cjonal nie
Ġzasa dÄħ
ĠKon gres
ĠWo jen
ĠWe b
ĠÎ ¸
Ġ184 9
Ġkomfor tu
KaÅ¼ dy
Ġeurodeput owany
Ġbiath loni
t oÅĽci
u th
Ġk ardio
li styczne
id Ã³w
Ġdru go
Ġtabli ce
Ġprzewo du
Ġbadaw czych
Ġwyposa Å¼one
Ġdzisiej szym
1 10
ĠS ant
Ġdz wo
Ġwsp ierania
ĠwpÅĤy nie
ĠzrÃ³wnowa Å¼yÄĩ
mien nego
Ġpochod nej
li styczny
er i
Ġroz miarÃ³w
Ġso du
Ġgeometry czny
Ġprzewodni kiem
Ġnarci arka
ĠzapÅĤa ciÄĩ
ĠBÄĻd ÄĻ
ĠuczÄĻ szcza
Ġurucham ia
a sy
ĠPo prawi
ĠrÃ³w noÅĽÄĩ
tek st
Ġbud owa
Ġrodza jem
ĠokreÅĽlo na
Ġpoda tku
Ġujaw niaÄĩ
Ġzacho du
ĠChar lie
Ġzawar te
Ġstrze l
Ġzainspir owaÄĩ
sz ane
ĠM iaÅĤ
gi um
Ġpolity czna
ĠTe resa
Ġkolej nÄħ
glÄħda jÄħc
Ġrzu tu
listy cznego
Ġchromo so
Ġw Ã³z
Ġwy niesie
gi t
Ġop Ã³r
Ġwsp iÄħ
ĠwspÃ³ÅĤ czu
ĠIn di
ĠMar ie
Ġsek tora
inÄĻ ÅĤo
Ġfrag mencie
e le
f en
la d
Ġmo ce
ĠC SV
Ġcz o
se quence
ĠpoczÄħ tkowÄħ
ĠÅĽrodowis kiem
ĠmiÄĻ so
Ġekspery mentÃ³w
ĠnieskoÅĦczon oÅĽÄĩ
ĠYellow stone
an kÄĻ
ar ny
Ġwy staw
ma ge
Ġka pli
Ġco ro
Ġze stawy
Ġnaj prawdopodobniej
Ġwyso ce
Ġimp lementu
ĠzaleÅ¼ nÄħ
ĠWo od
Ġzgod noÅĽÄĩ
ĠPoz wÃ³l
Ġnauczyciel ka
K siÄħ
p rz
Ġna sion
em ia
mo du
Ġn ano
Ġwe so
sum owanie
Ġpoka zujÄħc
Ġprotagoni sta
Ġwywia du
ĠksiÄĻÅ¼y ca
Ġalbu mu
Ġreduk cjÄĻ
i x
Ã Ĺ
Ġd Ã³br
Ġro dze
Ġta le
ĠNa sz
ĠMa cie
Ġ[ (
daw no
ster n
Ġdocho dach
ĠnajwyÅ¼ szej
Ġilu stru
Ġhandl owe
ĠScho ol
Ġzrezy gn
T rze
go nu
me dia
ĠP T
ĠM Ã¼
Ġsy la
it ies
Ġpisa rzy
Ġskrzy dÅĤa
ĠobowiÄħz ek
Ġcukrzy cy
ĠzbÄĻd ne
i li
ĠZ at
bo ol
Ġpol skÄħ
Ġwp rost
Ġprzed sion
Ġkobie tÄħ
ĠksztaÅĤ ty
ĠskÅĤad nik
ĠreÅ¼yser ka
Ġuzna wany
Ġzmieni ÅĤa
Ġpojawi ÅĤa
ĠkoÅĦc owego
ĠÅĽrednio dystans
JÄĻzy ki
t ree
Ġu nosi
la st
ry mi
ÅĦ sku
lo ga
Ġkon te
ran Äħ
Ġnaj krÃ³t
ĠMa te
ĠSt and
ĠLe w
Ġdowo dach
Da te
ĠZwy ciÄĻ
ĠzgÅĤÄĻ biÄĩ
ĠPozna ÅĦ
O ryginal
o ff
st rÄĻ
ĠW io
Ġko szu
ĠS os
Ġstwo rzeÅĦ
12 5
Ġl n
Ġosobist Äħ
ĠÅ»y dzi
ĠÅĽla dy
ĠÅĽpiewa k
ĠStre et
Ġprzy stÄħpi
mu jÄħce
ĠI g
Ġco lor
Ġgre at
Ġwod oru
Ġobro tu
ĠzachÄĻca jÄħc
Ġuch wa
ne i
ĠP iÄħ
ĠW szech
ĠW inc
Ġpod anÄħ
ĠG old
Ġ5 7
tyw nego
ĠzwiÄħz anego
Ġpis aÅĤ
Ġloka lny
Ġmniej szym
Ġpar kÃ³w
Ġmiasta mi
cer ka
Ġper cep
Ġpers on
Ġreali styczne
Ġwah ania
: ]
Ġs ent
Ġpo si
Ġwy obraz
ĠP ÄĻ
de ÅĤek
to pe
pe d
ĠÅ¼ onÄĻ
Ġfizy czny
Ġkatoli ckiego
Ma p
Ġkobie tÄĻ
ĠrÃ³wno czeÅĽnie
Ġnarod owe
Ġzbie Å¼noÅĽci
Ġparzy stÄħ
ĠniespÃ³j noÅĽci
) |
li li
Ġb aÅĤ
Ġ( $
ÅĽli j
Ġsp ÅĤy
Ġsa k
Ġdru kuje
two rzenie
Ġzn anej
Roz wiÄħzujÄħc
ĠpoÅĽ lu
bin om
ĠGeor g
Ġkosmi cznych
ĠsformuÅĤ owania
ĠAtlan ty
ĠType Error
2 40
Ã ĵ
Ġo kup
Ġu grup
cj ana
pe la
Ġroz miary
ÅĤu c
Ġka dÅĤu
jÄĻ tnoÅĽci
Ġsta l
Ġru tyn
Ġwyra Å¼ania
min ut
zi p
Ġzmniej szy
Ġdefini cja
ĠFranci szka
Ġeksperyment owaÄĩ
ĠBÄĻdzie sz
E G
Ġwy gÅĤa
rzÄĻ dzia
ĠTa ka
ÅĤoÅĽci Äħ
Ġpomaga Äĩ
Ġrea gujÄħ
Ġzatrzy my
Ġrzym skiego
Ġwoka listka
ĠbyÅĤby ÅĽ
Ġpoch ÅĤania
Ġnieparzy ste
Ġrol nik
Ġeksplor owaÄĩ
Ġpodp oru
ÅĤ ku
Ġdo rasta
Ġwy grywa
Ġmo ralne
ĠS Äħd
waÅ¼ nie
Ġga bi
Ġpla cu
Ġkosz tem
Ġnar ko
Ġstop nie
Ġmagi c
Ġnumer u
Ġbla sk
Ġprzyczyn owoÅĽci
ĠMist rzostwa
Ġent ro
g owego
t ce
Ġa mino
me thod
Ġsz uk
Ġpa tel
Po trzebujÄĻ
Ġdzi ur
Ġnag ry
Ġinterpre tacja
ĠÅĤaÅĦcu chu
Ġobywa tele
Me ssage
Ġrozpozna wanie
ĠuwaÅ¼a jÄħ
spozy cji
Ġzintegr owaÄĩ
Ġuzysku je
Ġmetafor y
Ġpo sty
Ġza ÅĤam
Ġwy niosÅĤa
ĠC zu
Ġre mi
Ġde ba
fik owany
ĠBo h
Ġhi p
ĠpÃ³Åº no
con vert
Ġzawod nikÃ³w
Ġprzeszuki wania
Ġaposto lski
B ob
k ÅĤy
Ġs pu
po la
ĠPo tem
Ġdy wi
ĠPa la
ĠMe dal
Ġata ki
Ġwarian cja
ĠuÅĽmie chem
ĠoddziaÅĤ Ã³w
Ġuto Å¼
Ġdziu ry
I G
g ne
nia ka
Ġmi ne
ĠczÄĻ ÅĽciach
Ġwyko nal
Ġcie czy
---- -
Ġoryginal nych
ĠÃ ģ
Ġnawi gowaÄĩ
ĠwdziÄĻ cznoÅĽÄĩ
ĠpudeÅĤ ko
Ġodzyska Äĩ
Ã ¢
Ã «
Ï ĥ
en sa
wi o
wi ce
Ġwie jskich
ĠPo kaÅ¼
Ġle gi
Ġme go
ĠCh arakt
Ġinforma tyki
Ġse na
ĠGru py
Ġdar owi
ĠSzko ÅĤy
Ġrapor tu
Ġciekaw oÅĽci
Ġwytrzyma ÅĤoÅĽÄĩ
ĠÅģo dzi
Ġucho dÅº
Ġpo sÄħ
ma sa
ku ra
ĠW szystko
ĠO ut
Ġ18 30
ve lop
Ġpomy ÅĽleÄĩ
Ġodpowiada ÅĤ
Ġinteresu jÄħ
Ġkontrol owania
ĠgaÅĤÄĻ zie
Ġbeca use
dicti onary
2 50
g owych
u el
Ġ( !
ĠP ÅĤa
Ġma jÄħcy
ĠI ta
ĠH R
Ġ` __
ĠTo ur
ĠSa lo
ĠpodrÃ³Å¼ owaÄĩ
Ġzamie rzony
Ġlogi cznego
Ġloja lnoÅĽÄĩ
Ġrestaura cja
ÅģÄħ czÄħc
Ġproduktyw noÅĽci
ĠJac ques
Ġarchitek toni
ku s
ĠS T
il li
16 0
ĠokrÄĻ gÃ³w
Ġ184 7
dis play
ĠAry sto
ĠSyd ney
A t
Ġo m
rzy j
Ġse sje
Ġbu rzÄĻ
ĠAle k
ĠwyÅ¼ szym
Ġochro nÄħ
bur ski
Ġkultur Äħ
Ġzmu szony
Ġformu la
Ġpostrzeg ane
ĠMosk wie
ĠCesar stwa
ĠRumu nii
k ci
Ġpo Å¼e
sz tÄħ
ka jÄħc
er ia
Ġre form
Ġle czni
one k
Ġotrzy mujÄħ
ĠdokÅĤad nego
Ġnap ÅĤy
menta cja
Ġska ÅĤy
Ġpoko ny
Ġkoncent ra
Ġrodzin ne
Ġzamk niÄĻty
Ġwyklu cza
ĠÅ¼u chwy
ĠDÅĤugo ÅĽÄĩ
i us
m ani
ĠP iÄĻk
ĠK rok
kÅĤa ÅĦ
ri ter
Ġwa Å¼y
Ġspraw dzajÄħc
ĠBa da
Ġrosy jskiej
ĠpoczÄħtk owa
ĠKomi sji
ĠciÄħgÅĤ oÅĽci
Praw dopod
d d
o szczÄĻd
st el
mi li
Ġde dyk
Ġnad szedÅĤ
Ġzadania mi
ĠHen ri
Ġzamk niÄĻcia
Ġniewie le
Ġu mar
ĠA lan
Ġpa rzysta
Ġmie dzi
rzÄħ du
ĠTwo rzy
Ġzapa chu
Ġklasy cznym
Ġbrytyjski ch
ĠDz ien
ĠzrÃ³wnowa Å¼onÄħ
Ġobywa te
pospo lita
Ġpodwod nych
Ju Å¼
Ġa te
Ġwy miarÃ³w
wie niu
ĠPo zy
th read
duje sz
Ġchcia ÅĤem
Ġkrzy wych
ĠLo tni
ĠdowÃ³d cy
Ġekscy tacji
Ġalko hol
Ġzagra Å¼a
Ġnieja s
C V
k owaÅĤ
Ġ 00
Ġp Ã³
|> .
rze sz
rze wania
Ġod ez
no te
Ġ5 000
Ġry tu
Ġtra s
Ġener go
Ġprawdziwe go
ĠWÅĤa dimir
ĠrozwiÄħzy waÄĩ
ĠukoÅĦ czenia
ĠWscho dzie
Ġtygod niach
Ġzasi lania
ĠpÅĤynÄħ cych
ÅļwiÄĻ ta
d Å¼
Ġk wan
Ġpod puÅĤ
ĠzwiÄĻk szonej
Ġsil nej
ĠFer dyn
ĠwysÅĤa Äĩ
Ġpokarm owego
U ser
w hile
st ers
Ġa wait
Ġte zy
Ġko lacjÄĻ
mie siÄĻ
Ġli de
em an
ĠK ier
sy mbol
Ġmie jskiego
ĠZa rzÄħdzanie
ĠSt Äħd
Ġskute cznej
ĠJu lia
Ġpopular na
ĠZie miÄĻ
Ġrzu cajÄħc
Ġinteresu jÄħcÄħ
Ġformu ÅĤ
ĠZosta ÅĤa
Ġoficer Ã³w
ĠÅĽnia danie
Ġplaneto id
ĠWiki pe
b rew
l skiego
ro sko
Ġko k
Ġby m
Ġsta cja
pis a
hi cle
Ġth read
ĠogÃ³l na
ble s
Ġopar tej
Ġkonsek wen
pla yer
Ġhandl owych
Sa mo
ĠnajbliÅ¼ szych
Ġsche mat
Va lueError
U su
Ġo kien
Ġpow raca
co lumn
Ġnau kÄħ
Ġhistory czny
grafi czna
Ġforma lne
ĠtrÃ³j wymiar
ĠAnd rÃ©
Ġdynami czny
Ã£ o
d owodni
Ġ Ø
Ġo ÅĽwia
Ġpo gar
ĠP ÅĤy
Ġprzy mus
and or
ĠZa le
enta ch
Ġdy le
ĠKa toli
Ġcie ÅĦ
Ġdostar cz
rzo nym
Ġdziel nikÃ³w
Ġkart ÄĻ
ponu jÄĻ
ĠZapro ponuj
Ġnawia sy
ĠoÅĽwiad czenie
Ġunie moÅ¼li
Q u
ĠS ho
ĠA ktu
ĠRo ss
Ġjednak Å¼e
Ġsko ro
Ġzbud owane
Ġukrai ÅĦska
Ġwojen ny
ĠTech no
Ġwiru sa
Ġscenariu szu
Wnio sek
Ġprze do
lo dzy
cie lu
Ġko ral
Ġprzy go
ĠPo praw
Ġde ta
Ġni Å¼ej
ser ver
ĠIn dian
ĠTe s
Ġwynosi ÅĤ
count ry
ĠNi gdy
Ko szt
Ġinwesty cje
Ġsatysfak cjÄĻ
Ġsolid ny
ĠS um
Ġe waku
ĠPo ja
ĠL og
ÅĦst wu
ĠKo rzystajÄħc
Ġprzestrze ga
Ġstar sze
Ġanaliz owania
Ġukry ty
ĠprzedsiÄĻbior stw
Ġkwest ia
Ġwystarcza jÄħce
Ġujem na
ĠTech niki
c owe
ĠÅĽ ru
ĠN an
Ġr dzenia
ÅĤÄħ cza
ÅĤÄĻ dy
Ġzad aniu
ĠDa wid
ĠLu is
Pod obnie
Ġprawdopodobie ÅĦstwem
con sole
Ġskle py
ĠgÅĤos owania
Ġwspania ÅĤy
ab c
Å¼Äħc Äħ
C C
Ġo ste
Ġdo zna
Ġza chodzÄħ
Ġu by
ma lii
ĠC Ã³Å¼
Ġczy stej
czÄħ ca
Ġwi ar
ĠdziaÅĤa ÅĤ
ĠĠĠĠĠĠĠĠ ĠĠ
ĠBo Å¼y
Ġbu ild
ĠFran cus
Ġsil nego
Pro du
Ġpoznaw czych
Ġzaktualiz owana
dist ance
ĠJagiel lo
b ani
i th
t ren
u li
Ġn ud
ner w
Ġwe szÅĤa
Ġ10 5
Ġstandard owej
Ġchwi le
gres ja
Ġzbio rach
Ġsprawied liwoÅĽÄĩ
Ġposort owana
Dro ga
Ġmieszan kÄħ
stawia my
Ġs nÃ³w
ar stwa
Ġwy miary
Ġwy izol
ku lski
Ġtra fia
ĠMar io
Ġpozosta wia
tar ia
ĠpodrÃ³Å¼ Äħ
Ġstanowi ÅĤy
Ġtera pia
Ġzamk niÄĻte
Ġrea gowaÄĩ
ĠChi le
ĠprÃ³bu jesz
Ġustanowi ÅĤ
Ġlider Ã³w
Ġkonsekwencja mi
ĠAndrze ja
C ol
Â ³
li ze
Ġwy lÄħd
js ce
Ġwyda waÅĤo
Ġodp ÅĤy
mar szaÅĤek
Ġopie ka
Ġcent ra
Ġwal ka
Ġzapy taÅĤ
Ġ185 6
ĠAna lizujÄħc
Ġdi ct
Ġodda je
t rÄħ
je sta
on oÅĽ
Ġsk Ã³rze
Ġinforma cyjne
ĠmajÄħ tku
ver sion
ĠÅĽrodowis kach
Ġzak rze
WspÃ³ÅĤ czynnik
ĠKontynu uj
Ġd ÄĻ
ar nej
ĠP ed
sty cznymi
ĠU waÅ¼a
Ġwz wyÅ¼
Ġra t
Ġbo dÅº
ĠMa ÅĤy
Ġwska zujÄħc
ĠTwo imi
ber ga
Ġku kury
Ġumie jsc
ĠWa len
Ġzapewnia Äĩ
ĠCz ÅĤowie
Ġprzyczy niaÄĩ
Ġwojs kowej
Ġrobo ta
spe cja
pat iÄĻ
rzeÅĽci ja
Ġoszac owanie
Ġb or
Ġorgani czne
Ġzespo lone
Ġograni czonÄħ
Ġzapro szenie
Ġkryty ki
Ġdom owa
Ġwier szu
Ġw he
Ġre zyd
cyj noÅĽci
Ġbi g
Ġfil tra
ĠkrÃ³t sze
ĠKaÅ¼ dego
Ġskonstru owaÄĩ
ĠupÅĤy wu
ĠInsta gram
ĠLea gue
d owi
ĠJ owi
zu jÄħca
io stream
Ġtrwa ÅĤa
Ġ185 2
Ġrekuren cyjnie
Ġociep lenia
P osta
c ery
cj um
de z
Ġpro ba
Ġis lam
Ġkar ÄĻ
Ġpisa rze
Ġsport owa
Ġmechani ki
ĠoÅĽ rodek
ĠzwyciÄĻ stwa
ĠrÃ³Å¼nicz kowa
Ġuru chami
S tan
z owaÅĤ
ÅĽ redni
Ġwy spa
Ġma ÅĤymi
Ġrze czÄħ
Ġnad mor
Za stosowanie
tera piÄĻ
Ġorgani cznych
ĠMi ro
Ġpan demii
ĠDy wizja
ĠWscho du
K im
a verage
ĠB lo
ĠB at
Ġni gery
Ġ4 50
ĠRo ger
ĠDo piero
Ġha seÅĤ
Ġzni szczy
ĠpÅĤyn nie
ĠdoÅĤÄħ czyÄĩ
ĠJaro sÅĤaw
Ġwystar czy
w ra
Ġt rÄħ
cie nt
ĠC iÄħg
Ġ- --
owi cza
Ġpraw ne
zi Äĩ
ĠgÅĤ owa
Ġzre sztÄħ
Ġnauczy ciela
ĠpoÅĤoÅ¼ ony
Ġjakiej ÅĽ
ĠPear sona
Ġuspo kaja
B io
Ġp ÅĤÃ³
le o
Ġu br
Ġprze peÅĤ
ge o
th ers
sk ra
Ġklucz owego
ĠIn Å¼ynie
Ġmeto dzie
Ġsil na
ĠdÅº wi
Ġus ing
ĠwyksztaÅĤ cenie
ĠWinc enty
c ry
g nÄħÄĩ
Ġs ca
ĠR Ã³
ba cz
cu stomer
ren ce
ĠsÅĤowni ctwa
Ġupraw nienia
K ar
b owe
d owania
ty le
ĠG lobal
sza k
Ġszyb ka
Ġuzyska ÅĤa
Ġemocjonal nie
Ġchemi czny
Ġrzu tÃ³w
Ġodczy tu
Ġgrafi ki
Ġzapropon owaÅĤ
Ġczwo ro
F T
k any
Ġ que
Ġza znacz
mi cznej
ko ÅĤy
ĠN AS
mo nia
pera tura
ĠPol skÄĻ
Ġzdo ÅĤa
Ġzau tomaty
Ġper u
ĠnajwiÄĻk szego
Ġmaksy malne
ĠzewnÄĻtrz nej
Ġczu ÅĤa
Ġwiarygod nych
Ġtransforma cja
Ġnowotw orÃ³w
Ġedyt owania
ĠJÄĻzy k
Ġniem ow
A lice
k el
Ã ´
Ġna wa
Ġmo rzu
dzi my
Ġli kwi
Ġ5 9
Ġsu fi
Po lity
ĠWil son
ĠdÄħ Å¼Äħ
Ġwscho du
ĠpoczÄħtk owym
ĠkoÅĦc owy
ĠwÅĤad ca
Sto sujÄħc
ĠEuge niusz
ĠÅĤote wski
" ],
t aniu
Ġe i
Ġme dal
gra mu
Ġozna k
ĠrozwaÅ¼ ania
Ġprogram owaniu
Ġzwraca jÄħc
Ġfo und
Ġrozsze rzenia
Ġfundamenta lnÄħ
Ġdodatk owej
ĠSzcze ci
ĠHT TP
Ġprzywi lej
S um
ÅĤ owe
Ġro u
Ġroz pu
Ġjak oÅĽciÄħ
Ġzna cznych
ĠU moÅ¼liwia
Ġop tymi
Ġzmie rza
Ġsil niejsze
Ġkolo rze
Ġuda ÅĤ
ĠEm my
Ġwydarzenie m
Ġsekun dy
Ġpowi kÅĤaÅĦ
" .<|
Ġroz dziaÅĤ
do ne
czÄħ t
ĠNa sze
Ġwi bra
Ġpre sti
sÅĤ owie
ĠAr no
ĠzaleÅ¼ ne
ĠwÅĤaÅĽciw oÅĽciach
Ġmaszy na
Ġdal szym
ĠpÅĤyn noÅĽci
Ġstara jÄħc
Ġkamp aniÄĻ
ĠAm ster
Ġato mÃ³w
Ġpomara ÅĦczy
Ġsatysfakcjonu jÄħce
ĠWysp y
ĠFesti wal
S zy
i my
ma la
czy taj
ĠH end
Ġde we
Ġdoda tniej
Ġgeo metria
Ġhistory cznej
Ġemi sjÄĻ
Ġinterpre towaÄĩ
Ġzaawans owanego
Ġwap nia
ĠKoÅĽ ciele
ĠNiezaleÅ¼ nie
A G
Ġma j
ĠA sh
ri de
ĠF ROM
Ġce ni
Ġdoda ÅĤ
Ġmar kÄĻ
Ġjednost kÄħ
bina ry
Ġkorzysta jÄħ
Ġtechnik Äħ
ĠpoÅĤÄħczenie m
Ġteat ru
ĠIz rael
Ġzajm owaÅĤ
Ġ$$ \
ĠAntar kty
C ar
b is
c ci
ko s
Ġc Ã³Å¼
ĠC ur
sty cznoÅĽÄĩ
Ġosob owych
ĠAn ton
Ġpoprze dniej
Ġ$\ {
^{ -
Ġatrybu t
ĠgÃ³ rach
ĠnieprawidÅĤ owe
Ġduplika ty
Ġpodmio tu
D B
Ġna stawi
Ġb row
da cjÄĻ
se li
Ġog ÅĤa
Ġda ÅĤa
Ġzawiera jÄħcych
ĠpÅĤyn Ã³w
Ġglobal nej
ĠPÃ³ÅĤ wy
ĠMog libyÅĽmy
Ġbiega cz
t owym
Ġmo da
ĠG rani
ard s
Ġskute cznÄħ
)) )
Ġlek ce
Ġproce sach
Ġak cja
syj na
Ġrobi sz
Ġmody fika
Ġprofesjona listÃ³w
W ÄĻ
ÅĤ owy
ÅĤa Äĩ
ĠS zo
Ġpa th
Ġni czego
Ġpu deÅĤek
sc ri
Ġtygodni owo
Ġdocel owego
ĠuÅĤat wi
Ġher baty
Ġzje Å¼dÅ¼a
dele te
T rzy
v ens
ar g
Ġwy e
Ġko dem
szy ÅĦski
we b
ĠÅĽwie Å¼o
Ġniez god
Ġwyra Å¼
Ġwyz waniom
ĠFi le
ĠsÅĤone cznej
Ġgener owanie
Dzie lÄħc
Ġfunkcjonal noÅĽci
Ġprognoz owania
Dob rze
k owaniu
Ġnie para
mo ni
ĠH ill
Ġdy kta
Ġ10 1
ha ma
Ġoce anÃ³w
ĠRoz kÅĤad
ĠBa y
Ġpoka zy
Ġeko logiczne
ĠDu cha
ĠKaro lina
Ġujem ny
ĠAli cja
Ġrezon ans
ĠKsiÄħ Å¼ÄĻ
wzglÄĻdni j
c owy
Ġu po
Ġprze ÅĤy
dzie ÅĽcia
Ġrzeczywi sta
Ġbe ha
Ġwizuali zacje
ĠQue ue
Ġrozmait oÅĽci
n niki
s ist
|> (
ta Å¼
Ġnie lega
ĠW pÅĤyw
ist ic
we l
Ġra bi
Ġbi let
ĠCh ÅĤo
stan u
Ġpsychi cznym
Ġdwut lenek
element s
! ")
n Ã³Å¼
Ġu spoko
wa zyj
wia ÅĤ
ĠZ en
Ġrze mio
Ġstatysty czna
Ġniewiel kÄħ
Z osta
b ÅĤko
z dro
Ġk oru
te lek
ĠM id
Ġlub el
pa li
ĠO k
Ġwi dzÄħc
ĠKa te
Ġzmniej szeniu
zwy kle
Ġnajmniej szej
Ġsia tki
Ġpora d
Ġsamopo czucia
ĠwiÄħz ania
Ġole ju
W S
w skie
Ġdo ktor
Ġ18 45
Ġ8 3
Ġfun c
Ġstatysty ce
ĠNaj ÅĽwiÄĻt
Ġlotni ska
ĠrosnÄħ cÄħ
ĠwypeÅĤ nione
letni Äħ
ĠspoÅ¼yw cze
Ġwdra Å¼anie
ĠOgÃ³l no
( *
Ġ Ã³
ie f
Ġna tra
Ġu rat
tu de
sze l
Ġmie jski
ono mia
met riÄħ
Ġwojs kowe
Ġprzedstawi ciel
ĠzaczÄĻ to
ĠdÅĤugi m
ĠkrÄħ Å¼enia
Ġszpita lu
ĠLw owie
Ġb Äħ
Ġb ob
ĠP rÃ³b
Å¼y li
Ġdy spon
ĠMa ur
ĠKa pi
pod ob
Ġwzro ku
Ġrozwi niÄĻcie
Ġelektry cznÄħ
Ġresz t
Ġprzepis ami
Ġfilm owej
Ġtechni cznego
Ġryt mu
ĠInforma cje
Î ¼
Ġm ane
ar es
Ġprze ciÄħ
ĠP obie
ĠNa g
Ġstra ciÅĤ
Ġci ty
Ġgospodar czych
Ġprag nie
ĠEd mund
Ġpotwier dzenia
Ġzer owej
Ġtury styczne
czer wo
Ġdokon ano
ĠoÅĽwiet lenie
ĠMiÄĻdzynarod owy
cur sive
Ġgwaran tuje
Ostate czna
Ġprze nik
Ġpro siÄĩ
Ġsp y
Ġsp ont
Ġpozosta ÅĤy
Ġprawdzi wych
Ġregi ony
Ġkoncent racji
Ġsur owcÃ³w
Ġkoncentru jÄħ
Ġilu struje
ĠSztu czna
Ġscenariu sze
Ġchirur g
Ġoczywi ste
Ġekosy stemy
F e
G et
T wierdzenie
Ġdo kÄħd
Ġza li
ma ÅĦski
ĠM is
Ġczy ste
Ġzna czny
Ġze zwo
ĠU zna
Ġ18 40
ĠcaÅĤ kÄĻ
Ġsamo tnoÅĽci
Ġbu telek
Ġnajlep sza
Ġ185 5
Ġtransforma cjÄĻ
Ġcal led
Ġindek sie
Ġs mall
po li
ĠS anta
Ġe ska
Ġob chodzÄħ
ĠNa stÄĻp
zi arni
Ġgene racji
Ġwykon any
Ġchwi l
Ġrozpozna Äĩ
Ġintegra lnÄħ
Ġpobr ane
ĠFeli ks
Ġaneg do
C P
la l
Ġko ra
ĠC lass
pa ce
ĠO ld
cho dzenie
Ġpolity cznego
ĠjÄĻzy kowe
Ġplan em
ĠbÅĤÄĻd nych
Ġwypo Å¼y
Ġtelewizyj na
ori ty
Ġur ban
B I
ĠN ot
Åº le
ĠO ch
Ġ\ ,
Ġde parta
ĠMar s
fini cja
Ġauto rem
szczenie m
Ġban ku
Ġosa dni
Ġmno Å¼enie
Ġpierwiast kiem
ĠKi j
Ġniezwyk ÅĤe
Ġwirtu alnych
ĠEner gia
i j
Ġdo ktora
ĠPo to
ĠCo mp
Ġzakre sem
ĠbieÅ¼Äħ cy
ĠFace boo
ĠWrocÅĤa wiu
Ġfunkcjonari usz
A ll
[ :
Ġm owa
da e
si ÅĦski
ĠMar co
Ġdem okracji
ĠtÅĤuma czka
Ġnarod owoÅĽci
Ġzdefini owane
Ġrezon uje
ĠAmer ica
E qual
I X
W ska
j ga
Ġw pa
Ġt ance
ĠO sie
Ġ7 9
ĠPrze mysÅĤ
Ġgra ÅĤ
Ġpoprze dnim
Ġpie czenia
Ġodpowiada jÄħcych
Ġrozpro szone
ĠÅ¼arÃ³w ki
Ġpowi kÅĤ
Ġmigra cji
Ġnota tki
m owych
} '
Å¼ nym
Ġwy wiera
ĠK ÅĤo
Ġdzie ckiem
io let
Ġnaj prost
Ġaktyw ny
Ġodbior cy
Ġmian em
l g
Ġo szcze
ĠB arto
ĠPa ÅĤac
Ġtechno logicznych
dek lar
menta ch
Ġpoko naÅĤ
Ġanaliz Äħ
Ġrea guje
Ġzawo dÃ³w
ĠukoÅĦ czeniu
Ġodwiedza jÄħcy
p kÄĻ
Ġ ~
Ġin fo
Ġroz ÅĤoÅ¼yÄĩ
Po la
Po myÅĽl
ĠPa ki
Ġrozwi niÄĻcia
Ġperspekty wie
Ġbraku jÄħcych
Ġkapi tu
Ġmagnety cznego
Ġpowstrzy maÄĩ
ĠBezpie czeÅĦstwa
W W
Ġna przeciw
ĠMo j
Ġry tua
Ġdy sk
id en
In dex
cjonal ny
Ġwykon aniu
Ġpotrzebu jemy
mul ti
Å»y cie
Ġwaka cje
Ġbezrobo cia
g un
z owana
dzi sta
pe s
ĠÅĤÄħ cznej
Ġzastos owaniem
fo ra
ĠrzeÅº by
ĠÅĤad unku
Ġudzie liÄĩ
ĠskÃ³r ÄĻ
ĠOfi cja
ĠwrÄĻ cz
Ġocze kuje
Mak sy
, -
a e
Ġpo goda
Ã³w ka
Ġza mo
Ġwy szedÅĤ
dzi ane
Ġgru Åº
ĠFran Ã§ois
mio ty
Ġdzieci ÅĦstwa
mon t
Ġzaprojekt owaÄĩ
ĠprÃ³bu jÄħ
ĠdruÅ¼y na
ĠnajbliÅ¼ szej
ĠmÅĤody m
S Äħ
Å¼ liwoÅĽci
|> *
Ġb il
czy ny
Ġroz strzy
ĠD Äħ
ĠO twÃ³rz
ĠL ie
Ġopera cyjnych
Ġbadania mi
Ġsza le
Ġstandard owy
ĠpiÄĻk nie
Ġkultur owej
Ġ185 4
ĠWh ich
ĠGÅĤÃ³w ne
Ġwyobraz iÄĩ
g lu
z en
Ġo kazaÅĤo
Ġm nÃ³
ĠP en
po t
Ġod padami
wi ona
Ġre konstru
owie cki
ĠJe steÅĽmy
ĠTo ny
Ġdy stan
Je szcze
Ġbio log
ĠprzeszÅĤoÅĽci Äħ
Ġzwo lni
ĠcÃ³r kÄĻ
Ġdokumenta cji
ĠKsiÄĻÅ¼y c
Ġfundu sze
Ek sp
c entu
ch t
Ġnie sie
ĠS obie
ri ve
Ġco mple
Ġinte re
Ġbryty jskiej
Ġper centy
Ġdzi kich
Ġpopular ny
ĠporÃ³wn uje
Ġudo kument
Ġeli min
ĠKsiÄĻ stwa
Ġosobisty mi
Ġnajpopular niejszych
Ġjednoczes nym
Ġskonsult owaÄĩ
ĠO blicza
ĠH art
Ġde baty
Ġ18 15
pro te
Ġmode lem
zi or
vi ces
ĠuwaÅ¼ noÅĽci
Ġ: =
Ġzmienia jÄħce
Ġprzedstawi ÅĤ
Ġdynami cznego
Ġfirm Äħ
Ġuzasa dnia
Cho Äĩ
ĠPowie trze
ĠoÅĽwiet lenia
ĠJac ob
Ġnieprzewidy wa
k ane
dzie sz
Ġre por
Ġroz rzu
ĠD iego
sie j
Ġozna czone
Ġczyn noÅĽÄĩ
Ġgenera tora
ĠwÅĤÄħ czenia
ĠzwierzÄĻ cia
ĠsÅĤy szeÄĩ
Ġucie c
ĠbÅĤy szczÄħ
ĠpociÄħ gi
Ġzagad ki
Ġspont ani
Ġ rzadziej
Ġob j
ĠN WD
ĠWy brze
Ġpowie sz
Ġinforma tyce
Ġarty stycznych
ĠBa war
par te
ĠchÅĤo pa
ĠrÃ³wno bo
Ġoddzie lone
ĠwysiÅĤ kÃ³w
Ġdziedzin ÄĻ
Ġinfor muje
Ġsprzed anych
W iÄĻk
Ġw nu
Ġw glÄħdu
Ġpo daw
Ġpo prowadziÄĩ
Ġpo uf
da ys
rÃ³Å¼ nia
Ġsu p
Przy j
Ġdaw nej
ĠMed ia
Z najduje
Î »
le ya
Ġwy niÃ³sÅĤ
ĠK ad
szy n
wy czaj
tor s
Ġboga tego
ĠPra wa
Ġusu niÄĻciu
ĠprzemysÅĤ owych
ĠwspÃ³ÅĤpracu jÄħ
I ch
Ġu rzÄĻdu
ma ÅĤa
czy liÅĽmy
Ġpow er
ĠMo st
Ġfizy ka
pp ort
Ġintensyw noÅĽci
Ġdostosowy wania
Bad anie
Ġekspozy cji
Stru ktura
Ġp en
Ġs now
ĠIn die
Ġru r
ĠRe y
ĠÅĤÄħ czenie
Ġmatematy czna
Ġimport ant
Ġwbud owanej
Ġprzejrzy stoÅĽÄĩ
ĠÄĩwier Äĩ
Ġu czÄħc
czy nek
Ġg ÅĤÄħb
Ġcz ter
Ġzna my
pi one
Ġcie pÅĤy
ĠÅļ wi
Ġspraw dzanie
ĠUS S
kÅĤadni ki
ĠzachÄĻ ty
Ġresz tÄħ
Ġnarod owego
ĠprzeglÄħd ar
ĠpoÅĤoÅ¼ ona
ĠRzecz pospolita
N ot
O pracuj
m ki
Ġw kÅĤadu
Å¼ nie
se con
ĠmiÄĻdzy wojen
Ġ6 1
ĠKa mp
ĠLe gi
Ġstos unkÃ³w
Ġkar ta
row ski
Ġpio nier
Ġaktu alny
Ġwynika jÄħ
Ġdysku sja
ĠtÄĻtni czego
Ġrekuren cji
Ġreje stru
ĠZygm unta
Ġpowiedz my
p ran
p lin
y ment
ra di
Ġwy s
ĠC menta
Ġroz my
Ġsz pie
ĠR on
ĠczÄĻ stoÅĽÄĩ
owaÅĤ by
ĠwÄĻ giel
Ġstud enta
Ġwarun kami
Ġatmos fera
Ġdocel owych
Ġrozu mienie
Ġmis ja
Kon wertuje
Ġnormal nie
Ġscen o
ĠKonstytu cji
Ġd uring
Ġe u
ĠK ilka
ĠAr gument
Ġper sona
Ġlogi cznÄħ
ĠrzÄħ dzÄħ
}\ )
pom or
ĠÅ¼ydow skiej
ĠDru ga
Ġarte fak
O kres
Ġsp rzÄħt
Ġbo th
qu ency
ĠdÅĤu Å¼sze
20 19
Ġ9 1
Ġgeo log
Ġtyp owych
Ġemocjonal nym
Ġgwia zda
ĠÅ¼a lu
ĠWene cji
Ġtrzu stki
Ġcosin us
K ey
p ru
t ens
w n
w s
} ]
li Äħ
Ġf osfor
cze wski
ĠC ana
Ġli dera
Ġroz prasza
ĠLi tera
Ġdie te
ĠwÄĻgier ska
Ġety kiety
ĠprzystÄĻp ny
ĠwÅĤÃ³ kien
Ġfarma ko
A F
st or
ja ÅĽnienie
Ġ1 15
ÅĤo Å¼enia
Ġpa kiet
ĠF lor
Ġme thod
so rem
Ġnad chodzÄħcych
cha ÅĤa
Ġwywo dzi
ĠWie my
Ġkreatyw nego
Ġubezpie czenie
P P
b ka
d ani
dz wo
ĠD un
ĠPo pie
Ġme cze
Ġpotencja lnÄħ
Ã© e
Ġzdoby ÅĤy
Ġprioryte tem
Ġmno Å¼ymy
ĠKtÃ³ re
123 45
V iew
t zn
Ġwy znacza
Ġe tyki
kow oÅĽci
ri bu
se mi
ĠcaÅĤ ka
Ġzdr owej
Ġodpowiada jÄħcy
Ġuszko dzenie
Ġwczes ne
Ġzab lo
Ġmedycy nie
Ġnieja sne
ĠZapew nia
Ġmer ge
Ġskur cz
Ġcano e
ĠErn st
ĠCharakt ery
. __
f lu
Ġp ut
Ġo Å¼e
Ġza staw
me chani
dzie my
for mowaÄĩ
ĠzwiÄħz anÄħ
ĠdotyczÄħ ca
Ġniemie cko
(" \
Ġkolej ka
Ġzwie rzch
ĠOb rony
ĠlÄĻ kiem
Ġwybr ane
Ġzbio rami
ĠÅ¼Ã³ÅĤ ci
Ġinteligent nych
ĠprzeÅ¼y cia
Ġekosystem u
Ġcierp liwoÅĽci
ĠmenedÅ¼e rem
ĠomÃ³wie nia
v il
ch ia
Ġza inicj
no tra
Ġma pÄĻ
Ġkon densa
Ġzna cznej
list s
Ġtempera tu
Ġtytu ÅĤy
ĠÅĽwiadom Äħ
math cal
math rm
Ġodzwierciedla Äĩ
Ġtelef onÃ³w
Ġkomi k
Ġur l
Ġstrze lec
Ġety kie
Ġum owÄĻ
Ġzare a
Ġrelak sa
ĠzÅĤam ania
Ġpermu tacji
Ġesto ÅĦski
g ment
Ġw nik
Ġna praw
me dy
ĠP raca
ĠS ÅĤy
Ġre move
Ġpow Ã³d
ĠczÄĻ stoÅĽci
ĠRo sja
stÄħ p
Ġnaz wami
ĠniektÃ³ rymi
ĠzÅĤo tych
ĠpoczÄħtku jÄħcych
Ġmor skiego
Ġrekuren cyjne
teria ÅĤy
Ġkupi ÅĤa
Ġutrud niaÄĩ
Ġkonwer sa
ĠBit wa
ĠManu el
Ġantyko muni
o mega
nie bow
Ġpro muje
Ġpod gru
Ġli stu
Ġku puje
Ġutwo rzone
Ġzacho dnich
ĠnajwyÅ¼ sze
Ġobni Å¼enie
Ġryn kowych
Ġnajwy Å¼ej
Ġguber nator
ĠVic tor
r owi
mi um
Ġpa sja
sty kÄĻ
for t
Ġprzypad kiem
Ġhe ight
Ġsur owe
Ġdrew ni
ĠkrÃ³le stwo
Ġstrategi czne
Ġprzesy ÅĤania
ĠFrank lin
Ġkap ÅĤ
Ġwytwarz ania
Ġamba sa
u ss
ro by
en dy
to po
ĠA pol
ve ral
19 45
Ġzapa ÅĽni
ĠzwiÄĻz ÅĤoÅĽÄĩ
Ġrzecz ownik
Ġzba da
Ġefektyw nym
Ġtro pika
ĠciÄĻÅ¼ kich
Ġchi lijski
Åļ redni
ĠRob in
Ġtury stycznych
ĠdruÅ¼y n
Ġsec ond
Ġsubie ktyw
w rite
Ġna mes
Ġwy tycznych
pe z
ca st
user s
ĠH on
rza ÅĤy
ĠcaÅĤ ki
Ġzapew ne
Ġupew niajÄħc
Ġex per
Ġzawod nik
ĠMan che
ĠzrÃ³wnowaÅ¼o nym
ĠSk y
Py tanie
Ġopublik owaÅĤ
Ġnajszyb ciej
Ġna ka
Ġza ciera
ĠW el
ĠW arto
Ġpro mujÄħc
tel y
Ġwymaga jÄħce
Ġbryty jskie
ĠLu i
ĠmÃ³wi sz
Ġzy skÃ³w
ĠÎ ±
den ci
ĠWh en
Ġadministra cyjny
date time
Ġzdecyd owaÅĤ
ĠZacho dniej
Ġiter owaÄĩ
Spraw dÅº
Ġawan su
ĠpoÅĤudniowoa frykaÅĦski
dz aniu
cy n
ĠA ga
bi u
Ġzna komi
we d
Ġle tnie
pre ssion
Ġefe kcie
ĠpamiÄĻ ciÄħ
ĠniezaleÅ¼ noÅĽci
Ġstu dy
ĠMusi c
ĠWz Ã³r
Ġhiper boli
ĠnastÄħpi ÅĤo
ĠBru no
Ġleka rzem
Ġekosy ste
Ġszyfr owania
Ġenergo oszczÄĻd
Ġod nieÅĽÄĩ
wie ÅĦ
ĠT al
Ġh indu
ĠL ot
Ġunika lnym
Ġani mal
ĠpowaÅ¼ nych
ĠZasa da
Ġbakter ie
Dru ga
Dru gi
ĠUkrai ny
ĠSim on
Ġelektromag nety
Ġlegen dy
ĠZdr owia
ĠpodpuÅĤ kownik
Ġna daw
Ġza stanÃ³w
mo us
Ġmi go
Ġra sy
Ġstan ow
ĠwÅĤaÅĽciw oÅĽciami
ĠPu char
rzaÅĤ em
ĠmaÅĤ Å¼
ĠkoÅĦczy ny
ĠmiÄĻk kie
Upro ÅĽÄĩ
ĠBroni sÅĤaw
ĠIra ku
ĠNiepod legÅĤoÅĽci
B ÄĻd
U nikaj
d ano
p si
dni ki
Ġ7 7
ĠĠĠĠĠĠĠĠ ĠĠĠĠ
." );
ĠÅļ ci
Ġzdr owy
wany mi
Ġwol nych
szuki wanie
ĠFi lozo
Al goryt
ĠukoÅĦ czyÅĤ
Ġrezer w
Ġem pa
Ġzm usi
ĠwierzchoÅĤ ki
Ġzaspoko iÄĩ
c re
t ransa
cz ko
ne q
oÅĽ nia
za tor
dzia ch
man Ã³w
cjen t
Ġlogi kÄĻ
Ġpowszech nym
ĠnieskoÅĦ czone
Ġsiedzi ba
ĠJose f
Ġprzeczy taÄĩ
ĠostroÅ¼ nie
Ġhor m
Ġcier pienia
x a
ni li
ni owe
Ġi mieniny
ĠS kÅĤada
Ġh ura
niej szymi
Ġsta jÄħc
waÅ¼ niejsze
Ġprzed w
ver sed
rea ci
Ġzie lony
ĠdÄħ Å¼enia
Ġznajd owaÅĤa
ĠÅĤu k
Ġodcin ki
Ġatrybu ty
Ġwul kani
zek w
ĠdostÄĻ pem
Ġspon sor
T ok
Ñ ĥ
Ã³ dÅº
Ġu stawÄĻ
ta lnej
Ġprzy bywa
Ġop ery
Ġsze pt
ir s
ĠmÅĤo de
Ġdzi wa
land ia
Ġkreatyw ny
Ġinteresu jÄħcy
Ġbrz mieÄĩ
Ġminimal nej
ĠpoÅ¼Äħd ane
ĠzaÅĤoÅ¼ ona
Ad d
ameryka ÅĦski
Ġceremo nii
Ġniere gular
) ),
E M
ĠS ob
ĠC H
rowa ÅĤa
Ġpubli cznym
Ġopera torÃ³w
ĠBe nedy
ĠwskazÃ³w kami
ĠMu szÄĻ
Ġsprawie dli
Ġ185 1
Ġautenty cznoÅĽci
Ġparla mentu
ĠumiejÄĻt noÅĽciach
U praszczajÄħc
b Ã³j
t any
Ġza de
ĠI o
Ġokre sach
Ġser w
Ġsam oÅĽwia
Ġper for
Ġide alnym
ĠczÅĤon kow
ĠWiel kÄħ
Ġzapobie ganiu
Ġpodz bio
mai la
Ġspersonaliz owanych
ĠFrydery ka
re verse
Ġf one
Ġma sie
ĠZ ar
Ġkar te
Ġdziedzi nami
Ġprakty ka
Ġchcia ÅĤa
Ġprzekon anie
Ġsymbo lu
Ġdelika tnym
Ġsymu lacji
ĠStowarzy szenie
ĠFahrenhe ita
k rÃ³
ni orÃ³w
lu me
ĠP ÅĤo
Ġwi dzia
ĠMa th
Ġju st
Ġarty ÅĽci
ou gh
ĠgÃ³r nym
Ġbio dr
ĠwspÃ³ÅĤczyn nikami
ĠwyÅĽwiet lania
Ġwio sce
Ġolimpi jski
Ġinc lu
Ġtan cerka
Ġniezapom ni
wa ÅĤem
tu p
Ġto mo
gi ch
ĠD er
sy p
Ġka mery
io to
liwe k
usz ki
Ġanali zujÄħc
Ġcharaktery styczny
Ġniebezpie cze
Ġprzezna czone
Ġdrob no
Ġjo gi
Ġdemon struje
Ġorgan Ã³w
Ġframe wor
Ġu dar
Ġh ard
ĠO le
Ġkla wia
Ġkomp res
pÅĤa ta
Ġkur czaka
Ġbibliote kÄĻ
ĠFranci s
Ġkor po
ĠwraÅ¼ liwoÅĽÄĩ
Ġkonstytu cji
Ġdele te
Ġperu wia
A nd
n uje
p Äħ
st en
ci fic
wi li
Ġlu du
ĠK li
Ġsto jÄħ
Ġmar notra
Ġwar te
Ġsztu kÄħ
Ġpla Å¼
Ġofer t
Ġprzedsta wiam
Ġjas nÄħ
Ġgot owoÅĽci
Ġlotni czych
Ġzaba wne
Ġumy ÅĽle
Ġjakby ÅĽ
Ġkrajobraz ie
Ġpodpis ano
ĠWspÃ³ÅĤ czynnik
Ġrywa lizacji
b ec
f unk
mi ja
ta g
ta gn
so cja
Ġwprowa dzeniem
Ġpla ka
Ġjednost kom
Ch ÄĻtnie
Ġkompozytor ka
ĠpoÅĽwiÄĻ cenie
Ġharmo nij
Ġniezna jo
ĠMagda lena
X X
Ġw sty
Ġs ÅĤaw
Ġmo tory
Ġprze jÄħÅĤ
Ġja zda
Ġta ter
ĠÅ¼e laz
ĠK er
Ġpoz nania
ĠÅ¼ art
Ġsztu czne
Ġzapo zna
Ġzidenty fikuj
Ġnarciar ska
ĠomÃ³wie nie
SÅĤ ownik
I s
u dy
Ġz rÃ³b
te red
Ġbu tÃ³w
Ġska la
Ġpoda tne
Ġmagi cznego
ĠTra dy
ĠwraÅ¼ liwych
Ġczuj nikÃ³w
\_ \_
Ġekskluzy wne
, \
b ier
te ktura
cy to
Ġod er
Ġwie dziaÅĤa
Ġ18 18
ĠÅĽci anie
Ġprzeprowa dziÅĤ
Ġautor skich
Ġcia steczek
Ġmist rza
Ġkonwer tuje
Ġznajom oÅĽci
ĠPrawdopod obieÅĦstwo
g lo
t rud
} |
Ġo dzieÅ¼y
Ġza mÃ³w
ĠP lu
wi i
bi ja
Ġwa dze
ĠÅĽrod kowego
Ġsty lem
ĠzÅĤoÅ¼ onymi
Ġkomunika cyjnych
Ġprzyczy niÅĤy
ĠbiaÅĤ ko
ĠbiaÅĤ orus
ĠÅĽwiad kiem
ĠSier giej
ĠubÃ³ stwa
Ġczasoprzestrze ni
* (
ta ge
Ġre t
ĠZa j
Ġof ia
Po przez
Ġokre sy
Ġpom or
Ġobie gu
Ġpodzie lenia
Ġobraz ie
Ġzb ier
ĠpostÄĻp owaÄĩ
ownika mi
Ġzorganiz owane
Ġ183 7
Ġmono toni
ĠmiÅĤoÅĽci Äħ
Ġklini cznych
Ġniu ansÃ³w
Ġskutecz niej
Ġprzecie Å¼
O VA
m any
owa ÅĤoby
Ġma jesta
Ġpod ar
ĠE sto
siÄħ c
Ġbo m
ber to
Ġkro tkÄĻ
ĠprÃ³ bie
Ġzie mie
ĠdokÅĤad ny
Ġtechno logiczne
Ġbe ne
ĠdziaÅĤania mi
ĠSy rii
Ġpart ia
gen u
Ġodwie dÅº
Ġ184 4
Ar tagn
ĠÅĽwiado mym
ponen t
ĠKor pus
ĠPoli tech
opo ld
Ġcmenta rzu
hrenhe it
iusza mi
Ġd p
Å¼e sz
dy nami
ĠS us
ĠG en
Ġmi t
Ġwo dzÄħ
niÄĻ tÄħ
Ġsi ar
Ġstru mienia
Ġproble mach
ĠmÃ³gÅĤby m
Ġuzna jÄħc
Ġstanowis k
ĠwypeÅĤ niÄĩ
Ġdzielni c
Ġfesti wal
ĠAnth ony
g any
Ġo gon
Ġprze to
Ġg arni
dzie la
owo duje
rac k
Ġwol nej
ĠSta tysty
Ġgospodar ce
Ġbli Å¼
Ġotwar tej
Ġdra pieÅ¼
Ġstre fa
Ġdr ga
Pi szÄĻ
ĠÅ¼ywi oÅĤ
Ġdomi nik
Ġtransmi sji
. *
ni cki
Ġm anu
Ġk liknij
ĠW Ã³wczas
de mo
ĠK wia
Ġpi an
ĠcaÅĤ kowania
ĠIn c
Ġci chy
Ġboga tym
Ġkoncep cjÄħ
Ġzre duk
Ġmarketing owÄħ
Sta te
ĠÅļlÄħ sku
Ġs chroni
Ġu stawienie
Ġja jek
Ġsz o
sa s
Ġme ssage
Ġnaj mÅĤod
ĠcaÅĤ kiem
Ġse ra
Ġse ce
ĠdotyczÄħ cymi
ĠLe ch
Ġprzesz ÅĤy
Ġtrady cyjnego
use ppe
Ġpojedyn czych
ĠNew tona
Ġsh ort
ĠÅ¼a gl
Ze spÃ³ÅĤ
ĠpociÄħg Ã³w
ĠRÃ³Å¼ ne
Ġaro und
Ġprzecina jÄħ
Ġbutel ki
ĠumÃ³w iÄĩ
i ter
Ġk res
Ġprzy puszcza
ĠI sto
stÄĻpu jÄħ
Ġwe tery
id s
ĠwewnÄĻtrz na
ther n
ĠBar dziej
ĠMy ÅĽl
Ġ183 9
Ġpal ce
ĠKry styna
Ġkawa lerii
Ġceremo nia
Ġsensory cznych
Ġkoszta mi
Ġzauwa Å¼yÅĤ
Ġamino kwa
Ġprze sÅĤa
ck en
fik owanie
Ġsi de
Ġproble mie
ĠciÄĻÅ¼ kÄħ
Ġwoje woda
Ġeksper tami
Ġtajemni cze
Ġpozwoli ÅĤoby
ĠnarzÄĻdzia mi
Ġosie dla
ĠÅĽredniowie czu
ĠbranÅ¼ owych
kwar gs
E A
Ġd en
Ġt ward
ĠG am
ĠJe h
Ġsa ÅĤa
trzy maÄĩ
ĠDo stÄĻp
ĠPrze ciw
ĠÅĽci anach
Ġper io
Ġakademi ckie
Ġrobo czej
Ġskar bÃ³w
Ġdome ny
Ġnagr ania
W reszcie
mi ony
or ie
ĠW ska
ĠK rÃ³t
do uble
ĠJa mie
Ġbo dy
ĠPol skÄħ
Ġpan das
ortu j
Ġkan cle
Ġekspery menty
Ġoper owa
ĠJuli usz
ĠGabr iel
K ra
b ery
f ro
Ä ±
Ġpo de
Ġpo stanowie
Ġwy glÄħdu
ĠS and
Ġwie rzÄħ
ri usz
Ġle wym
Ġca ÅĤo
Ġwoj nÄħ
ĠAr ty
ĠzÅĤo to
Ġeg ze
Ġemi sje
Ġosa dy
Ġprzekonu jÄħcy
Ġpodzbi Ã³r
Ġbaj tÃ³w
Ġs ha
Ġpo kÅĤad
ge ni
czy kÃ³w
Ġg ad
lo ty
Ġta lent
Ġle ni
Ġv illa
Ġgospodar stw
++ ;
Ġzaplan uj
Op cje
Ġzaga dnienia
Ġzidentyfik owanie
Ġpatri ar
Ġprzeciwcia ÅĤ
ĠSteph en
ĠDoug las
R ob
Z wiÄĻk
d nikÃ³w
n ny
w ce
cz an
te czne
Ġc iaÅĤem
Ġko nia
Ġprzy niosÅĤa
Ġob se
Ġzw ana
ĠÅĤa twa
Ġkry minal
ĠtÅĤuma czenia
Ġdziew czÄħt
ĠpoÅ¼Äħd any
prawied liwoÅĽci
ĠPosia da
ĠObywa tel
. /
li zy
Ġma rzenia
Ġlo ty
ve st
sia da
Mo Å¼na
ĠBe na
}$ $
ĠpoÅĤudni owym
Ġtor by
ĠÅºrÃ³dÅĤa ch
ĠMicha iÅĤ
Ġszer szy
Ġcentral nÄħ
Ġniespo koj
Ġkalenda rza
Ġqui ck
ã ĥ
cz kach
Ġnie da
Ġde duk
Ġnatural nej
rzÄĻd ne
ĠrÃ³wno miernie
Ġzacho dnio
Ġmarketing owej
Ġprzewidy waÄĩ
ĠrzeÅº bi
Ġopa dy
Ġjaka ÅĽ
ĠrÃ³wnoleg le
ĠostroÅ¼ ny
ĠpociÄħ giem
ĠzapaÅĽni czka
) ).
C S
c c
sz czyÄĩ
Ġnie dro
Ġc le
ĠT eksa
za ÅĤa
ent ne
Ġsta raj
lar stwo
Ġkra w
Ġpubli cznie
Ġlitera tura
ĠÅģÄħ czÄħc
sca la
Ġpodporu cznik
= -
Î ¿
Ġza fa
ĠWy glÄħda
Ġzw anych
Ġno mina
ĠPrze strze
ĠMi ckie
ĠAl len
ĠgÃ³r ny
Ġgodzi na
ĠobsÅĤu gÄħ
Ġskrzy p
Ã¼ h
Ġzaka Åº
ĠuzupeÅĤ niÄĩ
ĠuÅ¼yte czne
Ġekspres ji
ni or
Å¼y ÅĤy
Ġroz strze
mo st
stÄĻp owanie
cÄħ ce
ĠX ML
ĠgÃ³r nego
ĠodlegÅĤ ych
Ġtren du
Ġhierar chii
ĠpÃ³j ÅĽÄĩ
Ġ" ;
Ġr any
Ġnaj gÅĤÄĻb
ner s
ĠMar cus
Ġopis Ã³w
Ġcen nym
Ġwynika Äĩ
ĠWh y
ĠprzesÅĤ ania
Ġgi ven
Ġinteligent ne
Ġjakiej kolwiek
Gru pa
ch ie
Ġf anÃ³w
po znaj
ur ch
ĠF ore
Ġtwo rzone
ĠZa sÅĤugi
Ġprzej dÅº
ĠgÅĤÄĻbo kich
Prze j
ĠrÄĻ ku
Ġmini malne
Ġpodob na
ĠniezaleÅ¼ noÅĽÄĩ
formu ÅĤuj
ĠRozpo cznij
Ã¨ re
ĠuksztaÅĤt owaÅĤy
Ġczaro dziej
Ġlan guage
U R
z ona
ro t
Ġu cha
za sa
ĠZ da
ĠG un
ĠE ukli
Ġni skÄħ
Ġog niu
ĠZa planuj
Ġide o
ĠznaczÄħ cym
Ġmedy tacja
Ġaut onomii
Ġgen u
Ġpusty ni
Ġswobo dy
Ġprzekaz anie
Ġatrybu tÃ³w
Ġmagazy nu
Ġfrancisz kanin
b ieranie
Ġo ry
Ġza ÅĤad
te Å¼
Ġprze ga
owie nie
ĠZ rÃ³b
Ġch wa
Ġdzie wiÄĻ
Ġop artÄħ
Ġbi tÃ³w
ĠÅĤa dunek
ĠÅļ rÃ³dziem
Ġpoprze dza
Ġskon figur
ĠbÅĤÄĻ dem
Ġoj cem
Ġobsza rami
Ġwczes nego
B al
dz ane
le l
ĠW niebow
de red
ĠK ioto
unk ty
Od powie
Ġprzedsta wiajÄħ
ĠCz war
Ġfrancu skim
ĠwskaÅº nikiem
Ġkry stali
ĠtrÃ³jkÄħ ty
Ġzdrowo tna
Ġprag nieniem
Ġzak rzy
Ġodnosi Äĩ
Ġredu kujÄħc
Ġprzekazy wane
Ġutrzymy wania
Ġzaktualiz owany
ĠprzedziaÅĤ Ã³w
vers al
Ġzwolen nikÃ³w
T O
ar ly
ty cki
mi czna
da kty
âĢ ĺ
Ġpre v
Ġ7 3
ha s
Wy ra
ĠWie tna
ĠdziaÅĤ aniu
Ġusta la
Ġzoba cz
Ġfrancus kie
Ġ184 2
ĠMicha ÅĤa
ĠprawidÅĤ owy
ĠGi useppe
Ġproto typ
Ġprzyjaz nych
Ġnadmier ne
ĠrozwaÅ¼a jÄħc
ÅĽwie cie
Ġmone tÄħ
J ane
P N
f os
o raz
Ġdo dania
Ġprze dziaÅĤy
Ġod blo
Ġe wangeli
se ra
Ġce chach
Ġra chunek
ĠMo unt
Ġprodu centa
Ġku baÅĦski
ĠSo me
Ġkore lacje
Ġfe w
ĠÅĤo dzi
ĠurzÄħdzenia mi
Sta ck
Ġdostaw cy
Ġutrzymy wanie
ĠmÄĻczen nica
ĠEmi lii
Ġgeografi czne
ĠoddziaÅĤy wania
ĠumiejÄĻt noÅĽciami
g ger
je r
Ġwy cin
us et
Ġroz tw
ĠÅĽwie Å¼ych
gro und
Ġklasy cznych
Ġkontro le
por tu
ĠCa mp
ĠwyjÄħ tkowo
Ġprzedstawi ciele
ĠpowiÄħz anych
Ġproducent Ã³w
Ġbro niÄħ
Ġwybiera jÄħc
Ġdis play
Ġwyczer pu
ĠColle ge
ĠEukli desa
Ġ ych
ch on
ar stwo
rze st
Ġdo pu
mi s
rzy stka
Ġto nie
ĠM use
us y
Ġta ÅĦca
Ġinte gru
Ġsie ciÄħ
Ġten sor
liza cje
ĠkoÅĦ czyn
ĠstaroÅ¼y tnoÅĽci
ĠÅļwia d
Ġrzad kie
ĠTade usza
ĠoÅĽrod kiem
shi p
Ġkonfron tacji
Ġchole stero
L og
Ġpo szedÅĤ
wa d
wa dor
Ġob sa
Ġpa pry
Ġodpowie dnik
war unk
Ġakademi ckich
Ġki ne
Ġmagi czny
Ġ184 1
ĠAmery kanÃ³w
Ġgdyby ÅĽ
okra tes
Ġimpre zy
Ġpat rzÄħc
Ġreferen dum
Ġpiz zy
Podstaw owe
Ġustanowie nie
Ġturniej u
ĠwiÄĻÅºni Ã³w
B ÄħdÅº
O grani
w ing
z ia
Ġko ÅĤy
ĠO stro
ĠG Ã¶
ĠNa zywa
niÄĻ tym
Ġry wali
Ġzach owy
Ġsko rel
Te xt
ĠLo ve
gr antÃ³w
Ġumieszcz one
Ġodczu waÄĩ
Ġnieparzy stÄħ
ĠporÃ³wny wania
ĠHit ler
S il
h istory
ni onÄħ
ka ÅĤa
ych aÄĩ
ma cja
Ã³r ki
19 39
Ġsprzeda ÅĤ
Ġidenty czne
Ġwyd ana
Ġzorganiz owanie
Ġwarszta tÃ³w
Ġodbywa jÄħ
ĠCzar no
Ġpia sku
ĠszczÄĻÅĽli wy
Najlep szy
Ġczasopis ma
ĠSakso nii
F R
b lÄħ
Ġpo rozumienia
Ġe tyczne
ĠC R
su re
Ġcho reo
ĠWo jewÃ³dz
Ġaktyw nych
Ġzwraca my
ĠznaczÄħ cego
ĠgÃ³r ski
Ġwojs kowego
Ġtest owy
ĠSu b
Ġrobo tÃ³w
Ġprzetwarz aniu
Ġ183 2
Ġanality czne
Ġprzyspie szenie
Ġer ror
ĠKonstan tyno
KaÅ¼ da
Ġmecz Ã³w
Ġz wa
Ġod ga
Ġsta tki
Ġsto ÅĤu
ak er
ĠZa kÅĤadajÄħc
Ġsk rÃ³t
ct w
Ġno tacji
Ġstan Äħ
Ġeksp l
ĠWa shing
ĠwejÅĽci u
Ġjas nym
Ġkieru je
Ġzaczyna jÄħce
Ġasy mpto
Ġgenera te
Ġpopular nym
Ġfrag mentÃ³w
up per
Ġpochod ne
Ġreje stracji
Ġkapi tana
Ġucznia mi
Ġklasztor u
Ġreha bili
% ).
B ra
Ġz ÅĤego
Ġnie p
Ġprzypad kowo
Ġzainteres owana
Ġkonstru kcja
Ġakapi tÃ³w
ĠspeÅĤnia Äĩ
ĠusÅĤu gÄĻ
Ġwspomnienia mi
Ġport fe
Ġgita ra
Ġkierun kÃ³w
igh bor
ĠkrÄĻgosÅĤu pa
O prac
Ã ł
Ġspos obie
ĠMa la
ĠgÅĤÃ³w nymi
Ġozna ki
Ġbu rza
Ġstru mieÅĦ
ĠnieskoÅĦ czonych
Ġstara jÄħ
ĠzÄĻ by
Ġsolid nÄħ
Ġszla kÃ³w
Ġkopa lni
Ġmagne tyczne
Ġazo tu
ĠBibli i
' ).
c owa
i ant
Ġa orty
ja ko
Ġod ejm
ĠS ir
Ġwo dach
Ġpodej muje
ĠprÃ³ ch
ĠciÄħg ÅĤej
Ġzaw ÄĻ
kowa li
Ġaktu alnych
Ġbli ska
ĠÅĽwiÄĻ tych
Ġszuka jÄħ
ĠAd ministra
Ġnadz oru
Ġprzejrzy stoÅĽci
Ġrent ow
J an
an dy
Ġk owa
lo cation
Ġprzy s
ĠD or
ĠE ng
Ġmi ÅĤoÅĽ
rzÄħ dzenia
bu ry
poÅĽ le
mien nej
ĠmÄĻ skie
Åģ a
ĠprzyjÄĻ ty
Ġodnawia lnych
Ġdzisiej szej
Ġszef em
Ġwyelimin owaÄĩ
ĠNAS A
s kry
Ġw chodziÄĩ
ĠM ul
Ġli tur
ĠD wie
Ġlo su
Ġpi ÅĤek
ĠwpÅĤy nÄĻÅĤy
Ġpowie rz
ĠjÄĻzy kowych
ĠBo Å¼ej
Ġwiel ory
ĠOd rodzenia
ĠWo da
Ġkoncent racjÄĻ
Ġplane cie
Ġciem ne
Ġperso nal
Ġzazna czyÄĩ
Ġniezapom niane
T rans
c lient
ie ry
Ġb liz
ss en
ge ny
Ġc rea
ĠPo sta
sto su
se p
ĠH MS
Ġof ten
ono miÄĻ
Ġwar ia
Ġistnie jÄħcej
ĠBo o
Ġpowo dem
Ġpar ki
Ġarty stycznej
ĠdokÅĤad nej
Ġad miraÅĤ
Ġl and
ĠzÅĤo te
ĠGÅĤÃ³w ny
Ġ179 2
Ġprzetr wanie
ĠRÃ³w nanie
ĠzgÅĤo siÄĩ
Ġpostrzeg ana
O znaczmy
Ä ĺ
ti v
Ġwsp ieranie
Ġgra ch
ĠLi gi
Ã© m
count s
Ġpowsta wania
ĠEuro pa
Ġfinans Ã³w
Ġsyn Ã³w
Ġprzesu niÄĻcia
Ġodwro tnoÅĽÄĩ
Ġniebezpie czne
Ġidentyfika tora
ĠsÅĤab ych
Ġskupia jÄħc
ĠPrzyj mujÄħc
Ġz Äħb
Ġwy ga
on owe
Ġko pi
Ġta sk
Ġwi dziaÅĤa
Ġar an
Ġv s
ĠciÄħg ÅĤym
ĠzaleÅ¼ nej
feren ce
Ġpodob nym
Ġzwro tnych
Ġzamie szka
Ġzo olog
ĠmiÄĻ ÅĽnie
ĠWol noÅĽci
Ġ184 3
Ġkwant owych
R ok
W al
W prowadzenie
} _{
li sh
ĠM em
Ġkolej nego
Ġkolej owej
Ġpoczu ciu
Ġlek kie
}$ <|
ian cja
Ġpoli tolog
Ġobro nie
Ġkierun kach
ĠwyobraÅ¼a sz
Ġp ush
rz anie
Ġpo rze
Ġmo cÄħ
ĠJ i
ant i
ĠU kÅĤad
Ġsy mul
ĠKo mp
ĠTe sta
ĠrÃ³wn aniu
ĠwspÃ³l na
Roz kÅĤad
ĠOb raz
ĠwewnÄĻtrz nym
Ġtajemni czÄħ
Ġkonsu l
Ġspoj rzenia
Ġnieparzy stych
Ġulubi one
Ġbior Äħ
ĠAlgoryt my
` ).
b iaÅĤ
d ru
o mi
v ot
Ġdo lnych
ta u
Ġnie ma
tkow ski
Ġbi Å¼u
ĠrÃ³wn aniem
ĠWil lia
con ne
ĠNaj lep
Ġznalaz ÅĤy
Ġkompleks owego
ĠÅ¼eg lu
Ġkierun kiem
Ġodpo czynku
Ġb unt
Ġza spo
Ġprzy dziel
ĠA i
ca p
Ġra mienia
Ġdu sza
Ġzw anej
ĠmiaÅĤ by
ĠksztaÅĤ towaÄĩ
Ġwod na
ĠÅļwiÄĻ tej
Ġstary m
ĠprzywrÃ³ ciÄĩ
Ġo liwek
lo per
Ġko larka
ĠS D
Ġby ÅĤego
sk oÅĽci
20 10
Ġsamo o
Ġbra ÅĤ
Ġmieszka ÅĤ
Ġprogram owanie
ĠDzie dzi
Ġwprowadz anie
ĠbieÅ¼Äħ cego
ĠPÃ³ÅĤnoc na
Ġparzy stych
Ġuru gwajski
Ġodbud owy
ĠPiÅĤsud skiego
ĠsprÄĻ Å¼y
Publi ka
dziesiÄĻ ciu
Ġwyizol owaÄĩ
" ),
K ry
p g
de ch
ĠZ arÃ³wno
ĠO cena
Ġme an
Ġpre dy
prze wod
ĠRo m
Ġutwo rzony
Ġprzeka zujÄħ
ĠHo use
ĠsÅĤucha czy
Ġfu tury
Ġlar ge
l owej
â Ķ
na s
Ġna pisz
Ġpod ga
ĠI SO
bu tton
Ġos ÅĤo
Ġdecy duje
Ġak ces
Ġprzyczy nÄĻ
Ġchoro bami
Ġcodzien nej
Ġwod nej
Ġznie czu
Ġneuron owe
Ġprzygod ÄĻ
na zwa
ta ktuj
Ġprzy stan
ĠA rab
ska j
ĠL ong
ĠMa j
ĠIn dex
Ġgdzie ÅĽ
Ġniez er
Ġprzeciw prostokÄħ
ĠciÄħg ÅĤÄħ
den bur
Ġskomplik owany
Ġfundamenta lna
Ġmist rzostwa
Mar k
ĠGda ÅĦska
v ol
Ġja ma
Ġ" );
Ġlub iÄħ
Ġsz tan
ĠR F
ĠZa in
ĠCh rz
ral d
ĠTa ki
ĠPod kreÅĽl
Ġzdoby cia
Ġogrom nej
ĠprzepÅĤy wa
Ġkosmi cznego
ĠPoÅĤudni owa
Ġprzyzna Äĩ
fin ans
Ġduplika tÃ³w
ĠWis ÅĤy
D ia
O soby
W ejÅĽcie
Ġje dzeniem
Ġko stki
ĠS on
Ġta lii
ĠD oÅĽwiad
ĠR NA
sa mo
ĠE le
Ġinter dyscyplinar
ĠLe opold
ok Ã³ÅĤ
ot wÃ³r
ĠzwiÄĻz ÅĤa
ĠczÅĤon kom
ĠbezpoÅĽredni Äħ
ĠpÃ³ÅĤnoc nym
Ġpierwo tnych
Ġ185 3
ĠwynoszÄħ cÄħ
Ġdrew no
ĠprzeciÄĻ cie
Ġokupa cji
ĠpoÅĤudniowokorea ÅĦski
Ġrzemio sÅĤa
Pola cy
O na
ko t
ĠP ho
Ġre js
Ġsz pa
bi r
ĠmogÄħ c
Ġokre sem
Ġopis ania
Ġsce ne
Ġmaksymal ny
Ġprzeka zujÄħc
Ġpodpis aÅĤ
Ġliter Äħ
Ġety kiet
Pol ska
Ġsekun dÄĻ
ĠnawiÄħzy wania
ĠprzytÅĤacza jÄħce
V D
Ð ´
Ġt ron
Ġ2 20
pa ÅĤ
Ġnau kach
mal ny
ĠĠĠĠĠĠĠĠ ĠĠĠĠĠ
Ġdwa dzieÅĽcia
lin k
Ġelekt ron
Pro jekt
Ġcharaktery zujÄħ
Ġgot owoÅĽÄĩ
ĠPow stanie
sÅĤo ne
Ġpomi arÃ³w
Ġzao pat
Ġposzuki wa
Ġmetry k
Ġgeografi cznej
ĠMosk wy
ĠSÅĤa wo
ĠRober ta
ĠdÅĤugodystans owiec
p ly
Ġde ser
cu lar
ĠMa cedo
Od kry
tro p
ĠDa je
ĠskÅĤad ania
Ġpozytyw nÄħ
Ġtworzy w
Ġcia st
ĠÅ»y cie
Wie my
b rand
Ġpo ciÄħga
ar ia
Ġf ree
Ġprzy zn
owie nia
czÄħ cej
ĠRo dzina
Ġ7 4
liza cjÄħ
ok ej
Ġszero kiej
Ġkata log
ĠkrÃ³l owej
Ġbiznes owy
Ġkontra stu
Ġmoral nych
Ġdeter mini
Ġrestaura cje
Ġindu kcji
ĠHabs burg
Zam iast
wo je
[...]
