{"<pad>":0,"<unk>":1,"<bos>":2,"<eos>":3,"!":4,"\"":5,"#":6,"$":7,"%":8,"&":9,"'":10,"(":11,")":12,"*":13,"+":14,",":15,"-":16,".":17,"/":18,"0":19,"1":20,"2":21,"3":22,"4":23,"5":24,"6":25,"7":26,"8":27,"9":28,":":29,";":30,"<":31,"=":32,">":33,"?":34,"@":35,"A":36,"B":37,"C":38,"D":39,"E":40,"F":41,"G":42,"H":43,"I":44,"J":45,"K":46,"L":47,"M":48,"N":49,"O":50,"P":51,"Q":52,"R":53,"S":54,"T":55,"U":56,"V":57,"W":58,"X":59,"Y":60,"Z":61,"[":62,"\\":63,"]":64,"^":65,"_":66,"`":67,"a":68,"b":69,"c":70,"d":71,"e":72,"f":73,"g":74,"h":75,"i":76,"j":77,"k":78,"l":79,"m":80,"n":81,"o":82,"p":83,"q":84,"r":85,"s":86,"t":87,"u":88,"v":89,"w":90,"x":91,"y":92,"z":93,"{":94,"|":95,"}":96,"~":97,"¡":98,"¢":99,"£":100,"¤":101,"¥":102,"¦":103,"§":104,"¨":105,"©":106,"ª":107,"«":108,"¬":109,"®":110,"¯":111,"°":112,"±":113,"²":114,"³":115,"´":116,"µ":117,"¶":118,"·":119,"¸":120,"¹":121,"º":122,"»":123,"¼":124,"½":125,"¾":126,"¿":127,"À":128,"Á":129,"Â":130,"Ã":131,"Ä":132,"Å":133,"Æ":134,"Ç":135,"È":136,"É":137,"Ê":138,"Ë":139,"Ì":140,"Í":141,"Î":142,"Ï":143,"Ð":144,"Ñ":145,"Ò":146,"Ó":147,"Ô":148,"Õ":149,"Ö":150,"×":151,"Ø":152,"Ù":153,"Ú":154,"Û":155,"Ü":156,"Ý":157,"Þ":158,"ß":159,"à":160,"á":161,"â":162,"ã":163,"ä":164,"å":165,"æ":166,"ç":167,"è":168,"é":169,"ê":170,"ë":171,"ì":172,"í":173,"î":174,"ï":175,"ð":176,"ñ":177,"ò":178,"ó":179,"ô":180,"õ":181,"ö":182,"÷":183,"ø":184,"ù":185,"ú":186,"û":187,"ü":188,"ý":189,"þ":190,"ÿ":191,"Ā":192,"ā":193,"Ă":194,"ă":195,"Ą":196,"ą":197,"Ć":198,"ć":199,"Ĉ":200,"ĉ":201,"Ċ":202,"ċ":203,"Č":204,"č":205,"Ď":206,"ď":207,"Đ":208,"đ":209,"Ē":210,"ē":211,"Ĕ":212,"ĕ":213,"Ė":214,"ė":215,"Ę":216,"ę":217,"Ě":218,"ě":219,"Ĝ":220,"ĝ":221,"Ğ":222,"ğ":223,"Ġ":224,"ġ":225,"Ģ":226,"ģ":227,"Ĥ":228,"ĥ":229,"Ħ":230,"ħ":231,"Ĩ":232,"ĩ":233,"Ī":234,"ī":235,"Ĭ":236,"ĭ":237,"Į":238,"į":239,"İ":240,"ı":241,"Ĳ":242,"ĳ":243,"Ĵ":244,"ĵ":245,"Ķ":246,"ķ":247,"ĸ":248,"Ĺ":249,"ĺ":250,"Ļ":251,"ļ":252,"Ľ":253,"ľ":254,"Ŀ":255,"ŀ":256,"Ł":257,"ł":258,"Ń":259,"ie":260,"Ġp":261,"čĊ":262,"st":263,"Ġw":264,"ÅĤ":265,"an":266,"ow":267,"Äħ":268,"cz":269,"ÄĻ":270,"Ġz":271,"na":272,"ch":273,"Ã³":274,"Ġs":275,"rz":276,"Å¼":277,"ni":278,"Ġd":279,"ra":280,"Ġi":281,"Ġo":282,"Ġt":283,"ÅĽ":284,"Ġm":285,"Ġk":286,"nie":287,"ĠĠ":288,"ro":289,"Ġpo":290,"ar":291,"ne":292,"li":293,"Äĩ":294,"je":295,"ia":296,"re":297,"sz":298,"Ġna":299,"|>":300,"<|":301,"dz":302,"le":303,"ny":304,"rze":305,"go":306,"ka":307,"Ã³w":308,"er":309,"iÄĻ":310,"ki":311,"Ġb":312,"ci":313,"Ġdo":314,"en":315,"Ġa":316,"Ġza":317,"ty":318,"mi":319,"ja":320,"or":321,"jÄħ":322,"Ġu":323,"ÅĤa":324,"Ġwy":325,"Ġje":326,"oÅĽ":327,"rzy":328,"on":329,"Å¼e":330,"la":331,"ce":332,"Ġ1":333,"wa":334,"tu":335,"te":336,"ss":337,"sta":338,"me":339,"ko":340,"ych":341,"Ġmo":342,"lu":343,"ta":344,"Ġprze":345,"nia":346,"wo":347,"ĠsiÄĻ":348,"owa":349,"da":350,"âĢ":351,"cj":352,"ma":353,"ge":354,"ry":355,"ÅĦ":356,"Ġ(":357,"art":358,"ĠĠĠĠ":359,"by":360,"owan":361,"ĠP":362,"Ġnie":363,"Ġf":364,"cy":365,"ku":366,"czy":367,"kie":368,"Å¼y":369,"po":370,"Ġro":371,"cze":372,"tÃ³":373,"Ġg":374,"lo":375,"Ġod":376,"oÅĽci":377,"Ġst":378,"in":379,"wi":380,"ĠktÃ³":381,"Ġc":382,"dy":383,"Ġjest":384,"ÅĤo":385,"nych":386,"Ġja":387,"ĠW":388,"owe":389,"ski":390,"zy":391,"de":392,"cji":393,"Ġte":394,"age":395,"cie":396,"ru":397,"Ġko":398,"start":399,"ssage":400,"message":401,"Ġto":402,"Ġin":403,"ĠâĢ":404,"ĠS":405,"dzie":406,"ÅĤy":407,"fi":408,"ĠM":409,"my":410,"to":411,"Ġe":412,"no":413,"Ġma":414,"wie":415,"ĠčĊ":416,"mie":417,"ania":418,"Ġprzy":419,"Ġlu":420,"ĠA":421,"rÃ³":422,"us":423,"Ġ2":424,"anie":425,"ĠT":426,"Ġpro":427,"ist":428,"un":429,"jÄħc":430,"ĠC":431,"dzi":432,"cza":433,"ĠJ":434,"pe":435,"Ġby":436,"Ġpod":437,"Ġre":438,"Ġli":439,"is":440,"ĠĠĠ":441,"sze":442,"Ġob":443,"ca":444,"Ġta":445,"ob":446,"ĠÅ¼e":447,"em":448,"Ġ\"":449,"ĠB":450,"Ġroz":451,"ĠÅĽ":452,"owie":453,"owy":454,"ĠK":455,"oÅĽÄĩ":456,"|><|":457,"Ġlub":458,"Ġ=":459,"tur":460,"du":461,"ĠN":462,"nik":463,"nal":464,"ĠâĢĵ":465,"ga":466,"za":467,"pa":468,"Åº":469,"szy":470,"mu":471,"cja":472,"Ġ19":473,"nÄħ":474,"gi":475,"end":476,"ani":477,"czne":478,"ÅĤu":479,"mo":480,"wia":481,"ĠD":482,"raz":483,"Ġty":484,"Ġjak":485,"ĠmoÅ¼e":486,"ant":487,"Ġdz":488,"turn":489,"noÅĽci":490,".<|":491,"Ġsz":492,"si":493,"Ġh":494,"\":":495,"ĠZ":496,"ĠR":497,"kow":498,"kt":499,"Ġr":500,"ent":501,"ane":502,"nym":503,"Ġaby":504,"pra":505,"ĠO":506,"Ġpra":507,"ĠktÃ³re":508,"stÄĻ":509,"sp":510,"ass":511,"ur":512,"il":513,"ska":514,"chan":515,"user":516,"nel":517,"do":518,"kÅĤa":519,"00":520,"return":521,"channel":522,"final":523,"istant":524,"assistant":525,"owaÄĩ":526,"sy":527,"pu":528,"ier":529,"cia":530,"Ġkon":531,"ter":532,"Ġch":533,"su":534,"nej":535,"Ġcz":536,"al":537,"Ġdla":538,"Ġwie":539,"wy":540,"nego":541,"ana":542,"**":543,"ĠsÄħ":544,"ĠI":545,"skie":546,"ĠPo":547,"ri":548,"ti":549,"Ġka":550,"Ġn":551,"Ġ\\":552,"ĠG":553,"Ġspo":554,"Ġczy":555,"ÅĤe":556,"Ġco":557,"jÄĻ":558,"sto":559,"um":560,"bi":561,"ÅĽci":562,"Ġpa":563,"ĠL":564,"niej":565,"Ġ-":566,"Ġzna":567,"dze":568,"sty":569,"unk":570,"Ġmog":571,"Ġprzez":572,"ÅĽli":573,"ĠĠĠĠĠĠĠ":574,"Ġswo":575,"Ġpow":576,"pi":577,"se":578,"Ġ3":579,"sa":580,"kre":581,"owych":582,"we":583,"cho":584,"Ġmie":585,"ĠuÅ¼y":586,"dni":587,"he":588,"ĠrÃ³w":589,"ĠE":590,"zu":591,"Ġze":592,"owania":593,"powie":594,"Ġjed":595,"any":596,"ĠF":597,"Ã³ÅĤ":598,"cje":599,"rÃ³Å¼":600,"ĠbyÄĩ":601,"czÄħ":602,"ba":603,"pie":604,"bie":605,"owanie":606,"\",":607,"czas":608,"ĠU":609,"ĠH":610,"Ġde":611,"nika":612,"th":613,"ol":614,"noÅĽÄĩ":615,"ĠJe":616,"kÅĤad":617,"Ġle":618,"kÃ³w":619,"wiÄħ":620,"Ġdzie":621,"Ġme":622,"Ġsta":623,"waÅ¼":624,"anych":625,"``":626,"Ġlicz":627,"ÅĤÄħ":628,"ery":629,"sza":630,"gu":631,"rowa":632,"cjÄĻ":633,"ĠktÃ³ry":634,"Ġoraz":635,"kty":636,"gra":637,"jÄħce":638,"Ġ+":639,"owej":640,"ran":641,"osta":642,"Ġni":643,"stÄĻp":644,"io":645,"zm":646,"tkow":647,"Ġnaj":648,"bo":649,"Ġce":650,"ad":651,"Ġ$":652,"lem":653,"Ġbar":654,"Ġgo":655,"ez":656,"Ġsp":657,"bli":658,"ĠNa":659,"Ġpol":660,"dzy":661,"cyj":662,"Ġsa":663,"Ġfunk":664,"Ġwi":665,"owo":666,"and":667,"for":668,"so":669,"owego":670,"Ġwz":671,"wÃ³":672,"Ġmi":673,"ÅĦski":674,"iaÅĤ":675,"mp":676,"Ġop":677,"Ġwo":678,"âĢĿ":679,"co":680,"wiÄĻ":681,"dziej":682,"Ġ18":683,"Ġpot":684,"Ġsy":685,"rzÄħ":686,"ej":687,"Ġar":688,"dÅº":689,"ĠwiÄĻ":690,"tem":691,"ĠrÃ³Å¼":692,"el":693,"Ġpoz":694,"niu":695,"Ġwsp":696,"owi":697,"ĠmogÄħ":698,"ĠâĢŀ":699,"tion":700,"Ġ4":701,"Ġtym":702,"one":703,"kich":704,"ÄĻd":705,"tor":706,"Ġwp":707,"aÅĤ":708,"ciÄħ":709,"ste":710,"kÄħ":711,"{\"":712,"Ġ5":713,"cznych":714,"bu":715,"rod":716,"ĠmoÅ¼":717,"Ġfi":718,"Ġra":719,"tÃ³w":720,"Ġjako":721,"ĠĠčĊ":722,"ju":723,"Ġpier":724,"Ġich":725,"ing":726,"),":727,"ÅĽcie":728,"Ġ`":729,"nymi":730,"?<|":731,"Ġsto":732,"ĠÅ¼y":733,"iÄĻdzy":734,"cu":735,"ak":736,").":737,"Ġtwo":738,"Ġ20":739,"zna":740,"nieÅ¼":741,"Ġtak":742,"Ġlo":743,"Ġbardziej":744,"ÅĤÃ³w":745,"at":746,"ona":747,"jÄħcy":748,"czenie":749,"wiÄħz":750,"Ġ.":751,"Ġzd":752,"cki":753,"Ġprzed":754,"Ġwart":755,"Ġodpowie":756,"ul":757,"ĠMo":758,"py":759,"Ã³l":760,"Ġla":761,"js":762,"ĠrÃ³wnieÅ¼":763,"czenia":764,"Ġthe":765,"owane":766,"ktu":767,"Ġswoje":768,"praw":769,"Ġzosta":770,"Ġsu":771,"spo":772,"Ġos":773,"Ġfor":774,"Ġale":775,"Ġog":776,"siÄħ":777,"iaÅĤa":778,"ĠZa":779,"fe":780,"Ġdanych":781,"Ġbez":782,"Ġjego":783,"dza":784,"ÅĽÄĩ":785,"ĠmiÄĻdzy":786,"ÅĦst":787,"ĠktÃ³ra":788,"lar":789,"nikÃ³w":790,"Ġpolski":791,"Ġrze":792,"Ġpi":793,"szyst":794,"ed":795,"ner":796,"skiego":797,"cznie":798,"ĠczÄĻ":799,"ĠkaÅ¼":800,"ĠTo":801,"Ġsk":802,"Ġ**":803,"stu":804,"stÄĻpu":805,"Ġof":806,"Ġwa":807,"lity":808,"ory":809,"Po":810,"wania":811,"Ġgdy":812,"gl":813,"stem":814,"niÄĩ":815,"pew":816,"ek":817,"sie":818,"Ã³b":819,"Ġczas":820,"owany":821,"Ġda":822,"ud":823,"Ġwyko":824,"ĠWy":825,"trzy":826,"ĠwÅĤa":827,"enty":828,"ony":829,"Ġdu":830,"ii":831,"ct":832,"Na":833,"aniu":834,"Ã³r":835,"kiem":836,"niÄĻ":837,"Ġba":838,"pis":839,"Ġwszyst":840,"ary":841,"Ġwyda":842,"dzenia":843,"Ġpraw":844,"ji":845,"owÄħ":846,"ĠÅ":847,"kÄĻ":848,"Ġpierw":849,"ĠJa":850,"ze":851,"forma":852,"ÅĤem":853,"gie":854,"ut":855,"Ġroku":856,"mery":857,"ĠÅĽwia":858,"Ġ0":859,"rzÄĻ":860,"Ġpre":861,"czny":862,"liw":863,"Ġ6":864,"ich":865,"lora":866,"obie":867,"szÄħ":868,"Ġbi":869,"ren":870,"cznej":871,"UÅ¼y":872,"Ġjej":873,"Ġbo":874,"```":875,"ers":876,"ĠĠĠĠĠĠĠĠĠĠĠ":877,"im":878,"dej":879,"Ġliczb":880,"Ġpu":881,"owym":882,"Ġmu":883,"rÃ³w":884,"Ġokre":885,"ono":886,"nÄĻ":887,"am":888,"Ġ'":889,"maty":890,"Ġtego":891,"Ġal":892,"Ġpolity":893,"lne":894,"ĠCh":895,"tkownik":896,"Ġkom":897,"ali":898,"strze":899,"prze":900,"pro":901,"uje":902,"Ġpe":903,"pad":904,"Ġgru":905,"Ġek":906,"ÅĤÄĻ":907,"Ve":908,"ktyw":909,"Ġspos":910,"jski":911,"lan":912,"Ġx":913,"}}":914,"Ġge":915,"ĠspoÅĤe":916,"staw":917,"wier":918,"Ġtakie":919,"Ġhist":920,"kry":921,"ĠwpÅĤy":922,"szych":923,"Ġstro":924,"enta":925,"int":926,"Ġwe":927,"meryka":928,"karz":929,"niewaÅ¼":930,"Ġor":931,"UÅ¼ytkownik":932,"Äħc":933,"Ġmia":934,"Ġklu":935,"cznego":936,"Velora":937,"rac":938,"ĠÅ¼":939,"Ġzw":940,"tyw":941,"jÄħcych":942,"ĠRo":943,"**:":944,"Ġzmie":945,"sko":946,"czu":947,"Ġnad":948,"lko":949,"nak":950,"siÄĻ":951,"dziÄĩ":952,"logi":953,"Ġprodu":954,"ĠzwiÄħz":955,"Ġfunkcji":956,"Ġry":957,"res":958,"dzenie":959,"Ġdy":960,"ck":961,"Ġmiejs":962,"ĠMa":963,"sk":964,"Ġkil":965,"Ġpowie":966,"ort":967,"dnie":968,"rza":969,"Ġtek":970,"Ġameryka":971,"ĠNie":972,"):":973,"ÄĻdzie":974,"waÄĩ":975,"Ġdoda":976,"id":977,"Ġinte":978,"tni":979,"cej":980,"Ġtra":981,"tk":982,"ral":983,"Ġjedno":984,"ser":985,"Ġ{":986,"czna":987,"et":988,"Ġstwo":989,"ĠtakÅ¼e":990,"mat":991,"ĠSt":992,"Ġan":993,"di":994,"ĠmoÅ¼esz":995,"name":996,"nosi":997,"Ġ8":998,"Ġzro":999,"tego":1000,"Ġpomo":1001,"Ġtylko":1002,"skiej":1003,"war":1004,"kowi":1005,"tek":1006,"Ġ7":1007,"rÄĻ":1008,"ĠDo":1009,"mia":1010,"czyÄĩ":1011,"Ġsku":1012,"szta":1013,"\":\"":1014,"Je":1015,"czÄĻ":1016,"Ġdru":1017,"ien":1018,"va":1019,"sc":1020,"ec":1021,"ÅĽwia":1022,"Ġwska":1023,"Ġposta":1024,"rani":1025,"Ġinforma":1026,"Ġsie":1027,"Ġpotrze":1028,"Ġmus":1029,"Ġnau":1030,"iu":1031,"leÅ¼":1032,"wiÄĻk":1033,"Ġpom":1034,"niki":1035,"lej":1036,"ktor":1037,"log":1038,"szÄĻ":1039,"sÅĤu":1040,"Ġ10":1041,"ĠwspÃ³ÅĤ":1042,"mal":1043,"met":1044,"ĠmoÅ¼na":1045,"ĠciÄħ":1046,"cÄħ":1047,"rip":1048,"ĠcaÅĤ":1049,"jÄĻzy":1050,"ĠwartoÅĽci":1051,"Ġwykorzy":1052,"str":1053,"Ġtakich":1054,"Ġno":1055,"Ġmy":1056,"cÃ³w":1057,"Ġszcze":1058,"Ġzach":1059,"kon":1060,"lÄĻ":1061,"Ġpy":1062,"Ġten":1063,"ĠbÄĻdzie":1064,"Ġ200":1065,"pre":1066,"encja":1067,"om":1068,"Ġ<":1069,"ĠbyÅĤ":1070,"Ġ{\"":1071,"qu":1072,"ĠprzykÅĤad":1073,"rzenia":1074,"ĠKa":1075,"type":1076,"mÃ³w":1077,"Ġprob":1078,"ĠPro":1079,"Ġdoty":1080,"gÅĤ":1081,"gum":1082,"ĠdziaÅĤa":1083,"ĠV":1084,"muje":1085,"ve":1086,"ans":1087,"gani":1088,"ĠjÄĻzy":1089,"stÄħ":1090,"Ġtech":1091,"ĠdÅĤu":1092,"--":1093,"liz":1094,"maga":1095,"ĠjeÅĽli":1096,"Å¼a":1097,"Ġzmi":1098,"Ġelem":1099,"od":1100,"ng":1101,"ĠnastÄĻpu":1102,"Ġklucz":1103,"liza":1104,"Ġpodej":1105,"wanie":1106,"Ġzapew":1107,"cznoÅĽci":1108,"ĠpiÅĤ":1109,"rzyÄĩ":1110,"Od":1111,"dzia":1112,"Ġau":1113,"ks":1114,"Ġstan":1115,"19":1116,"Ġprowa":1117,"scrip":1118,"ĠÅĽrod":1119,"Ġmar":1120,"entu":1121,"rak":1122,"ĠÅĤa":1123,"wÃ³j":1124,"ÅĤoÅ¼":1125,"ĠJeÅĽli":1126,"rÄħ":1127,"onych":1128,"Ġ[":1129,"ĠsÅĤ":1130,"Ġkla":1131,"sÅĤa":1132,"gÄĻ":1133,"mniej":1134,"Ġana":1135,"ÅĽwiad":1136,"ĠniÅ¼":1137,"Ġwar":1138,"stos":1139,"ĠsposÃ³b":1140,"nu":1141,"20":1142,"trz":1143,"ÅĽnie":1144,"pera":1145,"fa":1146,"ĠIn":1147,"ha":1148,"Ġpolityk":1149,"Ġand":1150,"Ġsze":1151,"Ġ9":1152,"Ġcie":1153,"Ġdob":1154,"stnie":1155,"()":1156,"Ġsamo":1157,"sztaÅĤ":1158,"Ġtych":1159,"ĠponiewaÅ¼":1160,"Ġpodczas":1161,"Ġdane":1162,"owia":1163,"szej":1164,"stru":1165,"ĠâĢĶ":1166,"onal":1167,"Ġkra":1168,"Ġru":1169,"cha":1170,"ĠKo":1171,"scription":1172,"star":1173,"sÅĤ":1174,"zumie":1175,"Ġszczeg":1176,"prowa":1177,"Ġfa":1178,"Ġpis":1179,"ces":1180,"oru":1181,"description":1182,"\",\"":1183,"tel":1184,"Ġproje":1185,"Ġosob":1186,"Ġkilka":1187,"ĠMoÅ¼e":1188,"wiera":1189,"ĠdoÅĽwiad":1190,"owaÅĤ":1191,"ĠTwo":1192,"Ġtej":1193,"Ġ*":1194,"kiego":1195,"ĠAn":1196,"frac":1197,"ard":1198,"cznÄħ":1199,"Ġca":1200,"jem":1201,"Ġspe":1202,"Ġhistor":1203,"Ġ17":1204,"Äħd":1205,"Ġgdzie":1206,"rych":1207,"ĠcaÅĤkowi":1208,"rÃ³d":1209,"gh":1210,"ano":1211,"ĠPa":1212,"Ġcho":1213,"ĠgÅĤÃ³w":1214,"10":1215,"ktÃ³w":1216,"Wy":1217,"Ġznaj":1218,"Ġinter":1219,"nowa":1220,"ciu":1221,"ĠX":1222,"czywi":1223,"Å¼enia":1224,"zie":1225,"ĠMar":1226,"pod":1227,"owana":1228,"ĠamerykaÅĦski":1229,"ryty":1230,"tro":1231,"stan":1232,"Å¼enie":1233,"Ġ15":1234,"ĠTe":1235,"cÄĻ":1236,"Ġne":1237,"Ġse":1238,"stawie":1239,"tne":1240,"szym":1241,"ĠwiÄĻk":1242,"ĠÅĽwie":1243,"ĠkrÃ³":1244,"rem":1245,"prawi":1246,"powiedÅº":1247,"Za":1248,"}{":1249,"ĠPrze":1250,"ĠdotyczÄħ":1251,"Ġcelu":1252,"cznym":1253,"miÄĻ":1254,"Ġy":1255,"redni":1256,"Ġmeto":1257,"owaniu":1258,"ĠmoÅ¼liw":1259,"Ġprzypad":1260,"Ġobie":1261,"owis":1262,"Ġ/":1263,"stÄĻpnie":1264,"ll":1265,"dra":1266,"Ã³c":1267,"Ġwyb":1268,"kiej":1269,"szcze":1270,"nek":1271,"Ġfir":1272,"ĠĠĠĠĠĠĠĠ":1273,"szego":1274,"Ġcy":1275,"ĠmajÄħ":1276,"ber":1277,"Ġpyt":1278,"chy":1279,"gument":1280,"lenie":1281,"lenia":1282,"Ġraz":1283,"ĠosiÄħ":1284,"Ġwywo":1285,"red":1286,"Ġmusi":1287,"tach":1288,"Ġniez":1289,"rint":1290,"Ġcza":1291,"ĠwiÄĻcej":1292,"ĠczÄĻsto":1293,"Ġpracy":1294,"Ġznale":1295,"OdpowiedÅº":1296,"os":1297,"wane":1298,"Ġkie":1299,".\"":1300,"Ġsobie":1301,"ÅĽl":1302,"tki":1303,"ĠpomÃ³c":1304,"ment":1305,"Ġzawiera":1306,"Ġgra":1307,"Ġku":1308,"ĠTa":1309,"lien":1310,"Ġprzeci":1311,"Ġwynosi":1312,"ĠPol":1313,"kcji":1314,"ir":1315,"cent":1316,"Ġsty":1317,"nij":1318,"dziaÅĤ":1319,"unt":1320,"ĠpiÅĤkarz":1321,"lacji":1322,"kach":1323,"ÅĦstwa":1324,"kami":1325,"ly":1326,"lue":1327,"Ġfil":1328,"Ġistnie":1329,"Ġstra":1330,"Ġ201":1331,"ktÃ³":1332,"Ġuwa":1333,"Ġser":1334,"ĠWie":1335,"Ġprogra":1336,"Ġpocho":1337,"Ġpubli":1338,"szu":1339,"lnych":1340,"tnie":1341,"ron":1342,"ĠRe":1343,"Ġ194":1344,"fik":1345,"Ġwprowa":1346,"Ġ16":1347,"ĠCzy":1348,"Ġis":1349,"nÄħÄĩ":1350,"Ġkro":1351,"ĠzostaÅĤ":1352,"Ġga":1353,"arÃ³w":1354,"tera":1355,"ĠwpÅĤyw":1356,"tra":1357,"ĠLe":1358,"Ġinnych":1359,"..":1360,"Ġozna":1361,"\":{\"":1362,"Ġzrozumie":1363,"rzenie":1364,"zo":1365,"Aby":1366,"lika":1367,"Ġnaz":1368,"Ã³j":1369,"per":1370,"cjÄħ":1371,"ger":1372,"Ġok":1373,"Ġon":1374,"Ġobli":1375,"Ġstos":1376,"ĠÅļ":1377,"nii":1378,"Ġ12":1379,"Ġwyra":1380,"dÃ³w":1381,"Ġ|":1382,"be":1383,"ĠrÃ³Å¼nych":1384,"Ġtre":1385,"iÄħ":1386,"Ġci":1387,"tr":1388,"Ġkonie":1389,"Ġaktor":1390,"ĠbyÅĤo":1391,"ĠJed":1392,"rzu":1393,"ÅĽmy":1394,"gii":1395,"##":1396,"hi":1397,");":1398,"ĠdostÄĻp":1399,"dÅĤ":1400,"},":1401,"Ġju":1402,"gro":1403,"Ġreturn":1404,"tool":1405,"ĠnarzÄĻ":1406,"Ġ\\(":1407,"ok":1408,"Ġsystem":1409,"Ġzbi":1410,"cep":1411,"Ġ199":1412,"Ġpotencja":1413,"Å¼yÄĩ":1414,"min":1415,"ho":1416,"dem":1417,"ĠmoÅ¼emy":1418,"ver":1419,"ĠbyÅĤa":1420,"god":1421,"Ġwyso":1422,"dzo":1423,"Ġniemie":1424,"Ġklien":1425,"Ġzdr":1426,"Ġkorzy":1427,"ÅĦska":1428,"stra":1429,"ĠrÃ³Å¼ni":1430,"it":1431,"Ġpara":1432,"Ġbad":1433,"Ġszy":1434,"ujÄħc":1435,"der":1436,"Ġlat":1437,"Ġeksp":1438,"Ġrzeczywi":1439,"Ġzmien":1440,"Ja":1441,"Ġorgani":1442,"Ġkul":1443,"len":1444,"Ġpowin":1445,"two":1446,"mier":1447,"Ġczyn":1448,"dzÄħ":1449,"soby":1450,"Ġtemat":1451,"Ġpozosta":1452,"ĠosiÄħg":1453,"Ġsi":1454,"Ġloka":1455,"gaÅ¼":1456,"(\"":1457,"Ġpole":1458,"000":1459,"Ġcze":1460,"ĠprÃ³":1461,"Ġzdo":1462,"Ġso":1463,"Ġsztu":1464,"âĢĵ":1465,"daÄĩ":1466,"Ġliczby":1467,"II":1468,"ĠBo":1469,"Ġener":1470,"Ġoko":1471,"ĠÅĽwiat":1472,"Ġv":1473,"Ġpla":1474,"Ġbu":1475,"tych":1476,"Ġosta":1477,"Ġspraw":1478,"Ġpomy":1479,"owanych":1480,"Ġprzestrze":1481,"aniem":1482,"dzin":1483,"rzÄħd":1484,"Ġstru":1485,"ĠdÅĤugo":1486,"stwa":1487,"Ġpowo":1488,"uro":1489,"Ġumie":1490,"Ġmiesz":1491,"Ġzespo":1492,"ĠbyÅĤy":1493,"Ġtrze":1494,"tnoÅĽci":1495,"Ġ#":1496,"ĠstworzyÄĩ":1497,"ĠJo":1498,"ĠwÅĤas":1499,"Ġmode":1500,"ĠktÃ³rych":1501,"ĠpoczÄħ":1502,"Ġtran":1503,"kro":1504,"dopod":1505,"zji":1506,"Ġ193":1507,"Ġwzro":1508,"ĠRa":1509,"Ġobej":1510,"Ġif":1511,"Ġbud":1512,"cyjne":1513,"Ġuzy":1514,"ĠczÅĤ":1515,"Ġprac":1516,"szcz":1517,"leÅ¼y":1518,"ĠwartoÅĽÄĩ":1519,"dom":1520,"Ġtekst":1521,"dÄĻ":1522,"tami":1523,"ĠzÅĤoÅ¼":1524,"Ġth":1525,"Ġhi":1526,"âĢĶ":1527,"Ġswoich":1528,"oba":1529,"Ġimp":1530,"duje":1531,"Ġjakie":1532,"ction":1533,"kar":1534,"miast":1535,"ĠjÄħ":1536,"Ã³d":1537,"ĠokreÅĽ":1538,"zuje":1539,"raca":1540,"Ġkolej":1541,"koÅĦ":1542,"Ġat":1543,"Ġtu":1544,"Ġliczba":1545,"ĠwaÅ¼":1546,"Ġodp":1547,"Ġsprze":1548,"Ġwej":1549,"ĠktÃ³rym":1550,"Ġbra":1551,"Ġopis":1552,"ĠgÅĤÄĻ":1553,"sia":1554,"Ġoce":1555,"ĠtÄĻ":1556,"prez":1557,"stro":1558,"fika":1559,"Ġas":1560,"ĠSz":1561,"ght":1562,"Ġim":1563,"scy":1564,"Ġpoprze":1565,"Ġpunk":1566,"ĠpoÅĤÄħ":1567,"Ġkosz":1568,"ĠwiÄĻc":1569,"Ġrozpo":1570,"Ġisto":1571,"Ġpie":1572,"Ġwoj":1573,"Ġwiele":1574,"ĠdziaÅĤ":1575,"ĠAr":1576,"kim":1577,"Ġprzeciw":1578,"Ġtwoje":1579,"Ġmniej":1580,"czyn":1581,"ĠzwiÄĻk":1582,"ĠÅĤÄħ":1583,"Ġ198":1584,"sku":1585,"Ġha":1586,"Ġplan":1587,"ĠkoÅĦ":1588,"man":1589,"ÅĤym":1590,"ĠuÅ¼ytkow":1591,"czni":1592,"Ã³lnie":1593,"waÅĤ":1594,"ĠkaÅ¼dy":1595,"ĠteÅ¼":1596,"Ġusta":1597,"jÄħcego":1598,"Ġwiel":1599,"Przy":1600,"Ġfran":1601,"ĠPod":1602,"ĠmÃ³":1603,"skich":1604,"ara":1605,"nÄĻtrz":1606,"ot":1607,"tury":1608,"Ġkwa":1609,"Ġdecy":1610,"tÄħ":1611,"mieni":1612,"ĠMi":1613,"Ġwszystkie":1614,"lf":1615,"ĠliczbÄĻ":1616,"Ġswojej":1617,"Ġpodstawie":1618,"ksztaÅĤ":1619,"JeÅĽli":1620,"Ġdostar":1621,"Ġobec":1622,"xt":1623,"Ġpostaci":1624,"Ġkar":1625,"lep":1626,"thon":1627,"ĠÅ¼ycia":1628,"che":1629,"ĠÅĽrodowis":1630,"peÅĤ":1631,"nienia":1632,"koÅĽci":1633,"Ġodkry":1634,"Å¼ej":1635,"Ġotrzy":1636,"Ġ197":1637,"ĠAle":1638,"tka":1639,"value":1640,"onÄħ":1641,"daÅĦ":1642,"Å¼li":1643,"wiet":1644,"In":1645,"orÃ³w":1646,"Ġpozio":1647,"ĠPrzy":1648,"rud":1649,"rom":1650,"num":1651,"Ġpar":1652,"Ġdro":1653,"ÅĽcia":1654,"tematy":1655,"Ġkonkre":1656,"wu":1657,"rea":1658,"wnÄĻtrz":1659,"wala":1660,"ke":1661,"wet":1662,"ksy":1663,"Ġstrony":1664,"nienie":1665,"Ġele":1666,"Ġpodstaw":1667,"Ġjednak":1668,"Ġdwa":1669,"ĠpÅĤy":1670,"ĠpiÄĻ":1671,"chu":1672,"Ġarty":1673,"ÅĦstwo":1674,"Czy":1675,"ĠCo":1676,"Ġprawdopod":1677,"Ġpun":1678,"Ġszko":1679,"Ġpew":1680,"onu":1681,"ord":1682,"argument":1683,"ĠuÅ¼ywa":1684,"ĠOd":1685,"ĠProszÄĻ":1686,"ĠswojÄħ":1687,"Ġwszystkich":1688,"Ġ}":1689,"ĠjuÅ¼":1690,"toli":1691,"ĠFran":1692,"12":1693,"now":1694,"ĠsÅĤu":1695,"ĠznaleÅº":1696,"pisz":1697,"Ġkomu":1698,"Ġpopu":1699,"ĠosÃ³b":1700,"ĠwÄĻ":1701,"ĠLi":1702,"`,":1703,"ĠwÅĤaÅĽci":1704,"encji":1705,"Ġzie":1706,"ĠspoÅĤecznoÅĽci":1707,"Ġproblem":1708,"Ġczasu":1709,"ĠbÄĻd":1710,"zi":1711,"Ġwieku":1712,"Ġprzypadku":1713,"ĠdokÅĤad":1714,"ĠOto":1715,"elf":1716,"ĠuwagÄĻ":1717,"szech":1718,"Ġofer":1719,"Ġspra":1720,"Ġzapa":1721,"net":1722,"Ġbie":1723,"Ġ192":1724,"inte":1725,"Ġmatematy":1726,"Ġgene":1727,"chi":1728,">>":1729,"Å¼Äħ":1730,"Ġdrugie":1731,"$,":1732,"kup":1733,"Ġint":1734,"jÄħcym":1735,"owymi":1736,"zacji":1737,"Ġszyb":1738,"para":1739,"ĠkaÅ¼de":1740,"18":1741,"daw":1742,"__":1743,"glÄĻ":1744,"Ġzad":1745,"ĠznaleÅºÄĩ":1746,"fun":1747,".\",":1748,"ĠksiÄħ":1749,"Ġelement":1750,"Ġself":1751,"ĠrozwiÄħ":1752,"Ġinformacji":1753,"prac":1754,"Ġpoczu":1755,"Ġpotrzeb":1756,"kÅĤada":1757,"Ġwielo":1758,"Ġoznacza":1759,"cka":1760,"Ġpozy":1761,"system":1762,"jÄħcÄħ":1763,"Ġmuzy":1764,"kom":1765,"Ġutrzy":1766,"Ġfizy":1767,"Ġtrzy":1768,"tku":1769,"czo":1770,"Ġ196":1771,"Nie":1772,"ĠktÃ³rej":1773,"ĠciÄħg":1774,"ĠczÄĻÅĽci":1775,"Ġâ":1776,"tÄĻ":1777,"Ġreprez":1778,"Ġprzyja":1779,"Ġczasie":1780,"Ġunika":1781,"Ġproble":1782,"Ġnawet":1783,"zn":1784,"tora":1785,"stanie":1786,"50":1787,"naj":1788,"ĠwÅĤo":1789,"ĠktÃ³rzy":1790,"Ġbardzo":1791,"twa":1792,"Ġ14":1793,"Ġmiasta":1794,"ryt":1795,"Ġefe":1796,"Ġtechno":1797,"taj":1798,"Ġwymaga":1799,"Ġstwier":1800,"ĠniektÃ³":1801,"dar":1802,"cjonal":1803,"Ġograni":1804,"ĠpeÅĤ":1805,"tar":1806,"ĠfunkcjÄĻ":1807,"ĠPy":1808,"call":1809,"chow":1810,"ĠdotyczÄħce":1811,"wod":1812,"Ġad":1813,"nku":1814,"czes":1815,"Ġskute":1816,"Ġzaw":1817,"ĠÅº":1818,"ÅĤoby":1819,"ciÄĩ":1820,"ÅĤoÅĽci":1821,"Ã©":1822,"nio":1823,"nami":1824,"ĠciÄĻ":1825,"wz":1826,"logii":1827,"Ġzastos":1828,"ĠDa":1829,"szcza":1830,"python":1831,"row":1832,"pozy":1833,"',":1834,"ĠrozwiÄħz":1835,"Ġsko":1836,"ĠRoz":1837,"Ġpopraw":1838,"skim":1839,"lnoÅĽci":1840,"Ġnap":1841,"Ġbe":1842,"ĠdwÃ³":1843,"Ġpozwala":1844,"Ġzasa":1845,"Ġdziedzi":1846,"Ġrozwi":1847,"ĠogÃ³l":1848,"bra":1849,"Ġ;":1850,"âĢĿ,":1851,"ĠodpowiedÅº":1852,"Te":1853,"Ġzn":1854,"Ġwielu":1855,"Ġklasy":1856,"liÄĩ":1857,"Ġbezpie":1858,"Ġemo":1859,"dek":1860,"Ġmater":1861,"lni":1862,"Ġczer":1863,"ĠKon":1864,"Jak":1865,"mina":1866,"czyna":1867,"Ġopera":1868,"anu":1869,"ĠrÃ³wn":1870,"lny":1871,"Ro":1872,"jÄħca":1873,"ciem":1874,"ble":1875,"ĠBa":1876,"bar":1877,"kaza":1878,"ĠmÃ³w":1879,"kra":1880,"Ġnieza":1881,"Ġpoprawi":1882,"ĠmieÄĩ":1883,"Ġho":1884,"Ġ$\\":1885,"czka":1886,"cyjnych":1887,"Ġrodza":1888,"ĠnastÄĻpnie":1889,"moÅ¼li":1890,"ĠdwÃ³ch":1891,"Ġinne":1892,"ĠnarzÄĻdzi":1893,"Ġ30":1894,"Ġprzedsta":1895,"Ġnum":1896,"Ġpodzie":1897,"ft":1898,"ĠÅ¼ad":1899,"sek":1900,"owni":1901,"))":1902,"oÅĽcia":1903,"ÅĤby":1904,"ĠzaleÅ¼":1905,"Do":1906,"ĠJednak":1907,"Ġnatu":1908,"Ġzwy":1909,"ierw":1910,"ĠWo":1911,"Oto":1912,"Ã³Åº":1913,"ciÄĻ":1914,"tkowo":1915,"bud":1916,"Ġlek":1917,"ĠUS":1918,"Ġhistorii":1919,"ĠÅĽredni":1920,"pisy":1921,"Ġsil":1922,"Ġsiebie":1923,"Ġcel":1924,"daj":1925,"</":1926,"Ġodpowiedzi":1927,"Ġrozwo":1928,"ĠTwoje":1929,"sum":1930,"ĠzarzÄħ":1931,"âĢĿ.":1932,"Ġproces":1933,"Ġpolska":1934,"Ġsam":1935,"mag":1936,"cer":1937,"lin":1938,"ĠAl":1939,"rii":1940,"Ġprawdzi":1941,"Ġkatoli":1942,"Ġgeo":1943,"stwo":1944,"Ġswojego":1945,"rt":1946,"ĠSa":1947,"wer":1948,"tua":1949,"lik":1950,"Ġzakre":1951,"Ġregu":1952,"gÄħ":1953,"Ġrela":1954,"lÄħ":1955,"ÅĽla":1956,"Ġelekt":1957,"Ġrodzi":1958,"Ġ<<":1959,"Ġzmniej":1960,"Jed":1961,"sti":1962,"Ġpoja":1963,"miar":1964,"ou":1965,"nad":1966,"ĠumiejÄĻ":1967,"onie":1968,"Ġaka":1969,"ĠrÃ³Å¼ne":1970,"Ġbryty":1971,"Ġproce":1972,"Ġkoniec":1973,"Ġczytel":1974,"ĠThe":1975,"Ġ13":1976,"Ġniemiecki":1977,"dÄħ":1978,"Ġtem":1979,"Ġludzi":1980,"Ġwia":1981,"ĠWa":1982,"chro":1983,"Ġap":1984,"Ġot":1985,"owiada":1986,"Ġ195":1987,"Ġtekstu":1988,"legÅĤ":1989,"menta":1990,"ĠwejÅĽci":1991,"ĠokoÅĤo":1992,"mio":1993,"ÅĤego":1994,"ĠrozwaÅ¼":1995,":**":1996,"Ġtrud":1997,"Ġmin":1998,"Ġmiejsce":1999,"Ġzdanie":2000,"Ġstar":2001,"Ġprint":2002,"czego":2003,"Ġpoprzez":2004,"Ġwyz":2005,"ĠdziaÅĤania":2006,"ĠnaleÅ¼y":2007,"Ġnar":2008,"ĠsÅĤo":2009,"lig":2010,"Ġhistory":2011,"rywa":2012,"ĠmoÅ¼liwoÅĽci":2013,"ĠLu":2014,"arÃ³wno":2015,"rzch":2016,"ĠUÅ¼y":2017,"rÃ³j":2018,"15":2019,"Ġobsz":2020,"iÄĩ":2021,"Ġfin":2022,"Ġska":2023,"ĠlistÄĻ":2024,"Ġaktyw":2025,"ies":2026,"ĠbÄĻdÄħ":2027,"czeÅĦ":2028,"ters":2029,"ĠpomocÄħ":2030,"ĠÅ»":2031,"----":2032,"koÅĽÄĩ":2033,"ted":2034,"Pod":2035,"ĠÅĽci":2036,"ĠpamiÄĻ":2037,"wany":2038,"rach":2039,"$.":2040,"ĠII":2041,"ÄĻÅ¼":2042,"ÅĤych":2043,"Ġkontro":2044,"Ġuczy":2045,"Ġodpowiedni":2046,"lnoÅĽÄĩ":2047,"kowe":2048,"list":2049,"niku":2050,"tnych":2051,"Ġdow":2052,"es":2053,"jÄħcej":2054,"mowaÄĩ":2055,"inie":2056,"Ġparamet":2057,"feren":2058,"Ġpytanie":2059,"Ġprzej":2060,"ÅĤej":2061,"To":2062,"Ġnich":2063,"graf":2064,"dia":2065,"Ġmieszka":2066,"ĠkaÅ¼dego":2067,"Ġbadania":2068,"âĢĻ":2069,"Ġzg":2070,"Ġ190":2071,"Ġzau":2072,"tej":2073,"ÅĽniej":2074,"dow":2075,"Ġ.<|":2076,"Ġzde":2077,"count":2078,"fer":2079,"Ġdzien":2080,"self":2081,"Ġsek":2082,"mach":2083,"Ġwol":2084,"cych":2085,"czeniu":2086,"niem":2087,"Ġfun":2088,"Ġstrate":2089,"Ġprakty":2090,"spÃ³ÅĤ":2091,"ĠmÃ³gÅĤ":2092,"ĠsÅĤowa":2093,"Ġzmiany":2094,"\"}}":2095,"ĠWar":2096,"niÄħ":2097,"sen":2098,"got":2099,"gram":2100,"Mo":2101,"Ġgrani":2102,"zÃ³w":2103,"ĠwspÃ³l":2104,"naÄĩ":2105,"mar":2106,"Ġpochodzenia":2107,"Ġid":2108,"Ġstop":2109,"zyd":2110,"ĠÅĽwiecie":2111,"kle":2112,"ĠPyth":2113,"owiÄħ":2114,"cznoÅĽÄĩ":2115,"mes":2116,"cen":2117,"Ġps":2118,"Ġjas":2119,"ÅĤaby":2120,"Ġjaki":2121,"Ġryzy":2122,"cjami":2123,"Ġsprzeda":2124,"ĠpÅĤa":2125,"ĠzarÃ³wno":2126,"ĠmogÄĻ":2127,"mem":2128,"Ġsame":2129,"wiÄĩ":2130,"aÄĩ":2131,"kowych":2132,"ang":2133,"Ġzdania":2134,"obÃ³w":2135,"ina":2136,"Ġwyja":2137,"ld":2138,"ĠSy":2139,"ĠgÅĤo":2140,"Ġper":2141,"bal":2142,"ĠMe":2143,"Ġzwie":2144,"ÅĦskiego":2145,"dro":2146,"ÅĤug":2147,"Ġsytua":2148,"Ġzmian":2149,"Ġmnie":2150,"Ġprzysz":2151,"Ma":2152,"Ġjeszcze":2153,"ĠwspÃ³ÅĤpra":2154,"\")":2155,"ĠprowadziÄĩ":2156,"ĠJoh":2157,"ĠpÃ³ÅĤ":2158,"ĠciÄħgu":2159,"Ġl":2160,"dal":2161,"iÄĻki":2162,"Ġ100":2163,"Ġsza":2164,"ĠDe":2165,"ĠksiÄħÅ¼":2166,"ĠporÃ³w":2167,"wÄĻ":2168,"glÄħ":2169,"staÄĩ":2170,"Ġter":2171,"Ġ11":2172,"wiÄĻz":2173,"wem":2174,"Ġosoby":2175,"ĠĠĠĠĠĠĠĠĠĠĠĠĠĠĠ":2176,"ĠwystÄĻpu":2177,"Ġkwadra":2178,"steÅĽ":2179,"sÅĤugi":2180,"Ġdni":2181,"pp":2182,"szyÄĩ":2183,"mowy":2184,"ÅĤeÅĽ":2185,"anego":2186,"tacji":2187,"orÄħc":2188,"les":2189,"Ġtyp":2190,"Ġrozwoju":2191,"Ġchce":2192,"Ġmoje":2193,"spodar":2194,"Ġzapewnia":2195,"liwe":2196,"Ġkiedy":2197,"Âł":2198,"ĠmiaÅĤ":2199,"Ġ189":2200,"Ġkod":2201,"Ġdolar":2202,"Ġani":2203,"nes":2204,"ciÄħg":2205,"ĠokreÅĽlo":2206,"racji":2207,"ĠAI":2208,"Ġdwie":2209,"sh":2210,"get":2211,"ĠumiejÄĻtnoÅĽci":2212,"trze":2213,"Ġpytania":2214,"ĠpodrÃ³Å¼":2215,"resu":2216,"Ġstud":2217,"ĠY":2218,"ÅĤÄħcz":2219,"Ġuzyska":2220,"jska":2221,"ktury":2222,"dnia":2223,"ler":2224,"identy":2225,"anej":2226,"ĠwzglÄĻ":2227,"poÅĽ":2228,"Ġlatach":2229,"ĠmÅĤo":2230,"ĠCz":2231,"arakt":2232,"pÅĤy":2233,"chodzi":2234,"mer":2235,"wÃ³r":2236,"sÅĤaw":2237,"anym":2238,"Ġprzesz":2239,"tory":2240,"liÅĽmy":2241,"Ġdnia":2242,"Ġkatolicki":2243,"rami":2244,"Ġil":2245,"Ġide":2246,"def":2247,"edÅĤug":2248,"Ġwykon":2249,"Ġnowo":2250,"Ġopie":2251,"angaÅ¼":2252,"ĠzaÅĤo":2253,"ĠktÃ³rego":2254,"fikowaÄĩ":2255,"zja":2256,"ÅĽle":2257,"ÅĽnia":2258,"czeÅĽnie":2259,"Ġnor":2260,"Ġinformacje":2261,"Jakie":2262,"godnie":2263,"czaj":2264,"br":2265,"grafi":2266,"glÄĻd":2267,"Ġ25":2268,"âĢ¦":2269,"iera":2270,"jo":2271,"ĠumoÅ¼li":2272,"ĠzapewniÄĩ":2273,"Ġpierwszy":2274,"Ġfrancu":2275,"Ġzapo":2276,"let":2277,"ĠjÄĻzyka":2278,"dzieÄĩ":2279,"Ġduchow":2280,"szuki":2281,"nem":2282,"cjen":2283,"jed":2284,"Roz":2285,"ĠÅģ":2286,"Ġrosy":2287,"Ġprojekt":2288,"stÄħpi":2289,"Ġfunkcja":2290,"fini":2291,"pada":2292,"ĠÅĽwiata":2293,"ĠgÅĤÄĻbo":2294,"16":2295,"ĠLa":2296,"bia":2297,"JesteÅĽ":2298,"skÄħ":2299,"Ġwers":2300,"ĠJak":2301,"wca":2302,"fo":2303,"Ġrzeczywist":2304,"usz":2305,"waÅ¼yÄĩ":2306,"Ġpan":2307,"Ġstand":2308,"Ġposia":2309,"Ġwydaj":2310,"Ã³Å¼":2311,"larz":2312,"Ġpoko":2313,"Ġswoim":2314,"entem":2315,"ĠzwiÄĻz":2316,"biÄĩ":2317,"Ġznajduje":2318,"Prze":2319,"wiajÄħc":2320,"ĠzarzÄħdz":2321,"Ġdzieci":2322,"Ġenergii":2323,"kÅĤadu":2324,"Ġcharakt":2325,"Ġcent":2326,"Ġdrugiej":2327,"Ġkomp":2328,"wana":2329,"ĠuÅ¼yÄĩ":2330,"Ġsyste":2331,"Ġkieru":2332,"blio":2333,"Ġkontek":2334,"szenie":2335,"bardziej":2336,"czych":2337,"czej":2338,"czeÅĽniej":2339,"Ġdostos":2340,"ĠrÄĻ":2341,"Ġforma":2342,"Ġpomys":2343,"Ġkomunika":2344,"print":2345,"ĠprÃ³b":2346,"Ġinternet":2347,"put":2348,"Ġpowinie":2349,"ĠWi":2350,"Ġuczni":2351,"owaÅĤa":2352,"lnej":2353,"Ġjednost":2354,"Ġprogram":2355,"Ġpowierzch":2356,"ĠzaangaÅ¼":2357,"kuje":2358,"Ġfirmy":2359,">[":2360,"Ġmiejsca":2361,"anÄħ":2362,"danie":2363,"]</":2364,"Ġucze":2365,"Ġzwraca":2366,"Ġzawsze":2367,"string":2368,"ĠJest":2369,"wÃ³rz":2370,"czeÅĦstwa":2371,"Ġpoda":2372,"Ġsce":2373,"ĠmyÅĽli":2374,"Ġgrupy":2375,"terna":2376,"kowy":2377,"ĠSta":2378,"goryt":2379,"Ġ==":2380,"ĠklientÃ³w":2381,"Ġmini":2382,"liwoÅĽci":2383,"ĠdolarÃ³w":2384,"bÄĻd":2385,"ĠwskaÅº":2386,"lass":2387,"Ġduchowny":2388,"Pro":2389,"sÃ³w":2390,"Ġludz":2391,"mienia":2392,"Ġanali":2393,"Ġpisa":2394,"stÃ³w":2395,"function":2396,"Ġpsych":2397,"Ġdia":2398,"Ġkobie":2399,"Ġjeden":2400,"ĠHa":2401,"Ġpowodu":2402,"ĠczÅĤon":2403,"Ġzda":2404,"ster":2405,"Ġare":2406,"Ġznaczenie":2407,"ĠWiel":2408,"duka":2409,"lt":2410,"Ġwspo":2411,"Ġkluczowe":2412,"Ġzaj":2413,"Ġobser":2414,"ĠAu":2415,"czone":2416,"dziÅĤ":2417,"Ġit":2418,"cenia":2419,"Ġpodob":2420,"Ġistnieje":2421,"ciel":2422,"cznymi":2423,"ĠpodejÅĽcie":2424,"imp":2425,"skona":2426,"turÄĻ":2427,"Ġwyraz":2428,"Li":2429,"ÅĤam":2430,"sji":2431,"ĠOb":2432,"ĠBy":2433,"Ġstanie":2434,"iskup":2435,"line":2436,"nach":2437,"ÅĤudni":2438,"ĠznaczÄħ":2439,"nar":2440,"tnej":2441,"Ġintelig":2442,"ÅĤek":2443,"tysty":2444,"ownik":2445,"Ġpolega":2446,"mii":2447,"szenia":2448,"ĠGe":2449,"rek":2450,"ĠzostaÅĤa":2451,"Ġpowsta":2452,"Ġskon":2453,"Ġtele":2454,"ĠCi":2455,"tny":2456,"Ġhe":2457,"Ġponi":2458,"noÅĽciÄħ":2459,"interes":2460,"Å¼o":2461,"son":2462,"leg":2463,"Ġkli":2464,"Ġodpowiada":2465,"Ġkry":2466,"Ġgospodar":2467,"ĠWe":2468,"Ġprawdopodobie":2469,"arka":2470,"Ġfrancuski":2471,"lizacji":2472,"Ġzapro":2473,"ezpie":2474,"Ġdef":2475,"op":2476,"gna":2477,"Ġak":2478,"Ġwal":2479,"ckiego":2480,"widÅĤ":2481,"ownikÃ³w":2482,"Ġpopra":2483,"14":2484,"Ġone":2485,"Ġkonta":2486,"ĠBe":2487,"meters":2488,"Ġpomaga":2489,"czonych":2490,"ujÄħ":2491,"Ġteor":2492,"Ġmasz":2493,"ĠÅºrÃ³d":2494,"tt":2495,"bywa":2496,"vi":2497,"ĠksztaÅĤ":2498,"ĠpoÅĽ":2499,"Ġtr":2500,"ĠuwaÅ¼":2501,"Ġobraz":2502,"Ġcon":2503,"Ġnowych":2504,"Ġprzyczy":2505,"jÄĻcia":2506,"Ġpowinna":2507,"Ġspa":2508,"Ġnatural":2509,"ult":2510,"_{":2511,"Ġwymag":2512,"cjach":2513,"Ġdobrze":2514,"zwy":2515,"Ġzestaw":2516,"Ġwynik":2517,"ĠwÅĤaÅĽciw":2518,"Ġ\\]":2519,"ĠpÃ³Åº":2520,"Ġ202":2521,"ĠDla":2522,"parameters":2523,"Ġfo":2524,"ĠdoÅĽwiadczenia":2525,"Ġpri":2526,"Ġauto":2527,"Ġwody":2528,"Ġpacjen":2529,"ĠStan":2530,"fr":2531,"Ġ188":2532,"Ġzainteres":2533,"Ġspecja":2534,"ĠwywoÅĤa":2535,"Ġaplika":2536,"Ġanaliz":2537,"bior":2538,"ĠgÃ³r":2539,"jedno":2540,"kaz":2541,"Ġsub":2542,"ĠbezpoÅĽ":2543,"Ġzaczyna":2544,"Ġkol":2545,"cznia":2546,"stania":2547,"ĠtÅĤu":2548,"niÄĻcia":2549,"Ġpunkt":2550,"ĠktÃ³rÄħ":2551,"ĠosiÄħgnÄħÄĩ":2552,"Ġasy":2553,"Ġtrady":2554,"Ġnajlep":2555,"ue":2556,"jaw":2557,"Ġmetody":2558,"uj":2559,"Ġtabli":2560,"ĠzespoÅĤu":2561,"biera":2562,"Ġrzecz":2563,"Ġdzi":2564,"rÃ³wnowa":2565,"^{":2566,"Ġcen":2567,"Ġnajbardziej":2568,"Ġprzeprowa":2569,"Ġgrup":2570,"ĠszczegÃ³lnie":2571,"ĠwczeÅĽniej":2572,"ĠzakoÅĦ":2573,"Ġwsze":2574,"Ġzba":2575,"Ġpoczucie":2576,"Ġsuk":2577,"30":2578,"Ġopar":2579,"tkÃ³w":2580,"Ġpart":2581,"ctwa":2582,"Ġupew":2583,"ĠNe":2584,"Ġnowe":2585,"qrt":2586,"Ġpl":2587,"waj":2588,"Ġ50":2589,"ierp":2590,"Ġuwz":2591,"Ġfra":2592,"ĠwywoÅĤ":2593,"rzeÅĦ":2594,"tru":2595,"ĠWil":2596,"Ġprezyd":2597,"Ġidenty":2598,"try":2599,"czki":2600,"Co":2601,"ance":2602,"Ġsuger":2603,"right":2604,"Ġjednym":2605,"Åºdzie":2606,"tal":2607,"Ġprzyj":2608,"que":2609,"Ġkryty":2610,"ĠGa":2611,"szczy":2612,"giel":2613,"owujÄħc":2614,"dzÄħc":2615,"kol":2616,"ĠpoprawiÄĩ":2617,"zyj":2618,"cyjny":2619,"ĠokrÄĻ":2620,"rzysta":2621,"nicy":2622,"Ġinnymi":2623,"Ġtempera":2624,"ĠkaÅ¼dej":2625,"arguments":2626,"Ġboga":2627,"roni":2628,"Ġlekko":2629,"ĠJu":2630,"Ġkraj":2631,"Ġran":2632,"com":2633,"ĠEuro":2634,"czeki":2635,"noc":2636,"tom":2637,"Ġfinans":2638,"wolu":2639,"mian":2640,"Ġtwier":2641,"Ġche":2642,"por":2643,"ĠwÄħ":2644,"text":2645,"Ġuro":2646,"17":2647,"ccount":2648,"ĠspeÅĤ":2649,"ĠHe":2650,"wen":2651,"owanej":2652,"Ġbrytyjski":2653,"ĠtrÃ³j":2654,"kowa":2655,"Ġpierwsze":2656,"ĠksiÄĻ":2657,"Ġprzygot":2658,"wski":2659,"dyn":2660,"Ġpotrzeby":2661,"Ġefektyw":2662,"ĠzÅĤo":2663,"ĠbÅĤÄĻ":2664,"owano":2665,"tecznie":2666,"Ġwyniki":2667,"ginal":2668,"Ġchcia":2669,"Ġkana":2670,"ĠbÅĤ":2671,"Ġaktorka":2672,"Ġmaszy":2673,"Ġuczest":2674,"ĠprzeksztaÅĤ":2675,"Ġwojs":2676,"Ġpodkre":2677,"con":2678,"Ġgodzin":2679,"siÅĤ":2680,"owÄĻ":2681,"ens":2682,"ĠOr":2683,"Ġpio":2684,"ĠzaleÅ¼noÅĽci":2685,"Ġanalizy":2686,"ĠÅĽmier":2687,"tery":2688,"publi":2689,"zd":2690,"ĠÅĽred":2691,"`.":2692,"fault":2693,"ĠczÅĤowie":2694,"ĠÅ¼ycie":2695,"ĠSe":2696,"ĠPe":2697,"ĠmÃ³wi":2698,"onÃ³w":2699,"piej":2700,"Ġbio":2701,"Ġoto":2702,"np":2703,"Ġalgoryt":2704,"Ġlisty":2705,"ĠwynikÃ³w":2706,"owiec":2707,"tna":2708,"Ġstatysty":2709,"ĠnajwiÄĻk":2710,"isty":2711,"ĠWarsza":2712,"ĠangaÅ¼":2713,"wej":2714,"Ġkwiet":2715,"Ġszero":2716,"ĠnastÄĻpujÄħce":2717,"Ġmaksy":2718,"ĠmieszkaÅĦ":2719,"Å¼u":2720,"Ġnajmniej":2721,"owaniem":2722,"Ġstandard":2723,"are":2724,"uk":2725,"ĠroÅĽli":2726,"mujÄħ":2727,"ĠNi":2728,"tw":2729,"Ġprzemy":2730,"lnÄħ":2731,"obÄħ":2732,"Ġoba":2733,"owarzy":2734,"Ġtam":2735,"ĠrolÄĻ":2736,"ĠdoÅĽwiadczenie":2737,"ÅĤoÅĽÄĩ":2738,"Ġeduka":2739,"Ġ24":2740,"owanego":2741,"ĠkÄħ":2742,"Ġzidenty":2743,"Ġtaki":2744,"wyÅ¼":2745,"wiek":2746,"bezpie":2747,"lum":2748,"kÃ³ÅĤ":2749,"ĠGdy":2750,"ĠCa":2751,"ĠTen":2752,"Ġwrze":2753,"ject":2754,"Ġwyniku":2755,"ĠszczegÃ³ÅĤ":2756,"Ġzdoby":2757,"gene":2758,"Ġkole":2759,"Ġoprac":2760,"sce":2761,"logia":2762,"11":2763,"ĠJan":2764,"Ġdomu":2765,"owoÅĽci":2766,"ĠrozwiÄħza":2767,"Ġkompozy":2768,"qui":2769,"Ġzam":2770,"lnie":2771,"scho":2772,"25":2773,"ph":2774,"Ġjedy":2775,"owanÄħ":2776,"ĠniezbÄĻd":2777,"ĠskÅĤad":2778,"ĠswÃ³j":2779,"datkowo":2780,"ĠzwiÄħzane":2781,"gaÄĩ":2782,"lna":2783,"ror":2784,"ÅĦskiej":2785,"Ġwspar":2786,"Ġkilku":2787,"Ġtro":2788,"lii":2789,"ĠwaÅ¼ne":2790,"ĠPra":2791,"ĠuÅ¼ytkownika":2792,"bil":2793,"ĠDz":2794,"ĠwÅĤoski":2795,"Ġdrze":2796,"ĠAby":2797,"Ġchoro":2798,"Pra":2799,"Ġaspe":2800,"Ġzwro":2801,"oÅĤ":2802,"Ġmiejsc":2803,"Ġkrzy":2804,"niejsze":2805,"ĠJakie":2806,"Ġfilo":2807,"Ġmodel":2808,"Ġ:":2809,"pÅĤa":2810,"Ġdom":2811,"ĠczÄĻÅĽÄĩ":2812,"kolwiek":2813,"Ġinstru":2814,"}$":2815,"Ġwarun":2816,"Ġgro":2817,"ĠzrÃ³wnowa":2818,"Ã¡":2819,"ĠuzyskaÄĩ":2820,"ĠwyjÄħ":2821,"Ġzas":2822,"metry":2823,"atle":2824,"Ġszere":2825,"nikiem":2826,"tuje":2827,"default":2828,"ternatyw":2829,"godni":2830,"Ġelementy":2831,"Ġwszel":2832,"zwyczaj":2833,"oÅĽciami":2834,"ĠzewnÄĻtrz":2835,"Ġniepo":2836,"ÅĽni":2837,"Ġmoc":2838,"Ġpr":2839,"Ġwykorzystu":2840,"Ġrozwija":2841,"cach":2842,"13":2843,"duk":2844,"lia":2845,"ĠniezaleÅ¼":2846,"Ġpisarz":2847,"ĠpodrÃ³":2848,"Ġnam":2849,"Ġaktu":2850,"Ġmark":2851,"60":2852,"owanym":2853,"Ġzamie":2854,"Ġnasze":2855,"ĠdÅº":2856,"ĠciÄĻÅ¼":2857,"ÅĽliÄĩ":2858,"Ġopowie":2859,"Ġkoncep":2860,"Ġporu":2861,"Ġgodzi":2862,"ĠelementÃ³w":2863,"ray":2864,"ÅĽrÃ³d":2865,"Ġzo":2866,"Ġzmienia":2867,"uka":2868,"ian":2869,"noszÄħ":2870,"pca":2871,"ĠproblemÃ³w":2872,"...":2873,"Ġkwietnia":2874,"ĠPythonie":2875,"gÃ³w":2876,"Ġlekkoatle":2877,"onomi":2878,"rzo":2879,"ĠGo":2880,"ium":2881,"kcie":2882,"kowej":2883,"ĠcoÅĽ":2884,"Ġregi":2885,"cus":2886,"gno":2887,"Ġpers":2888,"byt":2889,"ctwo":2890,"ÅĽwiet":2891,"Ġnapis":2892,"dzÄĻ":2893,"ĠnastÄĻp":2894,"sqrt":2895,"Ġgenera":2896,"Ġmiar":2897,"twie":2898,"Ġlogi":2899,"Ġdowo":2900,"Ġzoba":2901,"ĠgÅĤ":2902,"dach":2903,"Ġzre":2904,"ĠpÄĻ":2905,"Ġostatni":2906,"mÄĻ":2907,"Ġ>":2908,"mini":2909,"anii":2910,"Ġwszystko":2911,"\".":2912,"Ġex":2913,"ĠtreÅĽci":2914,"ĠAnd":2915,"ĠFi":2916,"ÅĤaw":2917,"waniu":2918,"Ġmaja":2919,"tym":2920,"Ġbli":2921,"obra":2922,"dami":2923,"iedy":2924,"ĠJohn":2925,"ĠuczyniÄĩ":2926,"Ġzale":2927,"chÄĻ":2928,"ĠwyÅ¼":2929,"Ġmarca":2930,"glÄħd":2931,"ĠpÃ³Åºniej":2932,"ĠjednoczeÅĽnie":2933,"dot":2934,"Ġnp":2935,"Ġutwo":2936,"],":2937,"ryginal":2938,"Ġtrzech":2939,"obnie":2940,"Ġgatu":2941,"Ġusu":2942,"Ġkoncent":2943,"syw":2944,"gen":2945,"stek":2946,"Ġ\\)":2947,"Ġpopular":2948,"Ġprowadzi":2949,"Ġtrans":2950,"west":2951,"Ġwoje":2952,"Ġrazem":2953,"ĠkorzyÅĽci":2954,"Re":2955,"ĠwpÅĤywa":2956,"inÄĻ":2957,"tnego":2958,"lnego":2959,"Åºdzier":2960,"ÅĦskie":2961,"Ġ187":2962,"zmu":2963,"par":2964,"ĠwewnÄĻtrz":2965,"ĠmÃ³gÅĤby":2966,"niesie":2967,"ĠreÅ¼y":2968,"lach":2969,"Ġpomoc":2970,"ĠurzÄħ":2971,"Ġwspom":2972,"stytu":2973,"tnÄħ":2974,"ĠMoÅ¼esz":2975,"ĠTy":2976,"ĠPi":2977,"Ġpowszech":2978,"Ġtransp":2979,"ÅĤyby":2980,"owca":2981,"czyÅĤ":2982,"Ġmedy":2983,"Ġtypu":2984,"Ġnag":2985,"ĠodlegÅĤ":2986,"kowego":2987,"Ġnadzie":2988,"Ġartyku":2989,"ĠamerykaÅĦska":2990,"Ġdaw":2991,"Ġtest":2992,"tyczne":2993,"oÅĽciÄħ":2994,"sam":2995,"ĠuÅ¼ywajÄħc":2996,"Ġkonsek":2997,"Ġrazy":2998,"kuren":2999,"\"},":3000,"bina":3001,"Ġochro":3002,"ĠuÅ¼ywane":3003,"Ġstanowi":3004,"tools":3005,"Ġwzrostu":3006,"kÅĤ":3007,"ĠBi":3008,"Ġtajem":3009,"ĠrozwÃ³j":3010,"Ġdostarcza":3011,"og":3012,"ĠwywoÅĤaÅĦ":3013,"maÄĩ":3014,"Ġwier":3015,"Ġmamy":3016,"Ġblo":3017,"myÅĽl":3018,"gn":3019,"wÄħ":3020,"Å¼ne":3021,"imi":3022,"ĠwskazÃ³w":3023,"Ġbiz":3024,"Å¼ynie":3025,"pia":3026,"Ġwyd":3027,"Ġstosu":3028,"ĠmiÄĻ":3029,"Ġobu":3030,"Ġlisto":3031,"lnym":3032,"Ġpli":3033,"cego":3034,"ÅĤÄħd":3035,"mos":3036,"ĠpaÅºdzier":3037,"Ġkur":3038,"Ġprawdziwe":3039,"Ġzamiast":3040,"Ġpowinien":3041,"Ġkompu":3042,"Ġzb":3043,"Ġjeste":3044,"cel":3045,"Ġemocjonal":3046,"demi":3047,"ĠpostÄĻp":3048,"liby":3049,"ĠpodrÃ³Å¼y":3050,"ĠrÃ³wnowa":3051,"Ġsierp":3052,"ther":3053,"Ġopi":3054,"gar":3055,"sami":3056,"Ġotwar":3057,"ĠNaj":3058,"Ġkonf":3059,"Ġlep":3060,"Ġmedi":3061,"Ġprawa":3062,"ĠuczniÃ³w":3063,"Ġstycznia":3064,"ĠMich":3065,"ĠbÅĤÄĻd":3066,"Ġfilozo":3067,"40":3068,"Ġprez":3069,"kla":3070,"Ġwith":3071,"Ġsystemu":3072,"ĠsÅĤÃ³w":3073,"Ġodwie":3074,"ckie":3075,"mily":3076,"Ġnim":3077,"alne":3078,"nen":3079,"Ġwiadom":3080,"Ġkwadrat":3081,"ĠÅĽle":3082,"Ġprzestrzeni":3083,"gan":3084,"und":3085,"ĠreÅ¼yser":3086,"ĠtworzÄħ":3087,"ĠpoczÄħtku":3088,"Ġsum":3089,"chani":3090,"Ġprojektu":3091,"bur":3092,"Ġ\\[":3093,"Ġczerwca":3094,"laz":3095,"styczne":3096,"Ġwzor":3097,"Ġpoe":3098,"czony":3099,"ĠwedÅĤug":3100,"rum":3101,"Ġoczeki":3102,"jÄħcymi":3103,"Ġpoza":3104,"owski":3105,"mien":3106,")^":3107,"Ġofi":3108,"Ġhar":3109,"Ġrazie":3110,"Ġmaksymal":3111,"ert":3112,"Ġwynika":3113,"ĠbÄĻdziesz":3114,"ĠUni":3115,"ĠRu":3116,"mb":3117,"ĠSu":3118,"aw":3119,"Ġodpowiedzia":3120,"ĠZie":3121,"Ġlinii":3122,"Ġmor":3123,"mentu":3124,"Ġkluczowych":3125,"ĠtrÃ³jkÄħ":3126,"Ġreprezentu":3127,"Ġotrzymuje":3128,"tura":3129,"ĠzwrÃ³":3130,"ĠSo":3131,"Ġkr":3132,"Ġdecyzji":3133,"ortu":3134,"zio":3135,"Ġchor":3136,"cyjnego":3137,"ĠpostaÄĩ":3138,"ĠMu":3139,"rzÄĻd":3140,"Ġprofe":3141,"Ġdwu":3142,"tional":3143,"Ġzazwyczaj":3144,"Ġlini":3145,"ĠniektÃ³re":3146,"ĠâĪ":3147,"pierw":3148,"Dla":3149,"ĠFa":3150,"Ġ//":3151,"tkowe":3152,"ĠwrzeÅĽnia":3153,"data":3154,"ruj":3155,"Ġwizu":3156,"ĠCho":3157,"cal":3158,"Ġsport":3159,"ĠBar":3160,",\"":3161,"dzki":3162,"Ġkore":3163,"lone":3164,"Ġdal":3165,"gia":3166,"ton":3167,"aliz":3168,"Ġczym":3169,"Ġkoszy":3170,"ĠDzie":3171,"ĠzwiÄħzku":3172,"Ġscena":3173,"Ġlist":3174,"oryte":3175,"deÅĤ":3176,"ĠCie":3177,"><|":3178,"Ġ40":3179,"mieÅĦ":3180,"gdy":3181,"ĠpunktÃ³w":3182,"Ġponad":3183,"szpa":3184,"Ġwydarzenia":3185,"ĠchÅĤo":3186,"prawdÄĻ":3187,"szczenie":3188,"Ġteraz":3189,"pla":3190,"Ġkatego":3191,"Ġgrudnia":3192,"Ġbiskup":3193,"Ġtygodni":3194,"organi":3195,"Ġus":3196,"ĠmogÅĤoby":3197,"Ġlitera":3198,"Ġwykorzysty":3199,"Ġzrozumienie":3200,"fikacji":3201,"ÅĦcu":3202,"Ġautor":3203,"unkcja":3204,"ĠliczbÄħ":3205,"Ġlipca":3206,"zÄĻ":3207,"ĠbiorÄħc":3208,"Ġperspe":3209,"ĠpiÄĻk":3210,"Ġprzedstawi":3211,"Ġwido":3212,"Ġczego":3213,"ĠUSD":3214,"ĠpoÅĤudni":3215,"Ġpiosen":3216,"jÄĻcie":3217,"Ġchcesz":3218,"cyjnej":3219,"ĠbezpoÅĽredni":3220,"ĠrzÄħ":3221,"Ġwra":3222,"Ġmili":3223,"Ġpozytyw":3224,"ĠzaczÄħ":3225,"Ġarchi":3226,"ĠmiaÅĤa":3227,"Ġangiel":3228,"zujÄħc":3229,"ÅĤon":3230,"Ġoryginal":3231,"ĠnapiÄĻ":3232,"Ġkraju":3233,"Ġinterak":3234,"ĠPolsce":3235,"cenie":3236,"Ġ60":3237,"Ġuzna":3238,"tan":3239,"Ġchwi":3240,"Ġminut":3241,">[{\"":3242,"tnym":3243,"plo":3244,"Ch":3245,"Ġdoskona":3246,"norod":3247,"cym":3248,"Ġponow":3249,"ĠjakieÅĽ":3250,"ĠzrozumieÄĩ":3251,"ĠmiarÄĻ":3252,"Ġstaro":3253,"ĠÄĩ":3254,"ĠrozwiÄħzania":3255,"ff":3256,"Ġbada":3257,"owod":3258,"Ġmiasto":3259,"ĠMie":3260,"jÄħÄĩ":3261,"Ġludzie":3262,"Ġrosyjski":3263,"ĠporÃ³wn":3264,"Ġakademi":3265,"jekt":3266,"Ġbran":3267,"ĠNo":3268,"Ġplat":3269,"ĠrozpoczÄĻ":3270,"ps":3271,"ĠpowiÄħ":3272,"Ġ186":3273,"ĠZjedno":3274,"Ġwspiera":3275,"ĠpracownikÃ³w":3276,"Ġchi":3277,"Ġwyna":3278,"jemy":3279,"Ġpierwia":3280,"ĠwÅĤaÅĽciwoÅĽci":3281,"Ta":3282,"Ġ000":3283,"Ġthat":3284,"ĠmoÅ¼liwe":3285,"Ġpoka":3286,"Ġprzech":3287,"obec":3288,"dzeÅĦ":3289,"Ġnadal":3290,"spi":3291,"land":3292,"ĠmyÅĽ":3293,"Ġstronie":3294,"Ġsieci":3295,"ĠwiÄĻksz":3296,"Ġprzedmio":3297,"::":3298,"Ġfe":3299,"sj":3300,"Ġmarket":3301,"kÅĤadni":3302,"Ġkodu":3303,"ĠrÃ³wnanie":3304,"Ġzawod":3305,"Ġsierpnia":3306,"sach":3307,"Ġpoli":3308,"ÅĦstw":3309,"ĠupewniÄĩ":3310,"mym":3311,"Ġeksper":3312,"tes":3313,"Ġnot":3314,"Ġpor":3315,"ĠzÅĤoÅ¼on":3316,"ĠSte":3317,"Naj":3318,"Ġzapy":3319,"ĠrÃ³wnania":3320,"ĠdÅĤugoÅĽci":3321,"twarz":3322,"gest":3323,"Ġorganiza":3324,"ĠmogÅĤaby":3325,"Ġwh":3326,"Ġtrener":3327,"low":3328,"Ġlutego":3329,"ĠwÅĽrÃ³d":3330,"lizowaÄĩ":3331,"ĠQ":3332,"wiajÄħ":3333,"Ġdoku":3334,"Ġab":3335,"Åļ":3336,"ĠdokÅĤadnie":3337,"Ġmoty":3338,"roz":3339,"ĠaÅ¼":3340,"ĠpaÅºdziernika":3341,"Ġwojny":3342,"ĠpoÅĤ":3343,"ĠnastÄĻpujÄħcy":3344,"usi":3345,"Ġkier":3346,"Ġrad":3347,"Ġargument":3348,"Ġzadania":3349,"left":3350,"Ġtechnologii":3351,"Ġjednej":3352,"grafia":3353,"ĠwÄĻg":3354,"Ġkompozytor":3355,"cin":3356,"ĠdzieÅĦ":3357,"Ġprzeka":3358,"####":3359,"Ġwymieni":3360,"Ko":3361,"ĠPar":3362,"wnÄħ":3363,"Ġprawo":3364,"szko":3365,"ĠrozwaÅ¼yÄĩ":3366,"ĠzostaÅĤo":3367,"Ġpodejm":3368,"Ġposiada":3369,"owaÅĦ":3370,"ÄĻÅ¼czy":3371,"czek":3372,"'.":3373,"Ġasyst":3374,"Ġpotrzebu":3375,"owali":3376,"Ġsztuki":3377,"gres":3378,"Ġspotk":3379,"Ġmateria":3380,"rucho":3381,"Ġtry":3382,"ties":3383,"ĠinÅ¼ynie":3384,"':":3385,"cami":3386,"lista":3387,"object":3388,"ĉĉ":3389,"ĠkrÃ³t":3390,"Ġstron":3391,"Ġproduk":3392,"Ġcharaktery":3393,"Ġanty":3394,"Ġargum":3395,"lek":3396,"czÄĻÅĽcie":3397,"rew":3398,"ĠjednÄħ":3399,"Ġsia":3400,"ĠsobÄħ":3401,"pol":3402,"Ġgot":3403,"jesz":3404,"kÅĤady":3405,"Ġprioryte":3406,"lony":3407,"ĠKu":3408,"Ġwykony":3409,"ĠmoÅ¼liwych":3410,"ĠskÅĤada":3411,"men":3412,"Przypisy":3413,"ciÅĤ":3414,"Ġrodzin":3415,"Ġhiszpa":3416,"Ġjednego":3417,"ĠjÄĻzyk":3418,"Bi":3419,"Ġpowierzchni":3420,"Ġregular":3421,"syj":3422,"czania":3423,"narod":3424,"tyma":3425,"ciÄħga":3426,"Ġnauczy":3427,"Ġzapis":3428,"pli":3429,"ĠwykorzystaÄĩ":3430,"raj":3431,"ownika":3432,"bliote":3433,"Ġkrea":3434,"Ġhipo":3435,"ciaÅ¼":3436,"ĠparametrÃ³w":3437,"Ġzja":3438,"Ġkata":3439,"Ġodw":3440,"Ġel":3441,"ĠjakoÅĽci":3442,"Ġnauki":3443,"ĠkaÅ¼dym":3444,"Ġzbyt":3445,"ĠmiesiÄħ":3446,"ĠÅĽwiÄĻ":3447,"Ġpowa":3448,"ĠzostaÅĤy":3449,"ĠPolski":3450,"Å»":3451,"przy":3452,"ĠsposobÃ³w":3453,"amiÄĻ":3454,"chodzÄħ":3455,"ĠwokÃ³ÅĤ":3456,"owaÅĤy":3457,"ĠzrobiÄĩ":3458,"Ġokoli":3459,"box":3460,"Ġjestem":3461,"ill":3462,"Er":3463,"Ġzakresie":3464,"ning":3465,"Ġkultur":3466,"Ġpunkty":3467,"Ġistotne":3468,"ĠRob":3469,"Ġatmos":3470,"win":3471,"Ġsamocho":3472,"oria":3473,"Ġj":3474,"Ġudo":3475,"ĠWÅĤa":3476,"Ġkonstru":3477,"Ġstruk":3478,"Ġpowy":3479,"Ġlistopada":3480,"ĠhistoriÄĻ":3481,"mon":3482,"owiÄħz":3483,"anta":3484,"Ġtajemni":3485,"dr":3486,"Ġkoszt":3487,"Jednak":3488,"\\[":3489,"Ġzrozumienia":3490,"Ġwzrost":3491,"Ġznacznie":3492,"Ġtren":3493,"ĠPoniewaÅ¼":3494,"ĠzachÄĻ":3495,"Ġdrugi":3496,"zujÄħ":3497,"ĠprÄĻd":3498,"Ġkonty":3499,"ĠnaprawdÄĻ":3500,"au":3501,"wym":3502,"siÄĻcy":3503,"Å¼eÅĦ":3504,"rÃ³t":3505,"Ġtwojej":3506,"ÅĤbym":3507,"ckich":3508,"Ġpozwo":3509,"Ġrelacji":3510,"niejszych":3511,"ĠdziaÅĤacz":3512,"Ġakapi":3513,"ĠBer":3514,"Ġfunda":3515,"Ġsym":3516,"ring":3517,"mawia":3518,"ĠbadaÅĦ":3519,"Ġen":3520,"Ġdem":3521,"ĠuÅ¼yciu":3522,"ĠproduktÃ³w":3523,"giem":3524,"ned":3525,"rÃ³b":3526,"niÄĻcie":3527,"Gdy":3528,"glÄħda":3529,"Teraz":3530,"ĠobejmowaÄĩ":3531,"Ġmusimy":3532,"ĠbezpieczeÅĦstwa":3533,"wencji":3534,"Ġban":3535,"Ġwydaje":3536,"snÄħ":3537,"Cze":3538,"Ġszczy":3539,"lement":3540,"ĠrÃ³Å¼norod":3541,"czba":3542,"24":3543,"80":3544,"MoÅ¼e":3545,"Ġmedia":3546,"zer":3547,"Ġindy":3548,"giÄĻ":3549,"ckiej":3550,"Ġruch":3551,"Error":3552,"Ġukry":3553,"Ġczu":3554,"Ġzdrowia":3555,"Ġwraz":3556,"Ġmechani":3557,"Ġdynami":3558,"starcza":3559,"Ġeg":3560,"ĠwyraÅº":3561,"Ġjapo":3562,"karka":3563,"Ġona":3564,"ita":3565,"Ġosobist":3566,"Ġdra":3567,"Ġuczu":3568,"Ġrozm":3569,"Ġkos":3570,"kazaÄĩ":3571,"Ġdecyz":3572,"Ġdalej":3573,"ÅĤat":3574,"kÅĤadzie":3575,"if":3576,"sem":3577,"Å¼na":3578,"ĠprzedsiÄĻ":3579,"Ġdaje":3580,"Ġile":3581,"kan":3582,"Ġprzewi":3583,"lacja":3584,"ĠspÃ³j":3585,"ĠmateriaÅĤ":3586,"sor":3587,"Ġtworzy":3588,"}\\":3589,"widÅĤowa":3590,"Ġpotencjalne":3591,"bel":3592,"dzien":3593,"ĠspoÅĤecznoÅĽciowych":3594,"ĠciaÅĤa":3595,"ejm":3596,"Ġtor":3597,"ĠHo":3598,"rzeniu":3599,"Ġdowol":3600,"Ġinny":3601,"ĠdodaÄĩ":3602,"Ġruchu":3603,"stka":3604,"Ġnazy":3605,"wersy":3606,"Ġzgodnie":3607,"ĠwykonaÄĩ":3608,"Ġrobo":3609,"taÄĩ":3610,"Ġoj":3611,"Ġcyfr":3612,"ĠLo":3613,"rue":3614,"Ġzu":3615,"Ġmeta":3616,"Ã³ry":3617,"ĠÅĽciÅĽle":3618,"Ġniego":3619,"ĠuÅ¼ycie":3620,"Ġ22":3621,"ĠdotyczÄħcych":3622,"\"]":3623,"dniej":3624,"ex":3625,"ĠrÃ³wno":3626,"Ġcele":3627,"ĠomÃ³w":3628,"ĠkaÅ¼da":3629,"ĠzidentyfikowaÄĩ":3630,"kuj":3631,"ĠBu":3632,"Ġnaszej":3633,"Ġplane":3634,"arto":3635,"Ġelektry":3636,"dania":3637,"tedy":3638,"ĠpowiÄħz":3639,"Ġinnowa":3640,"awans":3641,"Ġboha":3642,"rie":3643,"Ġtrwa":3644,"wacji":3645,"Ġeli":3646,"Ġutrzym":3647,"fry":3648,"ĠponiÅ¼":3649,"Ġtytu":3650,"ciej":3651,"Ġnas":3652,"Ġotrzyma":3653,"ĠÅĽrodowiska":3654,"ĠmÄĻ":3655,"stre":3656,"Ġpierwszych":3657,"ĠniektÃ³rych":3658,"Ġelse":3659,"ĠkoÅĽci":3660,"wali":3661,"Ġmodu":3662,"tyka":3663,"Ġszuka":3664,"ĠkrÃ³l":3665,"bers":3666,"Ġsur":3667,"ĠzwiÄħzek":3668,"Ġczynniki":3669,"99":3670,"ria":3671,"ĠszczegÃ³":3672,"zw":3673,"pom":3674,"wÃ³dz":3675,"ĠIII":3676,"sona":3677,"Ġotrzymujemy":3678,"ic":3679,"artoÅĽÄĩ":3680,"ĠzarzÄħdzania":3681,"Ġeko":3682,"ĠzespÃ³ÅĤ":3683,"pienia":3684,"nios":3685,"Ġchemi":3686,"spe":3687,"sult":3688,"Ġsprawie":3689,"ĠdziÄĻki":3690,"Ġczyli":3691,"Ġzy":3692,"Ġczar":3693,"ĠRze":3694,"del":3695,"ĠprawdopodobieÅĦstwo":3696,"stw":3697,"ĠHen":3698,"Ġmaszyn":3699,"Ġpopulacji":3700,"ĠkoÅĦcu":3701,"ĠÎ":3702,"<<":3703,"Ġcechy":3704,"ĠcaÅĤkowitÄħ":3705,"ciÄħÅ¼":3706,"ĠMy":3707,"time":3708,"cdot":3709,"mami":3710,"ĠZe":3711,"ĠnadziejÄĻ":3712,"twÃ³rz":3713,"ĠnajwaÅ¼":3714,"Ġemi":3715,"mail":3716,"Ġkreatyw":3717,"ĠwspÃ³ÅĤczyn":3718,"naÅĤ":3719,"klu":3720,"Ġtar":3721,"matu":3722,"ĠspeÅĤnia":3723,"ĠmusiaÅĤ":3724,"Ġnowego":3725,"Ġdwo":3726,"//":3727,"ĠokreÅĽliÄĩ":3728,"ts":3729,"Ġmil":3730,"ĠdÄħ":3731,"[]":3732,".,":3733,"ĠliÅĽcie":3734,"Ġodz":3735,"ĠÅĽcie":3736,"anymi":3737,"Ġwyj":3738,"Ġ21":3739,"Ġinterpre":3740,"Ġ&":3741,"den":3742,"ĠNarod":3743,"ĠmÄĻÅ¼czy":3744,"wersyte":3745,"form":3746,"200":3747,"Ġstanu":3748,"Ġki":3749,"PrawidÅĤowa":3750,"tycznych":3751,"Ġstosun":3752,"Ġprzewo":3753,"file":3754,"zuj":3755,"Ġcia":3756,"oÅĤa":3757,"Ġciep":3758,"boxed":3759,"Ġwas":3760,"ach":3761,"ĠHi":3762,"ĠuwzglÄĻd":3763,"ĠobsÅĤu":3764,"ĠĠĠĠĠ":3765,"oÅĽciach":3766,"Ġstre":3767,"Ġnew":3768,"Ġsytuacji":3769,"Ġodpowiednie":3770,"moc":3771,"nitor":3772,"wnÄħtrz":3773,"Ġwykre":3774,"Ġrodziny":3775,"Ġoczy":3776,"ĠDu":3777,"ĠrzeczywistoÅĽci":3778,"ĠoÅĽ":3779,"ĠÄĩwi":3780,"Ġokresie":3781,"ĠjesteÅĽ":3782,"US":3783,"ĠporzÄħd":3784,"Ġreak":3785,"Ġprodukcji":3786,"Ġteorii":3787,"lega":3788,"45":3789,"ĠwzglÄĻdu":3790,"prowadzi":3791,"leks":3792,"ĠSp":3793,"Ġniej":3794,"ĠNastÄĻpnie":3795,"ĠmieszkaÅĦcÃ³w":3796,"Ġreli":3797,"ĠpÃ³ÅĤnoc":3798,"Ġgre":3799,"ktywne":3800,"word":3801,"Ġkonfli":3802,"stry":3803,"Ġfrag":3804,"ĠsÅĤa":3805,"Ġrzu":3806,"Ġzdrowo":3807,"szczenia":3808,"Ġzag":3809,"dzeniem":3810,"ln":3811,"Ġujaw":3812,"Ġpotencjalnych":3813,"Ġresz":3814,"ĠiloÅĽci":3815,"ĠpodkreÅĽla":3816,"{\\":3817,"ÅĦskich":3818,"Ġmiejscu":3819,"ĠwystÄĻpuje":3820,"ini":3821,"Ġonline":3822,"ĠtÅĤuma":3823,"ĠwykÅĤad":3824,"Ġchodzi":3825,"Ġnaszych":3826,"ÄħdÅº":3827,"Ġprzechowy":3828,"Ġlos":3829,"ĠWol":3830,"czeni":3831,"100":3832,"Ġtworzenia":3833,"ĠzbiÃ³r":3834,"piÄĩ":3835,"dli":3836,"ĠobsÅĤugi":3837,"Ġrodzaj":3838,"Ġ23":3839,"kowo":3840,"pon":3841,"iÄĻk":3842,"ĠnaleÅ¼":3843,"Ġziemi":3844,"Ġsamym":3845,"styczny":3846,"jskiej":3847,"perties":3848,"dÅĤu":3849,"Ġogrom":3850,"ĠStanis":3851,"ĠusÅĤu":3852,"Ġnowy":3853,"Ġgrupa":3854,"ĠwzglÄĻdem":3855,"ĠnastÄĻpujÄħcych":3856,"ĠÅ¼yw":3857,"skoÅĦ":3858,"ĠRP":3859,"ktÃ³re":3860,"mujÄħc":3861,"Ġbia":3862,"Ġcodzien":3863,"stria":3864,"ĠmieÅĽcie":3865,"ĠRy":3866,"Ġsyn":3867,"sin":3868,"Ġstruktury":3869,"Ġszybko":3870,"nÄħÅĤ":3871,"Ġproblemy":3872,"ĠÅĤaÅĦcu":3873,"Ġmodelu":3874,"Ġproblemu":3875,"mentÃ³w":3876,"dziaÅĤu":3877,"Ġpoeta":3878,"wan":3879,"bierz":3880,"Ġznajdu":3881,"ĠÃ":3882,"Ġtere":3883,"Ġinteresu":3884,"Ġ27":3885,"ĠudziaÅĤ":3886,"ĠJÃ³":3887,"ĠLud":3888,"cyd":3889,"Ġkierunku":3890,"Ġzaawans":3891,"dziel":3892,"Ġgwia":3893,"ĠzasobÃ³w":3894,"wicz":3895,"Ġzbud":3896,"Ġzapobie":3897,"Ġgu":3898,"[\"":3899,"('":3900,"lementa":3901,"Ġaplikacji":3902,"chÃ³d":3903,"Ġmacie":3904,"Ġwod":3905,"Ġskrzy":3906,"Ġnimi":3907,"Ġprosto":3908,"ĠCar":3909,"ĠGre":3910,"ura":3911,"Ġdziennika":3912,"Ġmam":3913,"Ġklienta":3914,"Ġprostu":3915,"PI":3916,"Ġniedo":3917,"Ġspowod":3918,"Ġuli":3919,"ĠAlex":3920,"ĠsprzedaÅ¼y":3921,"Ġdoko":3922,"Ġcech":3923,"Ġlog":3924,"Ġzni":3925,"grywa":3926,"czeÅĦstwo":3927,"ĠczynnikÃ³w":3928,"Ġsposob":3929,"Ġzacho":3930,"ĠroÅĽlin":3931,"ĠpomiÄĻdzy":3932,"=\"":3933,"Ġ80":3934,"Ġ28":3935,"gr":3936,"ĠuÅ¼ytkownikÃ³w":3937,"Ġuzysk":3938,"Ġekonomi":3939,"import":3940,"ya":3941,"gÃ³lnie":3942,"Ġlud":3943,"ĠÅĽw":3944,"ĠdziaÅĤaÅĦ":3945,"menty":3946,"lub":3947,"Ġhand":3948,"ĠpÅĤyn":3949,"Ġskomp":3950,"Ġinf":3951,"ĠXV":3952,"lami":3953,"Ġlata":3954,"obraz":3955,"Ġosoba":3956,"jskie":3957,"ĠrozwiÄħzanie":3958,"ĠrÃ³wna":3959,"Ġopro":3960,"Ġmagi":3961,"Ġdziedzinie":3962,"ight":3963,"Ġtemu":3964,"Ã³p":3965,"wego":3966,"ĠpomoÅ¼e":3967,"Ġwprowadz":3968,"Ġformat":3969,"towaÄĩ":3970,"czona":3971,"Ġczyni":3972,"seÅĤ":3973,"ino":3974,"Tak":3975,"ĠproszÄĻ":3976,"ime":3977,"cyjna":3978,"Ġgry":3979,"dzeniu":3980,"ĠKrzy":3981,"Ġnarra":3982,"generuj":3983,"Ġkoncentru":3984,"entÃ³w":3985,"Ġdocel":3986,"ĠPow":3987,"Ġlepiej":3988,"Ġpomocy":3989,"pewnij":3990,"pii":3991,"Ġpierwo":3992,"ise":3993,"ĠstÃ³p":3994,"ĠrozwiÄħzy":3995,"Zatem":3996,"Ġskle":3997,"usa":3998,"wajÄħc":3999,"ĠukÅĤad":4000,"dla":4001,"Ġwersja":4002,"Ġpora":4003,"Ġpoziom":4004,"ĠXI":4005,"ĠfaÅĤ":4006,"stki":4007,"Ġobejmuje":4008,"Å¼one":4009,"all":4010,"our":4011,"Ġprzepis":4012,"cyjnym":4013,"Ġud":4014,"ĠnieskoÅĦ":4015,"Ġwyzwania":4016,"ĠmogÅĤyby":4017,"szymi":4018,"ĠOtrzy":4019,"Ġzachowania":4020,"ĠgÅĤos":4021,"jskiego":4022,"ĠkomÃ³r":4023,"lima":4024,"Ġ,":4025,"Ġzgod":4026,"ĠczÄħ":4027,"rednie":4028,"ĠJÃ³ze":4029,"ĠpamiÄĻci":4030,"ĠzawieraÄĩ":4031,"Ġrzeczy":4032,"ĠrozwiÄħzaÄĩ":4033,"ĠtwÃ³r":4034,"Ġuni":4035,"ĠspÄĻ":4036,"pt":4037,"ĠKaÅ¼":4038,"Ġalbo":4039,"ĠUSA":4040,"niÅĤ":4041,"Ġdefini":4042,"Ġtera":4043,"lina":4044,"Da":4045,"ĠÅĽredniej":4046,"organiz":4047,"zon":4048,"ktura":4049,"Ġyou":4050,"ĠaktywnoÅĽci":4051,"Ġaut":4052,"Ġryzyko":4053,"Ġlotni":4054,"Ġgatun":4055,"ĠstaroÅ¼y":4056,"Ġtwojego":4057,"zacja":4058,"ĠwiÄħ":4059,"Ġzagro":4060,"ĠpracÄĻ":4061,"Ġtowarzy":4062,"ĠbÅĤÄĻdÃ³w":4063,"PrzykÅĤad":4064,"Ġmalarz":4065,"ĠwspÃ³ÅĤpracy":4066,"Ġkultury":4067,"ksand":4068,"Ġorganizacji":4069,"owaÅĤo":4070,"deks":4071,"ĠprzedsiÄĻbior":4072,"ĠÅ¼ydow":4073,"Ġfilm":4074,"ĠzwyciÄĻ":4075,"olog":4076,"Ġleczenia":4077,"set":4078,"Ġmetod":4079,"owoÅĽÄĩ":4080,"ĠPre":4081,"toni":4082,"ling":4083,"Ġtymi":4084,"Ġobsza":4085,"Ġzaprojekt":4086,"Ġgodziny":4087,"Ġoprogram":4088,"rzym":4089,"Ġrozu":4090,"Ġprag":4091,"Ġhistoryk":4092,"ĠcelÃ³w":4093,"times":4094,"ĠsprzÄĻ":4095,"Ġwszelkie":4096,"ĠKar":4097,"obacz":4098,"oÅĤnie":4099,"ÅĦca":4100,"ĠdÅĤugoÅĽÄĩ":4101,"Ġrelacje":4102,"ĠzaczÄĻ":4103,"amiÄĻtaj":4104,"Ġtechni":4105,"Ġzap":4106,"ĠobliczyÄĩ":4107,"ÅĤbyÅĽ":4108,"IE":4109,"Ġfilmowy":4110,"Ġpsychi":4111,"ĠgÅĤÃ³wnie":4112,"ĠwÅĤÄħ":4113,"Å¼sam":4114,"ĠGu":4115,"Å¼ych":4116,"Ġcoraz":4117,"ĠzwiÄħzanych":4118,"ĠcaÅĤkowitych":4119,"dzaÄĩ":4120,"Ġprywa":4121,"Ġobszar":4122,"ĠpotÄĻÅ¼":4123,"Ġzanie":4124,"mpi":4125,"ferencji":4126,"ĠXX":4127,"Ġfrancus":4128,"stym":4129,"ĠCze":4130,"lijski":4131,"Ġunik":4132,"Ġutra":4133,"ĠZjednoczonych":4134,"Ġuczenia":4135,"ĠzbadaÄĩ":4136,"ĠszczegÃ³ÅĤy":4137,"ĠKoÅĽci":4138,"Ġwiary":4139,"up":4140,"dziaÅĤa":4141,"Ġmis":4142,"Ġ185":4143,"rzÄħt":4144,"rent":4145,"Ġmarketing":4146,"Ġporusza":4147,"number":4148,"Ġ26":4149,"ĠuÅ¼ycia":4150,"ĠdÅºwiÄĻ":4151,"AD":4152,"ĠFe":4153,"szczÄĻ":4154,"car":4155,"22":4156,"cem":4157,"ĠlÄĻ":4158,"Ġstaje":4159,"Ġrozsze":4160,"Ġnapo":4161,"Ġodchy":4162,"ĠJego":4163,"Å¼ek":4164,"Ġwnio":4165,"Ġdzis":4166,"ĠsÅĤone":4167,"Ġpracu":4168,"Ġniezwy":4169,"Ġreali":4170,"ĠKrÃ³":4171,"Ġdobry":4172,"tri":4173,"Ġnigdy":4174,"Ġstopy":4175,"Ġrodzaju":4176,"ĠGra":4177,"Ġnaszego":4178,"Ġmusisz":4179,"Ġfunkcje":4180,"niajÄħc":4181,"Ġkorzysta":4182,"ĠCe":4183,"kier":4184,"sÅĤo":4185,"Ġkombina":4186,"ĠÅ»y":4187,"Ġbiznes":4188,"\"}},":4189,"ĠpoÅĽwiÄĻ":4190,"Ġtechnik":4191,"ministra":4192,"bÄħ":4193,"ork":4194,"ĠpoÅĤÄħczenie":4195,"fie":4196,"chwy":4197,"cko":4198,"krai":4199,"Ġkroki":4200,"ĠSejm":4201,"ego":4202,"Ġdysku":4203,"gs":4204,"Ġspotka":4205,"ĠSi":4206,"ĠmÃ³z":4207,"czym":4208,"item":4209,"Ġwiedzy":4210,"nikami":4211,"nione":4212,"Ã¼":4213,"ĠpodaÄĩ":4214,"lot":4215,"Ġproduktu":4216,"Ġedy":4217,"Ġbibliote":4218,"Ġobro":4219,"gru":4220,"cyjnÄħ":4221,"ĠÅĽmierci":4222,"Ġprawdopodobnie":4223,"termin":4224,"zdy":4225,"bio":4226,"Ġpunktu":4227,"Ġese":4228,"Ġnega":4229,"waÅĤa":4230,"ĠznakÃ³w":4231,"Ġkomputer":4232,"ĠbÅĤo":4233,"Ġ180":4234,"waÅĦ":4235,"statecznie":4236,"ĠczÅĤowieka":4237,"Mam":4238,"ĠmuszÄħ":4239,"Ġasystentem":4240,"Ġimplementa":4241,"Ġpierwszej":4242,"Ġoceny":4243,"jskich":4244,"ĠsystemÃ³w":4245,"Ġbrak":4246,"Ġformal":4247,"Ġkonkretne":4248,"ĠzobaczyÄĩ":4249,"Ġprofesj":4250,"sort":4251,"ĠniezbÄĻdne":4252,"ĠkontekÅĽcie":4253,"Ġwielokro":4254,"ind":4255,"skaÅ¼":4256,"lobal":4257,"Ġodpor":4258,"wiel":4259,"Ġhipote":4260,"ÃŃ":4261,"ĠpomysÅĤy":4262,"ĠSto":4263,"bry":4264,"anach":4265,"stwie":4266,"Ġprocesu":4267,"Ġkrwi":4268,"Ġstanowis":4269,"ĠwystÄĻp":4270,"Ġprzekon":4271,"ĠtoÅ¼sam":4272,"app":4273,"ĠÅºrÃ³dÅĤa":4274,"wiÄĻcej":4275,"miany":4276,"ĠAleksand":4277,"Ġstworzenie":4278,"ĠmoÅ¼liwoÅĽÄĩ":4279,"ĠbudÅ¼e":4280,"Ġakademicki":4281,"ĠCon":4282,"ĠrozkÅĤad":4283,"stycznych":4284,"ĠwpÅĤywu":4285,"wal":4286,"gre":4287,"alse":4288,"ĠprzepÅĤy":4289,"--------":4290,"Ġzostanie":4291,"alnych":4292,"Ġprzyjaci":4293,"szka":4294,"ys":4295,"Ã¶":4296,"ĠEd":4297,"ĠgeneraÅĤ":4298,"nt":4299,"obraÅº":4300,"Ġâī":4301,"ĠWoj":4302,"ĠwciÄħÅ¼":4303,"Ġstylu":4304,"ĠTh":4305,"\\)":4306,"nica":4307,"Ġtwa":4308,"ĠPonad":4309,"Ġodby":4310,"tions":4311,"ĠzostaÄĩ":4312,"Å¼eniu":4313,"ven":4314,"Ġsymbo":4315,"Ġilo":4316,"cznij":4317,"Ġoferuje":4318,"tania":4319,"widu":4320,"ĠgÅĤÃ³wne":4321,"Ġnarod":4322,"Ġpoje":4323,"ktem":4324,"ĠnastÄĻpujÄħcego":4325,"ĠRozwaÅ¼":4326,"Ġdobre":4327,"Ġpoprawy":4328,"ĠNiem":4329,"func":4330,"cyfi":4331,"90":4332,"Ġsugest":4333,"ĠbiaÅĤ":4334,"Ġalternatyw":4335,"trza":4336,"cept":4337,"wiam":4338,"Ġwtedy":4339,"Ġpowro":4340,"Ġ90":4341,"Ġpotrzebne":4342,"Ġjednostki":4343,"Ġkwest":4344,"rzem":4345,"Ġprawnik":4346,"ĠumoÅ¼liwia":4347,"Å¼yÅĤ":4348,"Ġzjawi":4349,"ĠpomysÅĤÃ³w":4350,"gÃ³l":4351,"ĠsiÅĤy":4352,"quired":4353,"Ġjedynie":4354,"Ġszwe":4355,"ĠporzÄħdku":4356,"ĠbÅĤÄħd":4357,"Ġkontynu":4358,"ĠĠĠĠĠĠĠĠĠĠĠĠĠĠĠĠ":4359,"ÅĽciÄĩ":4360,"Ġnieu":4361,"Ġini":4362,"ĠPio":4363,"szyscy":4364,"ĠzwierzÄĻ":4365,"Ġpomi":4366,"Ġuczestni":4367,"properties":4368,"Ġlecz":4369,"logiczne":4370,"Ġsugeruje":4371,"Ġkolum":4372,"ĠKiedy":4373,"Ġjedna":4374,"III":4375,"ĠangaÅ¼u":4376,"ĠtÄĻtni":4377,"Ġpostrze":4378,"ĠWh":4379,"ĠÅ¼oÅĤnie":4380,"ĠwysokoÅĽci":4381,"Zobacz":4382,"Ġzdaniu":4383,"Ġswoimi":4384,"nd":4385,"gÅĤo":4386,"Ġela":4387,"ĠzwiÄĻkszyÄĩ":4388,"pas":4389,"Ġkonieczne":4390,"Ġznalezie":4391,"Ġinwe":4392,"lona":4393,"Ġoka":4394,"Ġpotwier":4395,"ĠTak":4396,"ralne":4397,"ÅĦskim":4398,"Ġreprezenta":4399,"hile":4400,"ĠobejmujÄħ":4401,"ĠrosnÄħ":4402,"')":4403,"Ġul":4404,"Ġlista":4405,"Ġniebie":4406,"tomiast":4407,"waÅĤy":4408,"stawy":4409,"Ġsygna":4410,"ĠDlatego":4411,"Ġpierwszym":4412,"Ġspostrze":4413,"Ġwybr":4414,"ĠFunkcja":4415,"sumowujÄħc":4416,"Ġwobec":4417,"tkowych":4418,"ĠAna":4419,"Ġinten":4420,"Ġzak":4421,"ĠwywoÅĤania":4422,"Ġsma":4423,"czÄĻÅĽciej":4424,"Ġwir":4425,"(-":4426,"ĠHenry":4427,"stych":4428,"inter":4429,"dzone":4430,"ĠpowaÅ¼":4431,"mierz":4432,"Ġcelem":4433,"Ġzao":4434,"Ġstd":4435,"tacja":4436,"ĠnowÄħ":4437,"ye":4438,"Ġsukces":4439,"ĠWÅĤo":4440,"Ġnowej":4441,"Ġdie":4442,"Å¼yw":4443,"Ġwyszuki":4444,"Å¼er":4445,"Ġakcji":4446,"Ġposzuki":4447,"Ġastro":4448,"Ġprezydent":4449,"ĠpÄĻt":4450,"ĠPonadto":4451,"Ġzamk":4452,"ĠDziÄĻki":4453,"ĠzaczÄħÄĩ":4454,"ciele":4455,"ĠskÅĤadni":4456,"tanie":4457,"use":4458,"rzej":4459,"Å¼ony":4460,"Ġzwykle":4461,"Napisz":4462,"stanowi":4463,"koj":4464,"Ġpowinny":4465,"ĠuÅĤat":4466,"\":[\"":4467,"dex":4468,"Ġary":4469,"ĠstronÄĻ":4470,"Ġmonitor":4471,"class":4472,"NA":4473,"koÅĤa":4474,"ĠpoÅ¼":4475,"21":4476,"array":4477,"ĠNone":4478,"\"]}}":4479,"Ġpierwszego":4480,"Ġprogramu":4481,"Ġstwierdzenie":4482,"Ġtrakcie":4483,"Ġramach":4484,"Ġprzebie":4485,"ĠprzyjaciÃ³ÅĤ":4486,"ÅĦstwie":4487,"ĠKra":4488,"tive":4489,"Ġstopni":4490,"ĠbezpoÅĽrednio":4491,"CzeÅĽÄĩ":4492,"kowÄħ":4493,"ĠÅĽrodowisko":4494,"Ġzasady":4495,"Ġwscho":4496,"Ġopiera":4497,"ĠjÄĻzyku":4498,"lew":4499,"Ġdocho":4500,"dam":4501,"unkÃ³w":4502,"ĠÅ¼adna":4503,"Ġpapie":4504,"Ġsukce":4505,"75":4506,"Ġbyli":4507,"czÄħc":4508,"Â°":4509,"Ġkoszykarz":4510,"Ġsamego":4511,"Ġskomplik":4512,"czyÅĤa":4513,"Ġponownie":4514,"Ġnegatyw":4515,"ÅĤad":4516,"cyk":4517,"ĠwyÅĽwiet":4518,"Ġwskazuje":4519,"Ġprzyjmuje":4520,"ĠDodatkowo":4521,"cjon":4522,"ĠduÅ¼ych":4523,"owani":4524,"Ġstworzenia":4525,"Ġwysp":4526,"ĠMon":4527,"out":4528,"ĠfaÅĤszy":4529,"\"\"":4530,"tus":4531,"Ġpliku":4532,"niaÄĩ":4533,"ĠpaÅĦstwa":4534,"Ġstu":4535,"ĠzaÅĽ":4536,"required":4537,"ĠUpewnij":4538,"ĠÅĽwiadom":4539,"Ġradzie":4540,"ĠsÅĤy":4541,"rad":4542,"Ġatrak":4543,"Ġkolo":4544,"Ġzorganiz":4545,"Al":4546,"des":4547,"ĠPu":4548,"Ġdyplo":4549,"Ġkarie":4550,"NastÄĻpnie":4551,"Wie":4552,"sf":4553,"kÅĤadem":4554,"ĠznaÄĩ":4555,"Ġprzetwarz":4556,"jÄħÅĤ":4557,"Ġkrok":4558,"ĠEl":4559,"Ġmani":4560,"Ġrea":4561,"ĠRzy":4562,"ĠZiemi":4563,"Ġzaba":4564,"znacza":4565,"Ġzbio":4566,"Ġperspekty":4567,"fy":4568,"ĠtworzÄħc":4569,"glÄĻdni":4570,"Ġ184":4571,"ĠtwÃ³j":4572,"Ġkan":4573,"```<|":4574,"Ġpotra":4575,"Ġdata":4576,"ĠduÅ¼e":4577,"rÄĻb":4578,"Ġszereg":4579,"szek":4580,"ĠzwiÄĻksza":4581,"kowania":4582,"cio":4583,"formu":4584,"ÅĽnij":4585,"arr":4586,"ĠzadaÅĦ":4587,"Ġton":4588,"Ġzaku":4589,"niach":4590,"Ġwystarcza":4591,"Ġsamej":4592,"ssi":4593,"ĠÅ¼yciu":4594,"Ġstara":4595,"Ġgener":4596,"ĠIle":4597,"Ġdi":4598,"ĠodmÃ³w":4599,"ĠzwierzÄħt":4600,"sja":4601,"Ġosa":4602,"Ġbrz":4603,"}},\"":4604,"'s":4605,"urrent":4606,"Ġryzyka":4607,"angle":4608,"Ġuda":4609,"ĠtrudnoÅĽci":4610,"Ġcharakter":4611,"rok":4612,"Ġekspery":4613,"wki":4614,"ĠzginÄĻ":4615,"minu":4616,"ĠnapÄĻ":4617,"De":4618,"Ar":4619,"Ġopu":4620,"ong":4621,"Ġpyta":4622,"ista":4623,"ÅĤÃ³":4624,"Jednym":4625,"Ġtelewi":4626,"ĠFranci":4627,"Ġmojej":4628,"Ob":4629,"ÅĤaszcza":4630,"ĠzewnÄĻtrzne":4631,"Ġprecy":4632,"Ġ__":4633,"tic":4634,"mienie":4635,"Ġzbli":4636,"lizacja":4637,"szo":4638,"pita":4639,"Ġwykry":4640,"ĠmateriaÅĤÃ³w":4641,"Ġresta":4642,"ĠwyrÃ³Å¼":4643,"tle":4644,"Ġdwoma":4645,"Ġfrom":4646,"ĠÅĽcieÅ¼":4647,"Ġindywidu":4648,"Ġmogliby":4649,"Ġata":4650,"Ġinteligencji":4651,"Ġformatu":4652,"Ġner":4653,"Ġpremie":4654,"mujesz":4655,"23":4656,"ĠÅĽredniÄħ":4657,"ĠwÅĤasne":4658,"szedÅĤ":4659,"Ġarchite":4660,"Ġsprawi":4661,"ĠwÄĻz":4662,"ĠVa":4663,"Ġ183":4664,"ĠduÅ¼y":4665,"Ġmikro":4666,"naw":4667,"torÃ³w":4668,"bÃ³w":4669,"mieniu":4670,"Ġobszary":4671,"account":4672,"ĠposeÅĤ":4673,"Ġresult":4674,"Ġadministra":4675,"Ġreprezentuje":4676,"Ġodnosi":4677,".\",\"":4678,"Ġzer":4679,"lnymi":4680,"Ġsuma":4681,"Ġthis":4682,"liwoÅĽÄĩ":4683,"mody":4684,"Ġdziennikarz":4685,"ĠmiaÅĤy":4686,".\"}},\"":4687,"wers":4688,"Ġochrony":4689,"ĠwypeÅĤ":4690,"Ġkwo":4691,"Ġwszystkim":4692,"Ġtzw":4693,"ĠwydajnoÅĽci":4694,"Ġfoto":4695,"ĠrzÄħd":4696,"tnoÅĽÄĩ":4697,"ĠTwojej":4698,"ĠÅĤo":4699,"Ten":4700,"Ġtechniki":4701,"Ġtakimi":4702,"Ġlekarz":4703,"Ġserca":4704,"ĠpodzieliÄĩ":4705,"Ġnocy":4706,"Ġaustria":4707,"RozwaÅ¼":4708,"wiercie":4709,"ĠFrancji":4710,"Ġzbioru":4711,"of":4712,"wÃ³d":4713,"input":4714,"Ġget":4715,"ĠopowieÅĽci":4716,"Ġcu":4717,"ĠwykÅĤadowca":4718,"Ġpobli":4719,"nera":4720,"Ġmag":4721,"ĠPary":4722,"Ġsaty":4723,"ten":4724,"ĠgÅĤÃ³wnych":4725,"kowym":4726,"Ġcha":4727,"Ġskutecznie":4728,"date":4729,"Ġrynku":4730,"Ġchoroby":4731,"ĠnajwyÅ¼":4732,"ĠcaÅĤym":4733,"wencje":4734,"Ġmetoda":4735,"ĠwejÅĽciowego":4736,"ĠÅĽlima":4737,"Ġosza":4738,"ĠwskaÅ¼":4739,"ĠsÅĤowo":4740,"Ġbraku":4741,"Ġpowia":4742,"ĠokreÅĽl":4743,"ujesz":4744,"Ġpisania":4745,"ĠosiÄħgniÄĻcia":4746,"leko":4747,"lor":4748,"ward":4749,"Ġzachowanie":4750,"ĠrÃ³Å¼nice":4751,"tago":4752,"Masz":4753,"Ġtury":4754,"ĠprzeszÅĤoÅĽci":4755,"Ka":4756,"ĠiloÅĽÄĩ":4757,"ĠJapo":4758,"Ġzmiennej":4759,"ĠzÄĻ":4760,"pienie":4761,"28":4762,"rozumie":4763,"Ġcom":4764,"ĠpierwszÄħ":4765,"EN":4766,"Ġregres":4767,"ĠukÅĤadu":4768,"zny":4769,"ĠksztaÅĤt":4770,"Ġtablicy":4771,"ĠpoÅĤÄħczenia":4772,"ĠwojewÃ³dz":4773,"Ġodzwiercie":4774,"mple":4775,"dziaÅĤy":4776,"ĠtrochÄĻ":4777,"ĠDy":4778,"Ġczasem":4779,"ĠcaÅĤy":4780,"Ġalge":4781,"Ġsoli":4782,"pty":4783,"ĠzdolnoÅĽci":4784,"Dodatkowo":4785,"ĠpotÄĻ":4786,"Ġzasoby":4787,"ĠusÅĤugi":4788,"Ġzdefini":4789,")$":4790,"Ġeta":4791,"stego":4792,"Ġzastosowania":4793,"bin":4794,"PoniewaÅ¼":4795,"torem":4796,"Ġwiarygod":4797,"finiu":4798,"logicznych":4799,"kowski":4800,"Dz":4801,"oni":4802,"Ġuzn":4803,"zeum":4804,"ĠPierw":4805,"ĠWygeneruj":4806,"Ġokres":4807,"myÅĽlnie":4808,"ĠwybÃ³r":4809,"Ġprzer":4810,"Ġwszech":4811,"ĠStanisÅĤaw":4812,"ĠMicha":4813,"Ġrz":4814,"Ġ29":4815,"ĠUÅ¼yj":4816,"Ġwymaganych":4817,"ĠzwiÄĻzÅĤe":4818,"Ġkonkuren":4819,"ĠmyÅĽl":4820,"Ġciem":4821,"sco":4822,"Ġdelika":4823,"ĠwyjaÅĽnie":4824,"].":4825,"nikom":4826,"anek":4827,"numbers":4828,"ĠpodejÅĽcia":4829,"Ġowo":4830,"Ġrozwa":4831,"==":4832,"ĠobowiÄħz":4833,"Ġpojedyn":4834,"ralny":4835,"Ġsez":4836,"cieli":4837,"Kon":4838,"Ġfabu":4839,"Ġkomunikacji":4840,"loat":4841,"Ġrobi":4842,"dzanie":4843,"ĠgÄĻ":4844,"Ġwsparcia":4845,"ower":4846,"the":4847,"ĠpustÄħ":4848,"wienia":4849,"ĠpaÅĦstw":4850,"mono":4851,"nic":4852,"Ġcentrum":4853,"Ġumy":4854,"Ġsystemy":4855,"Ġlekkoatletka":4856,"ĠKaro":4857,"Ġodpowiednio":4858,"Ġsprawia":4859,"mount":4860,"Ġpokry":4861,"Poz":4862,"stana":4863,"tual":4864,"Two":4865,"Ġwio":4866,"wami":4867,"lit":4868,"nieÅĽÄĩ":4869,"Ġlite":4870,"padek":4871,"szone":4872,"ĠuÅ¼yta":4873,"Ġobecnie":4874,"miot":4875,"ĠksiÄħÅ¼ki":4876,"Ġwybo":4877,"Ġniezn":4878,"Ġnieco":4879,"ĠhiszpaÅĦski":4880,"Ġtys":4881,"wych":4882,"Ġprzyro":4883,"Ġjakby":4884,"czyk":4885,"czem":4886,"ĠChi":4887,"ckim":4888,"ĠnawiÄħ":4889,"Ġnormal":4890,"king":4891,"Ġzatrzy":4892,"âĢŀ":4893,"grody":4894,"Ġobiekt":4895,"ÂŃ":4896,"ÏĢ":4897,"Ġcan":4898,"ĠTu":4899,"ĠciÅĽnie":4900,"bÄĻ":4901,"Ġrozmowy":4902,"Ġzi":4903,"Ġ70":4904,"ĠGeor":4905,"ĠksiÄħÅ¼ÄĻ":4906,")(":4907,"tkiem":4908,"Ġgeometry":4909,"Ġekspertem":4910,"mencie":4911,"sion":4912,"Ġznajd":4913,"27":4914,"Ġfilozof":4915,"tuj":4916,"ĠutrzymaÄĩ":4917,"fikuj":4918,"Ġgramaty":4919,"Ġprzewidy":4920,"ĠMaria":4921,"nis":4922,"Ġpodstawowe":4923,"gosÅĤa":4924,"ĠÅļwiÄĻ":4925,"Ġrok":4926,"ĠdostarczyÄĩ":4927,"Äħcych":4928,"Ġrozmiar":4929,"anÃ³w":4930,"ÅĤami":4931,"Ġinwesty":4932,"Ġpozwoli":4933,"ĠCiÄĻ":4934,"ĠrÃ³Å¼nymi":4935,"ĠAmery":4936,"lender":4937,"Ġobserw":4938,"stej":4939,"Ġglobal":4940,"Ġoptyma":4941,"dzajÄħc":4942,"ĠwystÄħ":4943,"Ġupro":4944,"ĠzwÅĤaszcza":4945,"Ġdodatkowe":4946,"Ġfirma":4947,"ĠuÅ¼ywany":4948,"spon":4949,"Ġdzieli":4950,"Ġpoziomu":4951,"Ġnowoczes":4952,"ĠchciaÅĤbyÅĽ":4953,"Ġ2020":4954,"ĠwiadomoÅĽci":4955,"Ty":4956,"blicz":4957,"ice":4958,"Ġobja":4959,"lski":4960,"ĠwziÄħ":4961,"dÅĤuÅ¼":4962,"nety":4963,"ĠPÃ³ÅĤ":4964,"Ġfar":4965,"ciela":4966,"ÅĽmie":4967,"Ġfundamenta":4968,"ĠpowiedzieÄĩ":4969,"ĠmiÄĻdzynarod":4970,"Ġostatecznie":4971,"ĠnarzÄĻdzia":4972,"prowadÅº":4973,"waniem":4974,"ĠOp":4975,"Ġogro":4976,"Ġdlaczego":4977,"ĠzauwaÅ¼yÄĩ":4978,"Ġbadaw":4979,"deo":4980,"Ġstrategii":4981,"Ġut":4982,"();":4983,"zajem":4984,"lta":4985,"Åģ":4986,"Ġbadanie":4987,"ĠstrukturÄĻ":4988,"ĠuÅ¼ywaÄĩ":4989,"leÅĦ":4990,"Ġtematy":4991,".)":4992,"Ġwykorzystuje":4993,"test":4994,"istoria":4995,"ĠistniejÄħ":4996,"ĠSystem":4997,"fery":4998,"ĠwyÅĤÄħ":4999,"ĠusÅĤug":5000,"Ġprzeciwko":5001,"Ġzain":5002,"Ġeuro":5003,"ĠzdaÅĦ":5004,"ĠprzestrzegaÄĩ":5005,"ĠKsiÄĻ":5006,"Ġczte":5007,"ĠUniwersyte":5008,"Ġnieo":5009,"kowie":5010,"wanych":5011,"ĠdowÃ³d":5012,"najdÅº":5013,"Ġclass":5014,"ĠszczegÃ³l":5015,"ley":5016,"Ġchro":5017,"ĠczÄĻÅĽciÄħ":5018,"ĠkrÃ³tki":5019,"Ġniewy":5020,"Ġklas":5021,"Ġodgrywa":5022,"Ġmist":5023,"math":5024,"Ġkanady":5025,"ĠSer":5026,"gin":5027,"Ġkoszty":5028,"ĠczÅĤonkÃ³w":5029,"ĠzajÄĻ":5030,"ĠSan":5031,"Ġstabil":5032,"ĠSch":5033,"Ġtransforma":5034,"Ġmocy":5035,"Ġniepew":5036,"Ġprzedstawia":5037,"Ġwro":5038,"ÅĤonek":5039,"Å¼eniem":5040,"niajÄħ":5041,"ial":5042,"Ġtygodniu":5043,"ÄħÄĩ":5044,"ĠJÃ³zef":5045,"Ġczytelnika":5046,"Ġzmiennych":5047,"ey":5048,"ĠBra":5049,"Ġwarunki":5050,"ĠlistÄħ":5051,"Ġtutaj":5052,"ĠPythona":5053,"$$":5054,"Ġnoc":5055,"ĠwydajnoÅĽÄĩ":5056,"stawi":5057,"Ġznaczenia":5058,"Ġkto":5059,"rÃ³deÅĤ":5060,"Ġtakiego":5061,"ĠwielkoÅĽci":5062,"Ġroli":5063,"ĠMia":5064,"metrii":5065,"Ġurucho":5066,"jÄħco":5067,"ĠWal":5068,"Ġrzym":5069,"cos":5070,"Ġpowinno":5071,"bor":5072,"Ġsekre":5073,"ĠbyÅĤoby":5074,"ĠCy":5075,"Ġcesa":5076,"Ġekscy":5077,"ĠÅºrÃ³deÅĤ":5078,"ree":5079,"Ġpas":5080,"ĠokreÅĽla":5081,"Ġplatfor":5082,"Ġdniu":5083,"Ġmain":5084,"pl":5085,"Ġwierz":5086,"ĠHu":5087,"ĠzdolnoÅĽÄĩ":5088,"run":5089,"Ġobywa":5090,"Ġreligi":5091,"Ġhistoria":5092,"Ġzani":5093,"ell":5094,"ĠobiektÃ³w":5095,"ĠÅĽwiatÅĤa":5096,"ĠponiÅ¼ej":5097,"ĠjakÄħ":5098,"Ġkonkretnych":5099,"ĠÅļwia":5100,"Ġwarto":5101,"orld":5102,"Ġmno":5103,"ĠbÅĤÄĻdy":5104,"hel":5105,"Ġ2000":5106,"Ġuwagi":5107,"ĠimiÄĻ":5108,"ĠzaleÅ¼y":5109,"ĠuÅ¼ywania":5110,"Ġzdrowie":5111,"porzÄħd":5112,"Me":5113,"Ġmody":5114,"WskaÅ¼":5115,"ine":5116,"ĠpiÄĻÄĩ":5117,"ĠuwzglÄĻdni":5118,"Ġograniczenia":5119,"Ġher":5120,"Ġzabu":5121,"Ġstworzy":5122,"ĠwpÅĤywaÄĩ":5123,"ON":5124,"stecz":5125,"ĠÅ¼ywnoÅĽci":5126,"Ġewolu":5127,"Ġreprezent":5128,"Ġskar":5129,"Ã³wczas":5130,"Ġczeka":5131,"ĠszczÄĻ":5132,"ĠporÃ³wnaniu":5133,"Ġwizuali":5134,"Ġkontra":5135,"uld":5136,"ĠÅĽrednia":5137,"Ġwhile":5138,"queue":5139,"Ġiz":5140,"ÅĤach":5141,"Å¼d":5142,"istka":5143,"\\]":5144,"ĠsumÄĻ":5145,"Ġwyzna":5146,"ĠÅĽwiado":5147,"ĠmÃ³j":5148,"Ġpublic":5149,"MoÅ¼esz":5150,"Ġpta":5151,"ĠrozpoczÄħ":5152,"ĠEu":5153,"Ġeksplora":5154,"Ġzmniejsza":5155,"Ġkuch":5156,"Ġwynagro":5157,"port":5158,"Ġczerwo":5159,"ĠomÃ³wiÄĩ":5160,"Ġgen":5161,"wrÃ³":5162,"Innym":5163,"Ġlekkoatleta":5164,"Ġform":5165,"Ġkm":5166,"ĠmiesiÄĻcy":5167,"ĠNor":5168,"pieÅĦ":5169,"Ġoddzie":5170,"Ġkamp":5171,"ĠPie":5172,"gami":5173,"ĠEmily":5174,"bro":5175,"Ġtema":5176,"ĠnazwÄĻ":5177,"lacjÄĻ":5178,"ĠuÅ¼ywana":5179,"inc":5180,"sfak":5181,"gnie":5182,"Ġdrz":5183,"ĠmaÅĤe":5184,"ĠSpo":5185,"niami":5186,"Ġlen":5187,"Ġdodatni":5188,"ĠpieniÄĻ":5189,"ĠChar":5190,"Ġpostacie":5191,"ĠnarzÄĻdzie":5192,"czen":5193,"ĠniÄħ":5194,"Ġbohater":5195,"ĠwiÄĻkszoÅĽÄĩ":5196,"Ġwnios":5197,"Ġsposoby":5198,"ĠnajczÄĻÅĽciej":5199,"Ġpowod":5200,"Ġrozpozna":5201,"Ġuza":5202,"ĠprawidÅĤ":5203,"Ġzmieni":5204,"Ġimplika":5205,"Ġuszko":5206,"zupeÅĤ":5207,"ĠrozkÅĤadu":5208,"kta":5209,"Ġzim":5210,"ĠNIE":5211,"ĠPan":5212,"ĠprÃ³bu":5213,"mor":5214,"Ġelektro":5215,"Ġrekla":5216,"kujÄĻ":5217,"Ġintensyw":5218,"Ġklar":5219,"Ġzmiana":5220,"Ġzakres":5221,"ĠpacjentÃ³w":5222,"Ġobo":5223,"Ġintegra":5224,"ĠOtrzymujesz":5225,"tacjÄĻ":5226,"Ġodsta":5227,"ĠSÄħ":5228,"Ġharmono":5229,"Ġoperacji":5230,"mÃ³wie":5231,"czywiÅĽcie":5232,"Ġwypo":5233,"Ġwiek":5234,"Lin":5235,"Ġnazwy":5236,"36":5237,"Ġwprowadzenie":5238,"Ġscenari":5239,"key":5240,"70":5241,"ÅĤÄħczony":5242,"Ġszk":5243,"Ġzatru":5244,"ĠmÅĤod":5245,"Ġodna":5246,"RL":5247,"Ġwybra":5248,"cjona":5249,"Ġ'[]":5250,".\")":5251,"ĠczÅĤonek":5252,"ĠCza":5253,"Ġsztucznej":5254,"Ġ'[]'.":5255,"kÃ³j":5256,"Ġprocent":5257,"pri":5258,"Ġnatury":5259,"stal":5260,"Ġinnego":5261,"ĠodlegÅĤoÅĽÄĩ":5262,"usza":5263,"Ġukrai":5264,"Ġostatnie":5265,"ĠmediÃ³w":5266,"czeniem":5267,"Ġ2021":5268,"ĠBryt":5269,"nieÅĦ":5270,"rist":5271,"Ġmax":5272,"âĪ":5273,"ĠstaÅĤa":5274,"}]</":5275,"Ġnatomiast":5276,"ĠMUS":5277,"ĠnierÃ³w":5278,"Ġprzyjem":5279,"ĠwyglÄħda":5280,"ĠgÅĤÃ³wny":5281,"Ġcztery":5282,"ĠÅĽpie":5283,"Ġnaszym":5284,"ĠHer":5285,"pat":5286,"cznik":5287,"Ġwsparcie":5288,"listy":5289,"Ġunikalne":5290,"ĠnaszÄħ":5291,"Ġzawo":5292,"Ġaktuali":5293,"vid":5294,"ĠwspÃ³ÅĤprac":5295,"lonych":5296,"ĠÅĤu":5297,"ĠchÄĻ":5298,"Ġdanej":5299,"ĠPodczas":5300,"ĠMUSI":5301,"Ġwszyscy":5302,"ĠrzeÅº":5303,"ĠPer":5304,"jÅĽcie":5305,"rÃ³cz":5306,"cle":5307,"Ġwzoru":5308,"Ġarcy":5309,"vo":5310,"Ġmg":5311,"Ġhy":5312,"Ġpowta":5313,"ĠzÅĤa":5314,"Ġstyl":5315,"Ġpsycho":5316,"ĠXIX":5317,"ĠÅĤÄħcznie":5318,"ĠprzesÅĤ":5319,"jach":5320,"tymi":5321,"ĠobecnoÅĽÄĩ":5322,"ĠwiÄĻkszÄħ":5323,"Ġcm":5324,"Ġkolei":5325,"ik":5326,"ĠdziesiÄĻ":5327,"Ġoptional":5328,"Ġintera":5329,"ÅĤÃ³Å¼":5330,"ĠwystÄĻpujÄħ":5331,"Ġvon":5332,"Ġple":5333,"korzy":5334,"ĠGi":5335,"ĠwyraÅ¼enia":5336,"ĠpeÅĤni":5337,"Ġ?":5338,"Ġprezenta":5339,"ĠHar":5340,"Ġholender":5341,"Ġpochod":5342,"Ġautomaty":5343,"stoÅĽci":5344,"Ġanaliza":5345,"33":5346,"czer":5347,"java":5348,"ĠSpraw":5349,"ĠsÅĤuÅ¼":5350,"rab":5351,"ĠurzÄħdzenia":5352,"Ġjednostek":5353,"Ġstandardowe":5354,"Ġkontrol":5355,"ĠzmniejszyÄĩ":5356,"ĠwywoÅĤanie":5357,"tyki":5358,"Ġ...":5359,"Ġinicja":5360,"ence":5361,"ĠsprawdziÄĩ":5362,"kin":5363,"Ġzanieczy":5364,"Ġsatysfak":5365,"rÃ³bu":5366,"Ġstosowane":5367,"Ġskoncent":5368,"over":5369,"Ġtend":5370,"owanymi":5371,"ĠdostosowaÄĩ":5372,"(\\":5373,"prawidÅĤ":5374,"Ġpowietrza":5375,"ĠÅĤy":5376,"Ġmotywa":5377,"chem":5378,"Ġredu":5379,"Ġdr":5380,"ĠwydarzeÅĦ":5381,"dict":5382,"ĠCiebie":5383,"max":5384,"Ġtworzenie":5385,"ĠobjÄĻ":5386,"Ġwysokiej":5387,"wajcar":5388,"Ġ1945":5389,"Ġspecyfi":5390,"ĠmyÅĽlenia":5391,"ĠzachowujÄħc":5392,"vel":5393,"Ġdopas":5394,"Ġpotem":5395,"Ġtrakt":5396,"Pa":5397,"ĠinÅ¼ynier":5398,"Ġrolni":5399,"Ġtransportu":5400,"leni":5401,"Ġsen":5402,"Ġproducent":5403,"Liczba":5404,"ĠCent":5405,"Ġpoziomie":5406,"ĠprzyjÄĻ":5407,"rzeÅĽci":5408,"ĠwskazÃ³wek":5409,"Ġmatematyki":5410,"ĠzÅĤoÅ¼one":5411,"Ġpowstania":5412,"add":5413,"ĠwiÄĻksze":5414,"Ale":5415,"ĠCzÄĻ":5416,"chÃ³w":5417,"Ġlokaliza":5418,"ĠtrÃ³jkÄħta":5419,"jnych":5420,"Ġmm":5421,"Ġznalaz":5422,"torium":5423,"ĠWÅĤady":5424,"Ġdziel":5425,"Ġdzielni":5426,"ĠÅĽwiatowej":5427,"ĠpomysÅĤ":5428,"Ġpozostaje":5429,"Ġdecyzje":5430,"jÃ³w":5431,"|><":5432,"Ġobra":5433,"ĠcaÅĤej":5434,"ĠÅ¼yciem":5435,"Ġwczes":5436,"ĠbieÅ¼Äħ":5437,"Ġpozycji":5438,"PamiÄĻtaj":5439,"ĠukoÅĦ":5440,"Ġszer":5441,"tyk":5442,"55":5443,"Wa":5444,"Ġvalue":5445,"owaÅĤem":5446,"ĠrozwijaÄĩ":5447,"Ġdanego":5448,"Ġnumer":5449,"Å¼eli":5450,"Ġzmiennymi":5451,"ĠZamiast":5452,"lon":5453,"padku":5454,"ĠwiÄĻkszej":5455,"Ġciebie":5456,"val":5457,"ĠwspÃ³ÅĤpracÄĻ":5458,"items":5459,"Ġformy":5460,"jmy":5461,"ore":5462,"Ġpowietrz":5463,"Ġszczyt":5464,"Sz":5465,"Ġprzewodni":5466,"Ġzamiesz":5467,"Ġnawi":5468,"Ġinnym":5469,"nÄĻÅĤa":5470,"Dzie":5471,"Ġfirm":5472,"jne":5473,"Ġdw":5474,"ĠprzeglÄħd":5475,"ĠodlegÅĤoÅĽci":5476,"strzy":5477,"arch":5478,"ĠwprowadziÄĩ":5479,"ĠprÄĻdkoÅĽci":5480,"ÅĤania":5481,"ĠkoÅĦca":5482,"Ġteat":5483,"Ġmanipu":5484,"ĠspoÅĤecznych":5485,"Ġtemperatury":5486,"Ġfilozofi":5487,"Ġprzesu":5488,"ĠSh":5489,"Ġodniesie":5490,"aÅĤkowi":5491,"ĠcaÅĤkowita":5492,"Ġterenie":5493,"drawiam":5494,"://":5495,"ĠInter":5496,"gry":5497,"++":5498,"Ġodbior":5499,"leniu":5500,"ĠMogÄħ":5501,"mit":5502,"cone":5503,"Ġpani":5504,"ĠMO":5505,"Ġpremier":5506,"skiem":5507,"ĠiÅ¼":5508,"ingu":5509,"Ġpewne":5510,"Ġopcji":5511,"mek":5512,"ĠspoÅĤeczne":5513,"limpi":5514,"wienie":5515,"Ġwycie":5516,"Ġzauf":5517,"Pozdrawiam":5518,"stoÅĽÄĩ":5519,"tali":5520,"lepiej":5521,"ĠczÄĻstot":5522,"turze":5523,"ĠwyjaÅĽ":5524,"ĠprzyszÅĤoÅĽci":5525,"Ġam":5526,"Ġwojska":5527,"Ġmoim":5528,"ĠprzestrzeÅĦ":5529,"Ġprawie":5530,"ĠduÅ¼Äħ":5531,"ĠKazi":5532,"ĠwrÃ³":5533,"ĠTho":5534,"Ġprodukty":5535,"ĠsamÄħ":5536,"dnienia":5537,"Ġsposobem":5538,"ĠTrue":5539,"Ġkariery":5540,"BC":5541,"Kiedy":5542,"Ġzakup":5543,"Ġucie":5544,"ĠPla":5545,"ĠMan":5546,"najmniej":5547,"Ġkor":5548,"Ġ2022":5549,"35":5550,"Ġupra":5551,"ĠÅĽwiad":5552,"Ġ45":5553,"Ġkobiet":5554,"Ġdaty":5555,"Ġkre":5556,"gosÅĤawi":5557,"Ġ500":5558,"ternatywnie":5559,"ĠgÅĤÄĻb":5560,"ĠÅ¼eby":5561,"()`":5562,"Ġfanta":5563,"Ġzdecyd":5564,"kowaÄĩ":5565,"tychmiast":5566,"Ġ\\\\":5567,"Ġwspina":5568,"dziÄĻ":5569,"Ġfascy":5570,"masz":5571,"Ġwhich":5572,"Sta":5573,"Å¼sze":5574,"liwa":5575,"Ġtrzeciej":5576,"ĠkaÅ¼dÄħ":5577,"Ġzaplan":5578,"Ġwykorzystanie":5579,"pow":5580,"ĠczytelnikÃ³w":5581,"ĠwzÃ³r":5582,"Ġzwo":5583,"ĠwÄĻgier":5584,"ĠrÃ³Å¼nica":5585,"Ġmuzyki":5586,"ST":5587,"Le":5588,"ÅĤymi":5589,"ĠJednym":5590,"ĠprÃ³by":5591,"Ġzastosowanie":5592,"ER":5593,"bus":5594,"Ġobserwa":5595,"ĠMoÅ¼na":5596,"pto":5597,"Ġwpis":5598,"Ġhave":5599,"Ġtwoja":5600,"wid":5601,"fil":5602,"Ġbrze":5603,"unku":5604,"Ġprogno":5605,"ĠKana":5606,"ĠGru":5607,"ĠwystÄħpi":5608,"ĠTwoja":5609,"Ġwierzcho":5610,"ctor":5611,"ĠprzemysÅĤ":5612,"pha":5613,"ĠprzyciÄħg":5614,"dzeni":5615,"Ġdrodze":5616,"ĠtekstÃ³w":5617,"Ġsal":5618,"Ġkompleks":5619,"ĠWynik":5620,"Ġodwro":5621,"ĠzakÅĤada":5622,"ĠwspÃ³ÅĤczes":5623,"ĠSÅĤo":5624,"kowane":5625,"dzieÅĦ":5626,"ĠzÅĤoÅ¼onych":5627,"ull":5628,"Ġdziew":5629,"rzaÅĤ":5630,"Ġgdyby":5631,"Ġ1944":5632,"Ġdrzewa":5633,"dzony":5634,"kowanie":5635,"ĠOznacza":5636,"ĠnaleÅ¼Äħ":5637,"Ġwykorzyst":5638,"Ġnajpierw":5639,"ĠoceniÄĩ":5640,"Ġmaksymalnie":5641,"Ġwybu":5642,"Ġobni":5643,"Ġpary":5644,"Emily":5645,"])":5646,"spie":5647,"wiaÄĩ":5648,"Ġkatastro":5649,"ĠmiaÅĤo":5650,"Ġprzepisy":5651,"Ġrekuren":5652,"Ġkart":5653,"wraca":5654,"ros":5655,"ĠTwÃ³j":5656,"Ġklarow":5657,"26":5658,"Sy":5659,"grafii":5660,"ponen":5661,"mart":5662,"Åºnie":5663,"ĠogÅĤo":5664,"Podaj":5665,"Ġmas":5666,"Ġun":5667,"pach":5668,"Ġbitwie":5669,"Ġodda":5670,"kcje":5671,"Ġdostaw":5672,"pem":5673,"Ġude":5674,"ĠÅĤat":5675,"Ġoblicza":5676,"Ġkosmi":5677,"Ġcentral":5678,"sed":5679,"ĠrÃ³wne":5680,"ĠFor":5681,"ĠwskazÃ³wki":5682,"ĠzginÄĻÅĤo":5683,"():":5684,"Ġ31":5685,"ĠMat":5686,"ĠwÅĤadzy":5687,"ban":5688,"Ġwdro":5689,"lera":5690,"ÅĽciu":5691,"ĠuniknÄħÄĩ":5692,"ĠNiektÃ³re":5693,"rech":5694,"Ġnada":5695,"Ġrek":5696,"hn":5697,"\"}}},":5698,"ĠzÅĤoÅ¼onoÅĽci":5699,"Ġpoprawny":5700,"krÃ³t":5701,"ĠpublicznoÅĽci":5702,"Ġkonsekwencje":5703,"Åºni":5704,"Ġitera":5705,"przestrze":5706,"ĠcaÅĤkowicie":5707,"Podczas":5708,"Ġwojna":5709,"stnieje":5710,"Ġmniejsze":5711,"Ġcuk":5712,"Ġodzwierciedla":5713,"Â²":5714,"Ġorganiz":5715,"Ġpropor":5716,"gach":5717,"Ġwyboru":5718,"Ġmediach":5719,"wne":5720,"ĠdostÄĻpu":5721,"bert":5722,"Ġbazy":5723,"ture":5724,"ĠstÄĻ":5725,"Ġkorelacji":5726,"Ġoprogramowania":5727,"Ġ2019":5728,"Ġfilmu":5729,"zÄħ":5730,"ĠStwÃ³rz":5731,"dago":5732,"Ġklimaty":5733,"ĠPrzed":5734,"ĠÅ¼ydowskiego":5735,"arni":5736,"48":5737,"ĠAndrzej":5738,"ceÅĦ":5739,"czyni":5740,"ĠÐ":5741,"ĠtwojÄħ":5742,"ĠwyraÅ¼enie":5743,"ĠzaangaÅ¼owanie":5744,"ĠsprzedaÅ¼":5745,"Ġopa":5746,"Ġregresji":5747,"ĠstaÅĤ":5748,"Ġwektor":5749,"ĠDomyÅĽlnie":5750,"No":5751,"ĠAd":5752,"Ġ\"\"\"":5753,"enu":5754,"ĠJerzy":5755,"path":5756,"Ana":5757,"ĠEn":5758,"lita":5759,"ĠznajdujÄħ":5760,"Ġkwia":5761,"List":5762,"ĠLon":5763,"ĠwynoszÄħ":5764,"Ġwspania":5765,"Ġsprawdza":5766,"Ġneuro":5767,"ĠwyjaÅĽniÄĩ":5768,"Ġnajlepiej":5769,"Ġ35":5770,"ĠszkoÅĤy":5771,"Ġopowia":5772,"Ġ150":5773,"oke":5774,"Ġwoka":5775,"ĠpoczÄħtk":5776,"Ġ1939":5777,"Ġziem":5778,"kur":5779,"ĠduÅ¼ej":5780,"ĠpÅĤu":5781,"Ġcieka":5782,"Ġznie":5783,"ĠkrÄĻ":5784,"ĠbÄħdÅº":5785,"Ġkrajobraz":5786,"Ġreje":5787,"ĠuwaÅ¼a":5788,"tnia":5789,"Ġlokalnych":5790,"ĠrozmowÄĻ":5791,"ĠSÅĤ":5792,"yer":5793,"Ġprofesjonal":5794,"bliografia":5795,"ĠtworzyÄĩ":5796,"szt":5797,"ĠIV":5798,"lacje":5799,"late":5800,"Op":5801,"Ġname":5802,"ÅĦczy":5803,"Ġopcje":5804,"Ġznane":5805,"ĠAPI":5806,"Ġvo":5807,"ĠDi":5808,"Ġdotar":5809,"Ġdobro":5810,"tagoni":5811,"Ġ2018":5812,"Ġwil":5813,"ĠtoÅ¼samoÅĽci":5814,"iÄĻkujÄĻ":5815,"rate":5816,"Ġpola":5817,"Pobie":5818,"jaÅĽnij":5819,"Ġwojen":5820,"Ġtakim":5821,"braÄĩ":5822,"mas":5823,"Ġedukacji":5824,"ĠjakoÅĽÄĩ":5825,"ĠwysiÅĤ":5826,"64":5827,"Ġbram":5828,"piero":5829,"Ġ2010":5830,"ĠprawdopodobieÅĦstwa":5831,"ĠbyÅĤby":5832,"Ġocen":5833,"liny":5834,"wek":5835,"append":5836,"gody":5837,"ĠsamorzÄħd":5838,"ĠkrÃ³la":5839,"ĠbÃ³":5840,"ĠDob":5841,"kimi":5842,"ĠRobert":5843,"Ġzmar":5844,"read":5845,"The":5846,"Ġpokoju":5847,"rybu":5848,"Ġdrew":5849,"Ġujem":5850,"kracza":5851,"Ġprzekazy":5852,"ĠÅĤatwo":5853,"Ġprote":5854,"Ġcyk":5855,"ĠzachÄĻca":5856,"pomina":5857,"Ġdokon":5858,"RR":5859,"Ġ%":5860,"zwa":5861,"ĠMusi":5862,"alnie":5863,"ĠzapewniajÄħc":5864,"Ġbro":5865,"ĠgÅĤÄĻbi":5866,"Ġout":5867,"czanie":5868,"Ġode":5869,"Ġtery":5870,"Ġpromieni":5871,"Ġtwoich":5872,"Ġaccount":5873,"ĠGÅĤÃ³w":5874,"Ġzaka":5875,"ĠNew":5876,"ĠwÄĻgla":5877,"Ġpublicy":5878,"Ġbinar":5879,"ĠFer":5880,"ĠpowyÅ¼ej":5881,"ĠchoÄĩ":5882,"ĠÅĤÄħczy":5883,"Ostatecznie":5884,"mata":5885,"Ġend":5886,"kaÄĩ":5887,"Ġnazwa":5888,"Ġnatychmiast":5889,"PrzykÅĤadowy":5890,"zaÄĩ":5891,"Ġpodstawowych":5892,"niÄĻte":5893,"Ġminimal":5894,"ĠWilli":5895,"ĠzrÃ³wnowaÅ¼o":5896,"ĠduÅ¼o":5897,"char":5898,"Ġwzmoc":5899,"Ġchwili":5900,"Ġoczekiwania":5901,"Ġtelef":5902,"anki":5903,"Ġwalki":5904,"Linki":5905,"Ġdar":5906,"ĠnapiÄĻcia":5907,"Ġzasad":5908,"formuÅĤ":5909,"fej":5910,"ĠWarszawa":5911,"nom":5912,"Ġtermin":5913,"Ġniewiel":5914,"Ġprzypis":5915,"pier":5916,"letni":5917,"Ġzbior":5918,"Ġdoprowadzi":5919,"wÅĤa":5920,"Ġdrugiego":5921,"ĠtytuÅĤ":5922,"By":5923,"dnich":5924,"ĠsiÅĤ":5925,"Ġbla":5926,"kcja":5927,"dziÅĤa":5928,"ĠpieniÄĻdzy":5929,"size":5930,"ĠstanowiÄħ":5931,"rc":5932,"padÃ³w":5933,"wska":5934,"Ġwyka":5935,"Ġrozwij":5936,"Ġszwedzki":5937,"Ġdlatego":5938,"Ġkroku":5939,"32":5940,"ĠmaÅĤych":5941,"Ġnarracji":5942,"ĠskoÅĦ":5943,"Ġpodsum":5944,"ĠrozwiÄħzaÅĦ":5945,"rix":5946,"ĠwzorcÃ³w":5947,"67":5948,"Ġzmody":5949,"ĠPÃ³ÅĤnoc":5950,"iaj":5951,"Ġ2008":5952,"Ġrange":5953,"init":5954,"liwy":5955,"ĠenergiÄĻ":5956,"Ġman":5957,"towe":5958,"Ġodrzu":5959,"ĠPoz":5960,"ĠwewnÄħtrz":5961,"Ġsubstan":5962,"Ġinspi":5963,"ĠPiotr":5964,"ĠSie":5965,"guje":5966,"Ġdiagno":5967,"ham":5968,"Ġprzyczyn":5969,"Ġtransport":5970,"Ġmian":5971,"wajÄħ":5972,"Ġpusty":5973,"Ġpodejmowania":5974,"Ġarcyb":5975,"ĠpÅĤo":5976,"Ġstwierdzenia":5977,"ĠkoncentrujÄħc":5978,"ĠprostokÄħ":5979,"Ġinternetowej":5980,"Ġniebezpie":5981,"ĠwarunkÃ³w":5982,"Ġpodpis":5983,"dzania":5984,"ĠÂ":5985,"rzone":5986,"typ":5987,"ĠzastosowaÄĩ":5988,"ĠÅ»AD":5989,"Ġautenty":5990,"Ġniezwykle":5991,"ĠwÃ³wczas":5992,"Ġprzynajmniej":5993,"miona":5994,"Ġwizy":5995,"rÄħg":5996,"lueError":5997,"Ġperspektywy":5998,"Bibliografia":5999,"Ġalgorytm":6000,"Ġuprze":6001,"Ġelasty":6002,"loka":6003,"}$.":6004,"gowy":6005,"tÅĤu":6006,"ĠÅĽwiatÅĤo":6007,"ĠksiÄħÅ¼ek":6008,"ĠdostÄĻpne":6009,"Ġzadanie":6010,"Ġkontakt":6011,"ĠmateriaÅĤy":6012,"alny":6013,"Ġpedago":6014,"Ġformie":6015,"ĠTur":6016,"ĠJej":6017,"Ġwidzi":6018,"Ġkompon":6019,"ĠzÅĤ":6020,"Ġkolor":6021,"ĠStu":6022,"Ġnr":6023,"ĠpodjÄħÄĩ":6024,"encjÄĻ":6025,"cony":6026,"lip":6027,"puszcza":6028,"Ġopieki":6029,"Ġmoich":6030,"toda":6031,"Ġosie":6032,"ĠpowiedziaÅĤ":6033,"ĠbranÅ¼y":6034,"Ġilu":6035,"Ġtwoim":6036,"ĠEurope":6037,"Ġwysy":6038,"ID":6039,"Ġanalizie":6040,"Ġnarci":6041,"Ġsh":6042,"ĠdÅĤugi":6043,"Ġkonsu":6044,"Ġ36":6045,"ĠzbiorÃ³w":6046,"Ġpolityki":6047,"miny":6048,"Ġdrzwi":6049,"Å¡":6050,"Å»E":6051,"ĠEx":6052,"ĠwzglÄĻd":6053,"arah":6054,"rasta":6055,"Ġizo":6056,"PodsumowujÄħc":6057,"Ġjasne":6058,"Ġswobo":6059,"wien":6060,"Ġzdaniach":6061,"malne":6062,"Ġznany":6063,"Ġ1000":6064,"ĠzÅĤoÅ¼onoÅĽÄĩ":6065,"ĠMOÅ»E":6066,"owicz":6067,"ĠskupiÄĩ":6068,"ĠosiÄħga":6069,"ĠwÅĤasnych":6070,"Ġwersji":6071,"%.":6072,"())":6073,"szczegÃ³l":6074,"Ġwzorce":6075,"tycznej":6076,"Ġmono":6077,"Ġpierwsza":6078,"balance":6079,"Ġstring":6080,"Wynik":6081,"Ġrzad":6082,"ĠwiadomoÅĽÄĩ":6083,"Ġ2016":6084,"ĠkosztÃ³w":6085,"ĠkluczowÄħ":6086,"tacza":6087,"Ġceny":6088,"dzono":6089,"szÅĤo":6090,"ĠzuÅ¼y":6091,"Ġnic":6092,"ĠobszarÃ³w":6093,"Ġzbie":6094,"lasy":6095,"ĠAdam":6096,"Ġoszac":6097,"iÃ³w":6098,"Ġzmu":6099,"Ġpolskiego":6100,"Ġdostrze":6101,"ĠWhat":6102,"Ġniepod":6103,"ierania":6104,"rzeÄĩ":6105,"Ġ179":6106,"Ġzaga":6107,"ĠPart":6108,"lini":6109,"Ġzrobi":6110,"ĠdÅĤugotermin":6111,"ciw":6112,"Ġbel":6113,"Ġidentyfika":6114,"ĠTwojÄħ":6115,"Ġpojawi":6116,"Ġpowrotem":6117,"Con":6118,"Ġtur":6119,"szony":6120,"ĠWarszawie":6121,"miÄħ":6122,"dto":6123,"Ġbok":6124,"Ġkomi":6125,"Åį":6126,"Ġstr":6127,"Ġszan":6128,"ctwem":6129,"Ġlokalizacji":6130,"ĠTwojego":6131,"Ġkontroli":6132,"ÅĤka":6133,"Ġnajnow":6134,"tyczny":6135,"Ġspotkanie":6136,"Ġset":6137,"Ġsolid":6138,"ĠwspÃ³ÅĤrzÄĻd":6139,"ild":6140,"ĠPoÅĤudni":6141,"ĠJaka":6142,"ĠwÄĻd":6143,"main":6144,"Ġtypy":6145,"Ġpracowni":6146,"Ġpal":6147,"Ġ2006":6148,"ĠwyzwaÅĦ":6149,"Ġteren":6150,"ĠpoczÄħtek":6151,"ĠdoÅĤÄħczony":6152,"ĠmaÅĤ":6153,"Ġostro":6154,"Ġ2007":6155,"ĠÅĤad":6156,"ĠrzeczywiÅĽcie":6157,"Ġ2014":6158,"Ġtakiej":6159,"ĠuzupeÅĤ":6160,"brze":6161,"Ġgle":6162,"Ġrewolu":6163,"waÅ¼a":6164,"Ġ+=":6165,"Pona":6166,"Ġpierwiast":6167,"arrow":6168,"ĠdoÅĽÄĩ":6169,"nÃ³w":6170,"Ġkardy":6171,"Ġpiosenkarka":6172,"Ġwymienione":6173,"next":6174,"Ġnu":6175,"nieniem":6176,"ĠBie":6177,"ĠprÄħ":6178,"Ġ2017":6179,"Ġstrategie":6180,"ĠdziaÅĤaniach":6181,"ĠAugu":6182,"wencja":6183,"Ġkontekstu":6184,"ĠÅļlÄħ":6185,"gur":6186,"Ġwydo":6187,"Ġkoncer":6188,"Ġmarki":6189,"ĠwiÄĻkszoÅĽci":6190,"Ġkategorii":6191,"as":6192,"ĠTade":6193,"Ġ2012":6194,".âĢĿ":6195,"ĠwiedzÄĻ":6196,"ÅĦce":6197,"onym":6198,"dziale":6199,"},{\"":6200,"ĠwziÄħÄĩ":6201,"ĠspoÅĤeczeÅĦstwa":6202,"ĠWilliam":6203,"Ġsens":6204,"ĠprzeciÄĻ":6205,"gip":6206,"trÃ³w":6207,"ĠmiÅĤoÅĽci":6208,"Ġref":6209,"ĠdoÅĽwiadczeÅĦ":6210,"Ġ2011":6211,"lude":6212,"zulta":6213,"Ġryn":6214,"ĠOs":6215,"rona":6216,"ĠAng":6217,"Ġ2004":6218,"Ġ[]":6219,"ĠĠĠĠĠĠĠĠĠĠĠĠĠĠĠĠĠĠĠ":6220,"rus":6221,"plika":6222,"Ġostatnich":6223,"AR":6224,"ĠokrÄĻgu":6225,"ĠzakÅĤ":6226,"vis":6227,"Ġsin":6228,"Ġnaci":6229,"ĠTra":6230,"mara":6231,"ĠkoÅĦc":6232,"Ġsukcesu":6233,"cymi":6234,"Ġdodatk":6235,"niony":6236,"Ġzmaga":6237,"ðŁ":6238,"okra":6239,"Ġwspomnienia":6240,"ĠStef":6241,"ĠpÅĤaszczy":6242,"ĠWielkiej":6243,"ĠniezaleÅ¼nie":6244,"Ġcurrent":6245,"tkarka":6246,"Ġprzezna":6247,"Ġmacierzy":6248,"Str":6249,"tto":6250,"ĠanalizÄĻ":6251,"Ġdziedzinach":6252,"gular":6253,"Ġodbi":6254,"kazaÅĤ":6255,"owcÃ³w":6256,"ĠLudwi":6257,"Ġrozumie":6258,"ĠÅ¼a":6259,"sÅĤawa":6260,"ĠÅ¼adne":6261,"Ġ2013":6262,"pÄĻ":6263,"Ġpacjenta":6264,"Ġpoch":6265,"Ġdziennie":6266,"sjÄĻ":6267,"Ġobiektu":6268,"Ġpochodzi":6269,"Ġbieg":6270,"__(":6271,"ngth":6272,"rednia":6273,"Ponadto":6274,"wskiego":6275,"ĠKi":6276,"ĠchorÃ³b":6277,"szystkie":6278,"ĠpytaÅĦ":6279,"Ġtle":6280,"29":6281,"nin":6282,"Ġprzyby":6283,"}\")":6284,"ĠbÅĤogosÅĤawi":6285,"ĠstaÄĩ":6286,"ĠÅ¼Ã³ÅĤ":6287,"fia":6288,"ĠpoÅĤoÅ¼":6289,"ĠspostrzeÅ¼enia":6290,"05":6291,"Ġzawar":6292,"199":6293,"Ġodwiedza":6294,"ĠBan":6295,"ĠsÅĤownik":6296,"Ġwykorzystania":6297,"ĠdziaÅĤalnoÅĽci":6298,"ĠrÃ³Å¼nicz":6299,"Ġcywi":6300,"Ġkonser":6301,"Ġuczucia":6302,"ĠgatunkÃ³w":6303,"Ġprzyda":6304,"gÅĤÄĻ":6305,"Ġmiast":6306,"Ġparametru":6307,"nator":6308,"ĠpÅĤ":6309,"ĠgÃ³ry":6310,"krÄĻ":6311,"Ġzainteresowania":6312,"Ġdotrze":6313,"Ġimport":6314,"Ġliter":6315,"AT":6316,"Ġkandy":6317,"ĠwartoÅĽciami":6318,"Ġatmosfery":6319,"Ġdodatkowych":6320,"Ġegza":6321,"ktory":6322,"Ġtime":6323,"ÅĦskÄħ":6324,"Ġelementu":6325,"Ġwideo":6326,"owuje":6327,"Ġsiedzi":6328,"Ġutrzymy":6329,"Ġrodzaje":6330,"Ġprecyzyj":6331,"niÄĻty":6332,"Fi":6333,"stron":6334,"Ã³sÅĤ":6335,"}$,":6336,"ĠMiÄĻdzy":6337,"narzÄĻ":6338,"Ġtelewizyj":6339,"czkÄĻ":6340,"Ġczwar":6341,"ĠAnna":6342,"Ġkobiety":6343,"Ġpojaz":6344,"\"]}}},{\"":6345,"Ġprodukt":6346,"Ġpunkcie":6347,"Ġ2015":6348,"ĠsÅĤucha":6349,"Ġpoczucia":6350,"Ġangielski":6351,"Ġprzechowywania":6352,"ĠstudentÃ³w":6353,"Ġdaleko":6354,"Jo":6355,"Ġ2009":6356,"ĠÅĤÄħczÄħ":6357,"Ġoficja":6358,"lis":6359,"ĠÅĽwiÄħ":6360,"rzony":6361,"ĠCzer":6362,"Ġpodobne":6363,"Ġkluczowy":6364,"Ġszac":6365,"piÄĻ":6366,"ĠogÃ³lne":6367,"Ã³rek":6368,"Ġfascynu":6369,"Ġdanym":6370,"ĠkrÃ³le":6371,"Ġdobrym":6372,"ĠprzekazaÄĩ":6373,"Ġodej":6374,"Dlatego":6375,"ĠstaÅĤy":6376,"Ġ75":6377,"niania":6378,"Ġprzypomina":6379,"kreÅĽl":6380,"Ġmimo":6381,"old":6382,"ĠpojÄĻcia":6383,"lizuj":6384,"Ġwarian":6385,"zz":6386,"Ġrezulta":6387,"ĠnajwaÅ¼niejszych":6388,"Ġprzetr":6389,"ori":6390,"Ġzaim":6391,"Ġpowoduje":6392,"miana":6393,"szona":6394,"ĠOpisz":6395,"narzÄĻdzi":6396,"resz":6397,"km":6398,"Ġsama":6399,"Ġdzisiaj":6400,"Ġfla":6401,"wit":6402,"Ġarcybiskup":6403,"Ġjaka":6404,"antÃ³w":6405,"ĠwyÅĽci":6406,"ĠtekÅĽcie":6407,"ĠrÃ³Å¼nic":6408,"Ġpartner":6409,"Ġniepoko":6410,"ĠposzczegÃ³l":6411,"ĠChcia":6412,"ĠgoÅĽci":6413,"sole":6414,"Ġspoj":6415,"Ġpowinni":6416,"Ġznaki":6417,"Ġanality":6418,"Ġspotkania":6419,"ĠZwiÄħz":6420,"ĠRepubli":6421,"niesi":6422,"Ġinput":6423,"stawienie":6424,"Ġkomponowaniu":6425,"Ġdrob":6426,"ĠzakÅĤÃ³":6427,"lucz":6428,"Ġprzypadkach":6429,"Ġpojawia":6430,"ons":6431,"AS":6432,"Ġinteres":6433,"zacjÄĻ":6434,"Ġseku":6435,"Ġdrogi":6436,"Ġdowie":6437,"ĠwÅĤaÅĽnie":6438,"ĠprzeÅĤo":6439,"ĠuÅ¼yte":6440,"ĠodkryÄĩ":6441,"Ġharmo":6442,"Ã³g":6443,"Ġjakim":6444,"Ġpokazuje":6445,"Ġstudni":6446,"waÅĤo":6447,"bliÅ¼":6448,"Ġstwierdza":6449,"Ġrezer":6450,"Ġprosty":6451,"Ġwarst":6452,"ruje":6453,"ĠoferujÄħ":6454,"lakty":6455,"groma":6456,"Ġsprawied":6457,"->":6458,"ep":6459,"Ġproto":6460,"ĠÅ»ADEN":6461,"Ġinstytu":6462,"34":6463,"tujÄħ":6464,"ĠopÅĤa":6465,"ĠzarzÄħdzanie":6466,"Ġpowszechnie":6467,"Ġekstre":6468,"ciego":6469,"Ġmened":6470,"Ġhas":6471,"Ġemocje":6472,"ĠAt":6473,"Ġuzyskania":6474,"^(":6475,"Ġprzypom":6476,"Ġ2005":6477,"Ġmaszynowego":6478,"Ġwin":6479,"ĠprzykÅĤadÃ³w":6480,"leniem":6481,"Ġformu":6482,"Ġtransa":6483,"Pierw":6484,"ĠKom":6485,"Ġsamolo":6486,"pliwoÅĽci":6487,"ris":6488,"Ġtaka":6489,"ĠJana":6490,"ĠGeorge":6491,"Ra":6492,"Ġzabezpie":6493,"Ġodczy":6494,"ĠJack":6495,"Ġscenarzysta":6496,"Ġokresu":6497,"ĠJako":6498,"Ġemocji":6499,"ĠChociaÅ¼":6500,"rodek":6501,"lec":6502,"sista":6503,"ĠwdziÄĻ":6504,"Ġolimpi":6505,"Ġcount":6506,"Ġutw":6507,"niejszy":6508,"node":6509,"Ġprogramowania":6510,"ĠchrzeÅĽci":6511,"Ġnasz":6512,"Ġkolarz":6513,"ĠktÃ³rymi":6514,"Ġodpowiednich":6515,"ĠrozwiÄħzywania":6516,"Ġpedagog":6517,"Ġrozum":6518,"Ġinterfej":6519,"ĠkrÄħ":6520,"ĠJestem":6521,"ĠNiemie":6522,"Ġport":6523,"Ġur":6524,"Ġpotrafi":6525,"Ġmal":6526,"Ã¤":6527,"Ġall":6528,"Ġzbro":6529,"Ġchmu":6530,"Ġuchwy":6531,"want":6532,"Ġkal":6533,"onej":6534,"ĠodpowiedzialnoÅĽci":6535,"ciÅĤa":6536,"Ġitp":6537,"Ġ(-":6538,"Ġdotyczy":6539,"ĠmÄĻczen":6540,"twÃ³r":6541,"krzy":6542,"cien":6543,"Ġarr":6544,"wÃ³w":6545,"top":6546,"Å¼onych":6547,"rabia":6548,"Ġaustra":6549,"Ġgroma":6550,"Ġosi":6551,"Ġfraz":6552,"ĠEr":6553,"Ġ$<<":6554,"Ġperspektyw":6555,"ogle":6556,"ĠpoÅ¼Äħd":6557,"ĠrzekÅĤ":6558,"ĠwÄħt":6559,"gania":6560,"ĠludnoÅĽci":6561,"ĠobciÄħ":6562,"ĠcÃ³r":6563,"ĠÅĽmie":6564,"ĠEm":6565,"Ġprom":6566,"ĠWscho":6567,"Ġpraca":6568,"Ġkonkretnego":6569,"Ġwyszukiwania":6570,"Ġpodz":6571,"Ġpojem":6572,"malizowaÄĩ":6573,"ĠMoÅ¼emy":6574,"gni":6575,"ĠdÅĤuÅ¼":6576,"Ġwirtual":6577,"String":6578,"Ġprzycho":6579,"Ġyour":6580,"Ġprocesie":6581,"zem":6582,"ĠAli":6583,"logicznej":6584,"turÄħ":6585,"Ġaustriacki":6586,"kam":6587,"iej":6588,"head":6589,"bona":6590,"Ġodde":6591,"ĠcaÅĤÄħ":6592,"noty":6593,"Ġreakcji":6594,"pres":6595,"Ġnieprze":6596,"Ġargumentu":6597,"tui":6598,"ĠgdyÅ¼":6599,"Ġzanim":6600,"Ġadres":6601,"Ġwykorzystywane":6602,"Ġradziecki":6603,"ĠwejÅĽciowe":6604,"ĠKomi":6605,"rastru":6606,"Ġinterakcji":6607,"ĠcaÅĤkowitej":6608,"Ġsort":6609,"stack":6610,"ĠwzdÅĤuÅ¼":6611,"ĠpÄĻtli":6612,"Ġtworzeniu":6613,"Ġpasu":6614,"ĠjapoÅĦski":6615,"Ġpublicysta":6616,"czoÅĽci":6617,"dzili":6618,"ĠBad":6619,"Ġ32":6620,"ĠdziaÅĤanie":6621,"ĠzaangaÅ¼owania":6622,"Ġimplementacja":6623,"wszy":6624,"ille":6625,"from":6626,"Ġorze":6627,"ĠTech":6628,"Ġzob":6629,"ĠRÃ³w":6630,"iz":6631,"Ġnorwe":6632,"ĠSzy":6633,"ls":6634,"Ġzakresu":6635,"Ġup":6636,"Ġac":6637,"ĠMart":6638,"ĠkrokÃ³w":6639,"Historia":6640,"Ġspokoj":6641,"ĠTwoim":6642,"Ġwymagania":6643,"szczÄĻd":6644,"Ġczeski":6645,"Ġodd":6646,"wach":6647,"Ġpisarka":6648,"ĠzwrÃ³ciÄĩ":6649,"ĠIs":6650,"85":6651,"Ġwynikiem":6652,"noÅĽciami":6653,"Ġstruktu":6654,"ĠuÅ¼ytkownikom":6655,"Ge":6656,"Ġhum":6657,"},\"":6658,"ĠkolejnoÅĽci":6659,"Ġwielomian":6660,"artoÅĽci":6661,"ĠWz":6662,"Ġpropozy":6663,"Ġ$(":6664,"Ġstoli":6665,"`:":6666,"ÄħÅĤ":6667,"Ġtow":6668,"Å¼ki":6669,"ĠEuropy":6670,"Ġkapi":6671,"Ġtwierdzenie":6672,"Ġtopo":6673,"Ġtabe":6674,"Ġjab":6675,"Ġinterakcje":6676,"Ġliczne":6677,"teli":6678,"Ġfol":6679,"Ġskoncentr":6680,"rob":6681,"65":6682,"Ġekscytu":6683,"Ġwojskowy":6684,"Ġotacza":6685,"jny":6686,"ĠHol":6687,"kaÅĦski":6688,"ĠwyÅĤÄħcznie":6689,"ĠJames":6690,"ĠdÅºwiÄĻk":6691,"kres":6692,"Ġ2001":6693,"Ġodcin":6694,"ĠMc":6695,"ĠprowadzÄħ":6696,"ĠJaponii":6697,"Ġamount":6698,"Wi":6699,"Ġsio":6700,"dii":6701,"ĠZatem":6702,"Ġwarszta":6703,"ĠdowodÃ³w":6704,"lania":6705,"vie":6706,"tycznego":6707,"ÅĽlÄĻ":6708,"nieniu":6709,"ĠczasÃ³w":6710,"ĠustaliÄĩ":6711,"Lista":6712,"bf":6713,"Ġwojsk":6714,"Ġostate":6715,"Ġzajmuje":6716,"Ġimplikacje":6717,"Ġ300":6718,"Ġkorzyst":6719,"Ġsportowy":6720,"tm":6721,"ĠMor":6722,"ĠprzedmiotÃ³w":6723,"sonaliz":6724,"ĠwybraÄĩ":6725,"ĠpostÄĻpu":6726,"Ġsiatkarka":6727,"ĠFalse":6728,"Ġopinii":6729,"Ġplanu":6730,"Ġ120":6731,"tÅĤuma":6732,"Lu":6733,"zjÄĻ":6734,"ĠwstÄĻp":6735,"ĠcaÅĤkowite":6736,"Ġpowietrzu":6737,"Ġmon":6738,"Ġdrugim":6739,"Ġmoral":6740,"Ġznak":6741,"var":6742,"ĠnapisaÄĩ":6743,"Ġzbiera":6744,"zach":6745,"twiej":6746,"Ġzbiorze":6747,"led":6748,"Ġmojego":6749,"Ġrecen":6750,"ĠEmi":6751,"syn":6752,"ĠpobliÅ¼u":6753,"Ġzestawu":6754,"ĠSzcze":6755,"Ġnauczyciel":6756,"quad":6757,"ĠchociaÅ¼":6758,"ieranie":6759,"czonym":6760,"Ġgranice":6761,"dera":6762,"Ġwydarzenie":6763,"fu":6764,"ĠogÃ³lny":6765,"Ġbrazy":6766,"szp":6767,"Ġnazwie":6768,"ĠsprawÄĻ":6769,"Mi":6770,"towy":6771,"ssa":6772,"dent":6773,"Ġsnu":6774,"Ġposort":6775,"ĠpodwÃ³j":6776,"ĠBen":6777,"Ġoparte":6778,"Ġtyle":6779,"ĠdaÄĩ":6780,"rowin":6781,"ĠwpÅĤynÄħÄĩ":6782,"IN":6783,"Ġmetry":6784,"Ġjo":6785,"Ġem":6786,"ĠPark":6787,"Ġzmienne":6788,"ĠstaÅĤo":6789,"'(":6790,"code":6791,"ĠpiÄĻciu":6792,"Ġnauczania":6793,"Å¼ka":6794,"ĠprÄĻdkoÅĽÄĩ":6795,"ĠPrzykÅĤad":6796,"ĠskÅĤadnikÃ³w":6797,"Ġnazwi":6798,"Warto":6799,"Ġ```":6800,"Ġhandl":6801,"ĠtysiÄĻcy":6802,"ĠsieÄĩ":6803,"rael":6804,"iÄĻc":6805,"lus":6806,"Ġholenderski":6807,"OgÃ³lnie":6808,"dacji":6809,"Ġobszarach":6810,"ela":6811,"ĠprzejÅĽÄĩ":6812,"ĠudostÄĻp":6813,"circ":6814,"Ġbadaniu":6815,"ĠzgÅĤo":6816,"Ġgita":6817,"Ġloja":6818,"']":6819,"ĠleÅ¼y":6820,"Ġprzyjaz":6821,"Ġkogo":6822,"ÅĦstwem":6823,"ĠposiÅĤ":6824,"Ġstart":6825,"rzyÅĤ":6826,"Ġdyplomata":6827,"ĠNapisz":6828,"ĠEuropie":6829,"onego":6830,"Ġraise":6831,"Ġzga":6832,"rego":6833,"BiorÄħc":6834,"zywaÄĩ":6835,"Ġaspekty":6836,"ĠMuzeum":6837,"Ġsuper":6838,"ĠwpÅĤywajÄħ":6839,"ĠkorzystajÄħc":6840,"wano":6841,"ĠRich":6842,"Bo":6843,"Ġczterech":6844,"Ġrej":6845,"las":6846,"Ġindeks":6847,"ĠpoÅĤÄħczyÄĩ":6848,"ĠByÅĤ":6849,"ĠgodzinÄĻ":6850,"Ġpolskich":6851,"ĠpotencjaÅĤ":6852,"Ġsekwencji":6853,"ĠszczegÃ³ÅĤÃ³w":6854,"ure":6855,"stycznej":6856,"89":6857,"Å¼ona":6858,"rightarrow":6859,"})":6860,"Ġ2002":6861,"towo":6862,"prasza":6863,"ĠrÃ³wnowagi":6864,"lian":6865,"kujÄħc":6866,"teria":6867,"index":6868,"Ġdwiema":6869,"Ġstaran":6870,"bs":6871,"ĠAfry":6872,"Ġkomponen":6873,"ĠpodejÅĽÄĩ":6874,"ĠIz":6875,"Ġstrze":6876,"Ġinteligencja":6877,"Ġopinie":6878,"Ex":6879,"dob":6880,"ĠKor":6881,"Ġmagii":6882,"Ġdzielenia":6883,"cyjnie":6884,"ĠcaÅĤego":6885,"krÃ³tce":6886,"ĠmÃ³zgu":6887,"toÅĽ":6888,"ĠtypÃ³w":6889,"ĠValueError":6890,"logu":6891,"ĠkawaÅĤ":6892,"pus":6893,"Ġniepa":6894,"ciec":6895,"czno":6896,"gli":6897,"genty":6898,"ĠpowieÅĽci":6899,"Ġniemiecka":6900,"Ġsugestie":6901,"darzenia":6902,"Ġrzeczywistych":6903,"ĠfaÅĤszywe":6904,"Ġzat":6905,"ĠpozostaÅĤych":6906,"cs":6907,"stion":6908,"ĠGÃ³r":6909,"hy":6910,"Ġpoprawne":6911,"ĠpozwalajÄħc":6912,"tme":6913,"integer":6914,"Ġuzasa":6915,"Ġbal":6916,"ĠotrzymaÅĤ":6917,"Ġwyposa":6918,"Ġkuli":6919,"ĠbezpieczeÅĦstwo":6920,"gent":6921,"ĠpoÅĤo":6922,"ĠWspÃ³ÅĤ":6923,"Ġ2023":6924,"ĠdoÅĤÄħ":6925,"Ġszlach":6926,"Ġprzew":6927,"fikacja":6928,"Ġinternetowych":6929,"Ġopisu":6930,"Ġbur":6931,"ĠÅĽrodowisku":6932,"czonej":6933,"ĠdziÅĽ":6934,"tniej":6935,"Ġobok":6936,"ĠLin":6937,"dap":6938,"spir":6939,"ĠwskaÅºnik":6940,"01":6941,"aru":6942,"Ġkomuni":6943,"Ġnowym":6944,"Ġvoid":6945,"Ġenerge":6946,"Ġidentyfikacji":6947,"ĠnarracjÄĻ":6948,"Ġnaturalnego":6949,"col":6950,"Ġzada":6951,"rand":6952,"Ġmart":6953,"Ġtk":6954,"Ġety":6955,"Ġoblicz":6956,"Ġutrzymania":6957,"AN":6958,"dÅĤa":6959,"Najpierw":6960,"Ġtestu":6961,"ĠSam":6962,"ĠwyraziÄĩ":6963,"72":6964,"mai":6965,"ĠdruÅ¼y":6966,"Ġsper":6967,"ĠÅĤatwiej":6968,"strak":6969,"Ġhoke":6970,"Ġ\\).":6971,"Ġinfrastru":6972,"zwo":6973,"rost":6974,"ĠRi":6975,"Ġmobil":6976,"Ġprzekaz":6977,"chroni":6978,"ĠOblicz":6979,"Ġleczenie":6980,"Ġdopiero":6981,"Ġwady":6982,"Å¼ÄĻ":6983,"ses":6984,"Ġbudy":6985,"Ġtechnologia":6986,"pospo":6987,"Ġkoncepcji":6988,"ĠspoÅ¼y":6989,"cess":6990,"cuj":6991,"39":6992,"wor":6993,"WprowadÅº":6994,"emo":6995,"Ġnajlepsze":6996,"ĠBrytanii":6997,"Ġpodane":6998,"Ġobiektywne":6999,"Ġobliczenia":7000,"Ġgrze":7001,"Ġparzy":7002,"ĠsÅĤab":7003,"Ġ1990":7004,"ĠÅ¼adnych":7005,"dzÄħcych":7006,"Ġobjaw":7007,"ĠJose":7008,"Ġstosunkowo":7009,"ĠpojÄĻcie":7010,"ĠprocesÃ³w":7011,"onor":7012,"boga":7013,"Ġprzede":7014,"przez":7015,"Ġklimatu":7016,"Ġrekom":7017,"Ġpromo":7018,"ĠuÅ¼ytkownik":7019,"Ġudzie":7020,"Ġakapit":7021,"Ġnarciar":7022,"ĠPat":7023,"alpha":7024,"odrÄĻb":7025,"vent":7026,"wzglÄĻd":7027,"ĠDru":7028,"ĠczÅĤowiek":7029,"ĠWiele":7030,"mali":7031,"Ġprzyt":7032,"anna":7033,"logiÄĻ":7034,"Ġnadmier":7035,"Ġ2003":7036,"niane":7037,"rich":7038,"czonego":7039,"ĠMary":7040,"ĠTar":7041,"Ġprotagoni":7042,"tyczna":7043,"Ġulep":7044,"ĠgÅĤowy":7045,"ĠmojÄħ":7046,"ĠusÅĤy":7047,"ĠZacho":7048,"84":7049,"ĠStanÃ³w":7050,"ĠzaimkÃ³w":7051,"siÄĩ":7052,"ĠgÅĤÃ³wnym":7053,"ception":7054,"Ġimmer":7055,"ĠChrist":7056,"AC":7057,"ĠchcÄĻ":7058,"bonac":7059,"66":7060,"lie":7061,"ĠzmiennÄħ":7062,"ple":7063,"owodni":7064,"Ġalgebra":7065,"Ġ1940":7066,"Ġpil":7067,"Ġskutki":7068,"Ġgrafi":7069,"ĠobjÄĻt":7070,"Ġfal":7071,"Ġarytme":7072,"ĠWÅĤadysÅĤaw":7073,"ktami":7074,"Ġepo":7075,"Ġprzyspie":7076,"ĠwyraÅ¼a":7077,"ĠpÅĤywa":7078,"Ġstrategi":7079,"ĠMam":7080,"ĠgorÄħ":7081,"Ġsome":7082,"Pobiera":7083,"ĠtreÅĽÄĩ":7084,"gier":7085,"Ġkwant":7086,"Ġgeografi":7087,"Ġwybiera":7088,"Ġster":7089,"mac":7090,"ĠskrÃ³":7091,"Ġosobisty":7092,"ĠPrzepisz":7093,"tyn":7094,"Ġwarzy":7095,"ĠSzko":7096,"Ġkanadyjski":7097,"nictwo":7098,"ĠZnajdÅº":7099,"Ġodzy":7100,"Ġchorych":7101,"Ġgr":7102,"Ġmuzyk":7103,"ĠmaÅĤo":7104,"mul":7105,"ĠprzestÄĻp":7106,"ĠmoglibyÅĽmy":7107,"ĠJaki":7108,"Ġ1943":7109,"Ġzab":7110,"Ġsprzy":7111,"Ġnaro":7112,"Ġmogli":7113,"ĠFo":7114,"ĠdziaÅĤalnoÅĽÄĩ":7115,"Ġhis":7116,"ĠZy":7117,"Ġpisanie":7118,"kiewicz":7119,"tywy":7120,"ĠpudeÅĤ":7121,"ĠzamÃ³wie":7122,"lonej":7123,"ĠwiÄĻksza":7124,"ĠbyÅĤaby":7125,"ganie":7126,"kÄħd":7127,"Ġskry":7128,"ĠKaÅ¼dy":7129,"Ġmost":7130,"St":7131,"anka":7132,"Ġodchylenie":7133,"ĠTadeusz":7134,"sun":7135,"Ġraka":7136,"Ġelif":7137,"Ġniespo":7138,"samowi":7139,"ĠwystÄħpienia":7140,"ĠzaÅĤoÅ¼enia":7141,"gener":7142,"ĠwywoÅĤu":7143,"ĠMichael":7144,"ww":7145,"ĠprzypadkÃ³w":7146,"Ġparku":7147,"ĠWÄĻ":7148,"ĠÅĽla":7149,"entami":7150,"Ġtygod":7151,"Ġdat":7152,"Ġplatformy":7153,"Ġpasa":7154,"szto":7155,"leq":7156,"Ġwykonania":7157,"Ġnaukow":7158,"Ġformacie":7159,"zmÃ³w":7160,"\");":7161,"ĠuporzÄħd":7162,"}}{":7163,"ĠskÅĤadniki":7164,"ProszÄĻ":7165,"Ġobawy":7166,"rans":7167,"Ġbudyn":7168,")/":7169,"ĠkomÃ³rek":7170,"cielem":7171,"ĠwymagajÄħ":7172,"dzonych":7173,"Ġgi":7174,"ĠoÅĽrod":7175,"ac":7176,"gÃ³":7177,"niÃ³sÅĤ":7178,"ĠpoÅĤudniowo":7179,"kania":7180,"ars":7181,"Ġsklepu":7182,"ĠrÃ³Å¼niÄĩ":7183,"Ġdys":7184,"isa":7185,"Ġkomfor":7186,"Ġdoj":7187,"Ġfak":7188,"Ġnauk":7189,"Ġskali":7190,"ĠBur":7191,"Ġszwajcar":7192,"Ġ1942":7193,"Ġskuteczne":7194,"Ġfunkcjonal":7195,"Ġsamodzie":7196,"Ġmodeli":7197,"ĠÅĽlimak":7198,"Ġbit":7199,"ĠtakÄħ":7200,"Ġskier":7201,"ĠnieskoÅĦcz":7202,"LE":7203,"grze":7204,"Ġpodanego":7205,"ress":7206,"Ġmat":7207,"Ġzaimp":7208,"Ġpraktyki":7209,"Ġtwierdzenia":7210,"tow":7211,"serw":7212,"unek":7213,"Ġjakich":7214,"ĠsprawiÄĩ":7215,"nianie":7216,"ĠCzÄĻsto":7217,"ĠchÅĤop":7218,"ĠwyciÄħg":7219,"Ġ1999":7220,"Ġaw":7221,"Ġatrybu":7222,"kaj":7223,"Ġ1918":7224,"Ġeurope":7225,"Ġpiosenkarz":7226,"Ġokaz":7227,"ĠoddziaÅĤy":7228,"gor":7229,"reszcie":7230,"Ġspersonaliz":7231,"ĠIch":7232,"Ġpewien":7233,"Ġrzeczywistym":7234,"Ġtwarzy":7235,"remo":7236,"0000":7237,"ĠkrÃ³tkim":7238,"stawienia":7239,"mir":7240,"ĠNob":7241,"Ġnaturalne":7242,"ĠpracowaÄĩ":7243,"SRR":7244,"ÄĻzy":7245,"ĠzastÄħpi":7246,"QL":7247,"Ġzm":7248,"cjoni":7249,"ĠJor":7250,"ĠktoÅĽ":7251,"ĠbudÅ¼et":7252,"Ba":7253,"ĠniepodlegÅĤ":7254,"ĠdÅĤugie":7255,"Cho":7256,"Ġbroni":7257,"Ġklasie":7258,"cÅĤaw":7259,"cona":7260,"identyfikuj":7261,"chami":7262,"Ġzapropon":7263,"logie":7264,"ĠKe":7265,"Ġ1920":7266,"ĠpieniÄħ":7267,"Ġkonferencji":7268,"nki":7269,"szania":7270,"ĠdoÅĽwiadcza":7271,"Ġstopnia":7272,"ĠUtwÃ³rz":7273,"Ġodbywa":7274,"ĠmogÅĤa":7275,"Ġtrudne":7276,"ĠWin":7277,"ĠZbi":7278,"ĠnapiÄĻcie":7279,"^\\":7280,"dor":7281,"nau":7282,"Ġsumy":7283,"Ġbry":7284,"ĠKrak":7285,"Ġwad":7286,"ĠÅ¼eg":7287,"Ġmieli":7288,"spa":7289,"Ġliczbami":7290,"mato":7291,"ĠsÅĤowni":7292,"ĠopisaÄĩ":7293,"78":7294,"ĠrÃ³Å¼nicÄĻ":7295,"Ġzakon":7296,"table":7297,"ĠtÄħ":7298,"ujemy":7299,"rzÄĻdu":7300,"Ġskupia":7301,"ckÄħ":7302,"ĠgrupÄĻ":7303,"ML":7304,"ĠJava":7305,"Ġstosuje":7306,"nast":7307,"ĠkrajÃ³w":7308,"Ġradio":7309,"ĠPowie":7310,"weÅĤ":7311,"Ġzabie":7312,"ĠkardynaÅĤ":7313,"shi":7314,"Ġstrona":7315,"ĠwspÃ³ÅĤczynnik":7316,"kiety":7317,"Ġatmosfer":7318,"matrix":7319,"ĠSÅĤu":7320,"ĠtysiÄħ":7321,"fra":7322,"Ġstres":7323,"Ġodnawia":7324,"kiet":7325,"ĠgÅĤÄĻboko":7326,"Ġspr":7327,"ĠwÅĤasnej":7328,"ĠZosta":7329,"ujÄħcÄħ":7330,"ĠmyÅĽlisz":7331,"Ġzako":7332,"stawiajÄħc":7333,"Ġdrzew":7334,"cyt":7335,"mum":7336,"Ġpiersi":7337,"public":7338,"Ġliteratury":7339,"Ġkosztuje":7340,"ĠpuÅĤ":7341,"Ġzapom":7342,"czami":7343,"tech":7344,"ĠSztu":7345,"ms":7346,"ĠWybierz":7347,"Ġszos":7348,"ĠpiÄħ":7349,"ĠjÄĻzykÃ³w":7350,"ĠkolorÃ³w":7351,"ĠWaÅ¼ne":7352,"Ġwywia":7353,"dyk":7354,"json":7355,"ĠpoÅĽredni":7356,"Ġmale":7357,"toria":7358,"ĠpoÅ¼y":7359,"Ġprzeana":7360,"Ġ1941":7361,"ĠÅģa":7362,"Ġjedzenia":7363,"ĠKazimierz":7364,"ĠuÅĽmie":7365,"We":7366,"31":7367,"44":7368,"Ġdeko":7369,"ĠsiÅĤÄĻ":7370,"ĠGro":7371,"ĠPolskiego":7372,"Ġ1980":7373,"ĠKry":7374,"Ġprowin":7375,"Ġotw":7376,"gÅĤa":7377,"bach":7378,"cation":7379,"ĠwejÅĽcie":7380,"ĠfilmÃ³w":7381,"Jaki":7382,"Ġkolejnych":7383,"ĠsamorzÄħdowiec":7384,"jczy":7385,"overrightarrow":7386,"lowa":7387,"Ġiter":7388,"Ġczaso":7389,"Ġwprowadza":7390,"licz":7391,"ĠÅĤ":7392,"ĠuwzglÄĻdniÄĩ":7393,"['":7394,"ĠurzÄħdzeÅĦ":7395,"RO":7396,"ĠoÅĽwiet":7397,"Ġdzisiej":7398,"ĠwielkoÅĽÄĩ":7399,"ĠsÅĤuÅ¼y":7400,"ĠpokazaÄĩ":7401,"berg":7402,"Ġuz":7403,"ĠzmianÄĻ":7404,"ĠzaÅĤoÅ¼":7405,"jskim":7406,"ĠEk":7407,"ktuj":7408,"ĠmyÅĽla":7409,"ĠrÃ³wnaÅĦ":7410,"Ġjaj":7411,"Funkcja":7412,"Su":7413,"lekt":7414,"ĠznaczÄħce":7415,"ĠkÄħtem":7416,"blem":7417,"stans":7418,"Ġzaktu":7419,"Ġprzeciwnym":7420,"Ġiloczyn":7421,"cyjnymi":7422,"Ġhokeista":7423,"ĠfunkcjÄħ":7424,"ĠDavid":7425,"ĠgÃ³rÄĻ":7426,"Ġbiblioteki":7427,"sÅĤy":7428,"Ġfunkcjon":7429,"Ġmasy":7430,"Ġliczbie":7431,"ĠumoÅ¼liwiajÄħc":7432,"Ġsystemie":7433,"Ġniesamowi":7434,"Ġsymboli":7435,"Å¼em":7436,"Ġrestau":7437,"gdzie":7438,"reda":7439,"Ġir":7440,"length":7441,"ĠBel":7442,"ĠzachowaÄĩ":7443,"ĠmetodÄĻ":7444,"Ġwybrze":7445,"Ġprzeciwie":7446,"ĠOrgani":7447,"Ġmln":7448,"ney":7449,"rite":7450,"Ġodkrycia":7451,"Alternatywnie":7452,"Ġpocz":7453,"ont":7454,"Ġumieszcz":7455,"Uro":7456,"bum":7457,"ĠobrÄĻ":7458,"âĢĿ.<|":7459,"Ġproza":7460,"Ġlokalne":7461,"ĠAka":7462,"Ġszla":7463,"ĠpracÄħ":7464,"ĠzwiÄĻzÅĤy":7465,"Ġokolicy":7466,"Ġnasi":7467,"ĠwspieraÄĩ":7468,"ĠdecyzjÄĻ":7469,"Ġradi":7470,"ĠrÃ³wnoleg":7471,"ĠkoÅĦczy":7472,"Ġogni":7473,"ĠÅĽrodki":7474,"grani":7475,"Ġscen":7476,"ãģ":7477,"ĠMiÄĻdzynarod":7478,"sje":7479,"dzona":7480,"figu":7481,"Ġimmersyj":7482,"My":7483,"gowaÄĩ":7484,"ĠstajÄħ":7485,"ĠwejÅĽcia":7486,"ÅĤgar":7487,"ĠKla":7488,"dziaÅĤem":7489,"Ġnara":7490,"Ġodczu":7491,"niÄĻciu":7492,"ĠartykuÅĤ":7493,"Ġportu":7494,"cajÄħc":7495,"ĠukraiÅĦski":7496,"kujÄħ":7497,"ecnie":7498,"Ġgier":7499,"Ġintui":7500,"Ġdeter":7501,"ĠRozpo":7502,"Ġwykonywania":7503,"ĠHiszp":7504,"Ġbramkarz":7505,"ĠWedÅĤug":7506,"nikaj":7507,"Ġdokumenta":7508,"noÅĽ":7509,"ĠbÅĤÄĻdu":7510,"ĠNode":7511,"Ð°":7512,"prawie":7513,"ĠStanach":7514,"Ġobrazu":7515,"ĠzbliÅ¼a":7516,"zje":7517,"Ġright":7518,"twarza":7519,"ĠpoÅĤowie":7520,"ĠNau":7521,"Ġserii":7522,"Ġfragment":7523,"Ġ1992":7524,"Ġfizyczne":7525,"ĠHenryk":7526,"state":7527,"jor":7528,"Ġdoro":7529,"dniego":7530,"Ġperso":7531,"ĠzajÄĻcia":7532,"sub":7533,"Ġhiper":7534,"rÃ³buj":7535,"ĠnajwaÅ¼niejsze":7536,"kor":7537,"Ġucz":7538,"Ġbadaniach":7539,"ĠmÄĻÅ¼czyzn":7540,"ĠczÄĻstotliwoÅĽci":7541,"ĠprzykÅĤady":7542,"Ġdodaje":7543,"mid":7544,"ĠpamiÄĻtaÄĩ":7545,"zowaÄĩ":7546,"Ġopubli":7547,"Ġscho":7548,"ĠwysokoÅĽÄĩ":7549,"tent":7550,"rat":7551,"Ġotwo":7552,"result":7553,"ĠGoogle":7554,"Ġwizualizacji":7555,"Ġdanymi":7556,"ĠÅĽredniowie":7557,"Ġsyna":7558,"stwem":7559,"38":7560,"?\"":7561,"Ġnosi":7562,"ĠPolska":7563,"ĠspoÅĤeczny":7564,"ĠChe":7565,"ĠopÃ³Åº":7566,"Ġprzechodzi":7567,"rur":7568,"brania":7569,"mysÅĤ":7570,"gazy":7571,"ĠpochodzÄħ":7572,"ĠĠĠĠĠĠ":7573,"trzeb":7574,"Ġer":7575,"ĠtablicÄĻ":7576,"37":7577,"ab":7578,"Ġrozpro":7579,"Ġoku":7580,"Ġfirmie":7581,"KtÃ³":7582,"ĠwyksztaÅĤ":7583,"Ġzapewnienie":7584,"Å¼ni":7585,"ĠroÅĽnie":7586,"ĠwodÄĻ":7587,"ĠpomagajÄħ":7588,"Å¼ania":7589,"Ġtenis":7590,"los":7591,"ĠpoczÄħtkowo":7592,"ĠâĪĴ":7593,"ĠKali":7594,"rid":7595,"ĠÅĽrodkÃ³w":7596,"ĠÅĽrednie":7597,"Ġnaturalnych":7598,"John":7599,"ĠrzÄħdu":7600,"Ġplanety":7601,"OczywiÅĽcie":7602,"lety":7603,"ĠZSRR":7604,"ĠLiczba":7605,"Ġdzia":7606,"czar":7607,"ĠÏ":7608,"%,":7609,"rÃ³Å¼nic":7610,"Ġepi":7611,"ttp":7612,"ES":7613,"Ġelementem":7614,"Ġargumenty":7615,".\"},\"":7616,"Ġpotencjalnie":7617,"mod":7618,"Ġ1991":7619,"Ġskonta":7620,"Ġpost":7621,"bienia":7622,"Ġwprowadzenia":7623,"ĠdotrzeÄĩ":7624,"ĠPomo":7625,"ĠobrazÃ³w":7626,"Ġarchitekt":7627,"Ġneut":7628,"ded":7629,"Ġrozry":7630,"Ġnowa":7631,"ĠPraw":7632,"kanie":7633,"ĠBro":7634,"ront":7635,"Ġstosunku":7636,"znania":7637,"ĠzwyciÄĻstwo":7638,"niejszym":7639,"bora":7640,"Ġnazywa":7641,"Ġrozpa":7642,"ĠlekÃ³w":7643,"ĠMog":7644,"Ġbrytyjska":7645,"ĠdrugÄħ":7646,"ĠSza":7647,"Ġtheir":7648,"Ġ\\),":7649,"dzka":7650,"ĠpodejmowaÄĩ":7651,"Ġtrzeci":7652,"boli":7653,"Ġkultu":7654,"For":7655,"Ġwidzenia":7656,"Ġrestauracji":7657,"ĠopowieÅĽÄĩ":7658,"Ġgrupie":7659,"czyli":7660,"piÄħ":7661,"ĠVi":7662,"lla":7663,"Ġword":7664,"Ġ1998":7665,"mana":7666,"sar":7667,"ĠosobÄĻ":7668,"Ġ!":7669,"tona":7670,"Ġ1996":7671,"Ġmoja":7672,"Ġobserwacji":7673,"Ġpowtarza":7674,"tak":7675,"ĠprÃ³bki":7676,"Ġjakiekolwiek":7677,"Ġ1975":7678,"Ġstopniu":7679,"ĠgÃ³":7680,"Ġpogod":7681,"Ġulu":7682,"ĠpowtÃ³":7683,"Ġminister":7684,"Ġwzajem":7685,"ĠmiÄĻÅĽni":7686,"Ġzasi":7687,"terze":7688,"ĠÅºrÃ³dÅĤo":7689,"sÄħ":7690,"ĠAb":7691,"iÅĤ":7692,"zda":7693,"tkowÄħ":7694,"Ġeksploracji":7695,"ĠpÅĤuc":7696,"alnej":7697,"gm":7698,"ĠÅ¼Äħd":7699,"Ġwojnie":7700,"muni":7701,"Å¼Äħc":7702,"Ġprogramy":7703,"bami":7704,"76":7705,"Ġlinia":7706,"Ġstruktura":7707,"ĠmÄħd":7708,"Ġrzeki":7709,"ĠzasiÄĻ":7710,"ĠÅĤaci":7711,"culate":7712,"trzyma":7713,"ĠĠĠĠĠĠĠĠĠĠĠĠĠĠĠĠĠĠĠĠĠĠĠ":7714,"Ġpomie":7715,"Ġdziecka":7716,"dnim":7717,"ĠsprÃ³b":7718,"ĠokreÅĽlonych":7719,"nianych":7720,"szÅĤa":7721,"czÄħcy":7722,"ĠKrÃ³le":7723,"burg":7724,"88":7725,"Ġbut":7726,"ĠprzyciÄħga":7727,"Ġwymie":7728,"koÅĤo":7729,"Ġprocedu":7730,"Ġinteligent":7731,"ĠÅ¼ywo":7732,"aÅĤÄĻ":7733,"Ġ1936":7734,"Ġprzeczy":7735,"Ġ<=":7736,"Ġkwali":7737,"ĠobecnoÅĽci":7738,"Ġpodwod":7739,"Ġprzybli":7740,"Ġ1994":7741,"=<<":7742,"Ġzama":7743,"Ġmatematyk":7744,"Ġobszarze":7745,"Ġparla":7746,"Ġpodobnie":7747,"sch":7748,"Ġmiastecz":7749,"Ġzainteresowanie":7750,"Ġzidentyfik":7751,"prawy":7752,"encjach":7753,"49":7754,"strz":7755,"ming":7756,"Ġum":7757,"ĠMed":7758,"torzy":7759,"Ġpublicznego":7760,"ĠroÅĽliny":7761,"Ġ1997":7762,"Ġinsta":7763,"wierdzenie":7764,"ĠTeraz":7765,"Ġmul":7766,"Ġkwe":7767,"Ġdodanie":7768,"ĠTi":7769,"ĠrozwaÅ¼enia":7770,"Ġkrze":7771,"ĠskÃ³ry":7772,"suger":7773,"ĠprowadzÄħc":7774,"stanowie":7775,"Ġ1989":7776,"Ġzadowo":7777,"ĠdzieÅĤa":7778,"ĠznaczÄħcy":7779,"Ġnode":7780,"Ġkryzy":7781,"ĠMini":7782,"ĠwziÄĻ":7783,"ĠspoÅĤecznej":7784,"Ġbudowy":7785,"Ġzabi":7786,"wiÅĤ":7787,"ĠpodjÄĻ":7788,"ĠcaÅĤkowity":7789,"Ġkey":7790,"ĠzaczÄħÅĤ":7791,"ĠchrzeÅĽcija":7792,"ĠartykuÅĤu":7793,"ĠnastÄħpi":7794,"reate":7795,"Ġalgebrai":7796,"42":7797,"cjonu":7798,"Ġroman":7799,"ĠznaczÄħco":7800,"ĠBole":7801,"graÅĤ":7802,"ĠwskaÅºniki":7803,"ĠwierzchoÅĤ":7804,"jen":7805,"tos":7806,"znacz":7807,"Ġkluczowym":7808,"ĠbezpoÅĽrednie":7809,"ĠprzystÄĻp":7810,"Ġzaimplement":7811,"Ġsprinter":7812,"Ġ1919":7813,"ĠKoÅĽcioÅĤa":7814,"jÄĻÄĩ":7815,"ĠÄĩwiczenia":7816,"56":7817,"Ġtru":7818,"Ġprzyzna":7819,"ĠRad":7820,"Ġwygod":7821,"ĠBru":7822,"hu":7823,"ĠÅ¼oÅĤnierzy":7824,"Ġpokar":7825,"Ġprzepisywania":7826,"lementu":7827,"Ġteore":7828,"Ġwydatki":7829,"Ġbiega":7830,"Ġmedycy":7831,"Ġplik":7832,"Ġnaw":7833,"piera":7834,"Ġbrzmi":7835,"ĠCha":7836,"ĠbÄĻdÄĻ":7837,"ĠSprawdÅº":7838,"Ġtermi":7839,"ĠWojcie":7840,"ĠDar":7841,"sÅĤych":7842,"styki":7843,"Sa":7844,"ĠsÄħsie":7845,"ĠBiorÄħc":7846,"Ġ1995":7847,"Ġojca":7848,"Ġzgo":7849,"Ġkost":7850,"Ġzostaje":7851,"Jaka":7852,"ĠobrÄĻbie":7853,"uwaÅ¼":7854,"ĠcaÅĤe":7855,"Ġ1993":7856,"Ġzajmie":7857,"Ġprzetwarzania":7858,"towa":7859,"Ġmotyw":7860,"ĠnajbliÅ¼":7861,"ttps":7862,"lÄħd":7863,"Ġpolskiej":7864,"ĠmiÅĤoÅĽÄĩ":7865,"spozy":7866,"ĠObej":7867,"Ġrekomen":7868,"Ġwbud":7869,"owskiego":7870,"mith":7871,"ĠdokÅĤadne":7872,"Ġwygener":7873,"obo":7874,"ĠsytuacjÄĻ":7875,"CaÅĤkowi":7876,"La":7877,"Ġzmini":7878,"prawa":7879,"solu":7880,"Ġ400":7881,"Ġpowietrze":7882,"Ġsmu":7883,"Ġstreszczenie":7884,"ĠCol":7885,"!<|":7886,"illa":7887,"Ġalgorytmu":7888,"Ġnadz":7889,"Ġtkan":7890,"ret":7891,"ĠJean":7892,"Ġpopro":7893,"alizowaÄĩ":7894,"niczy":7895,"Ġnaczy":7896,"matyczne":7897,"ĠwÅĤad":7898,"AB":7899,"Ġduch":7900,"ĠpodejÅĽciem":7901,"Ġwid":7902,"Ġobiekty":7903,"Ġpartii":7904,"Ġkuchni":7905,"Ġprzejrzy":7906,"ĠwÄĻgierski":7907,"die":7908,"Ġthey":7909,"ĠðŁ":7910,"Ġprezent":7911,"ĠVe":7912,"waÅ¼y":7913,"Ġfrancuska":7914,"zacje":7915,"search":7916,"ĠogÃ³lnego":7917,"Ġleczeniu":7918,"Ġwice":7919,"water":7920,"ĠzwiÄħzany":7921,"Ġteoria":7922,"Ġzapobiec":7923,"ĠzewnÄħtrz":7924,"owska":7925,"not":7926,"ĠmateriaÅĤu":7927,"Ġzje":7928,"ĠpomyÅĽl":7929,"ĠwyraÅºnie":7930,"ĠzwiÄĻkszenie":7931,"Ġnawiga":7932,"rzego":7933,"chaÅĤ":7934,"ish":7935,"Ġkolejne":7936,"Ġswego":7937,"lent":7938,"Ġprezydenta":7939,"ĠuczestnikÃ³w":7940,"Ġ)":7941,"ĠYou":7942,"Ġwarunkach":7943,"Ġeseju":7944,"include":7945,"Zmar":7946,"ÅĽnik":7947,"Ġodci":7948,"ĠÅĤaÅĦcuch":7949,"Ġoddech":7950,"cjom":7951,"Ġenergia":7952,"Ġadap":7953,"taÅĤ":7954,"ĠszeÅĽci":7955,"Ġwsi":7956,"Wydarzenia":7957,"robi":7958,"posi":7959,"ĠosobowoÅĽci":7960,"Ġbizne":7961,"ĠTwoich":7962,"ĠAnge":7963,"Ġbrazylijski":7964,"SE":7965,"Analiza":7966,"ĠPola":7967,"Ġkomenta":7968,"Ġnawy":7969,"Ġopisy":7970,"Ġnajlepszych":7971,"ĠKarol":7972,"ĠsÅĤoÅĦca":7973,"pami":7974,"piec":7975,"Ġmagazy":7976,"gle":7977,"ĠMetoda":7978,"Ġostrze":7979,"Ġkopa":7980,"ĠPaul":7981,"wsze":7982,"choty":7983,"Ġmatematycznych":7984,"Ġprawdopodob":7985,"rozumienie":7986,"Ġpomiar":7987,"ĠwiÄĻkszy":7988,"ĠksiÄĻÅ¼y":7989,"Ġwchodzi":7990,"szeniu":7991,"ĠwykorzystujÄħc":7992,"dle":7993,"ĠdoszÅĤo":7994,"ĠogÃ³lnÄħ":7995,"noÅĽciach":7996,"ĠmÄĻczennik":7997,"Ġkandyda":7998,"blicza":7999,"Ġrynek":8000,"ĠpÅĤynÄħ":8001,"95":8002,"staje":8003,"mimo":8004,"Ġodwo":8005,"Ġgrawi":8006,"ĠCzar":8007,"Ġsezon":8008,"Ġflo":8009,"ĠczegoÅĽ":8010,"Ġgwiazd":8011,"ĠNobla":8012,"with":8013,"Ġpodany":8014,"Pol":8015,"lane":8016,"sse":8017,"ĠSarah":8018,"Ġintencjach":8019,"Ġfinansowe":8020,"ĠrozpoczÄħÅĤ":8021,"cur":8022,"rony":8023,"anty":8024,"mieniem":8025,"ĠPodaj":8026,"Ġprzeszko":8027,"Ġbokser":8028,"Ġinnej":8029,"Ġmito":8030,"Ġjedzenie":8031,"ĠprzedstawiÄĩ":8032,"Ġjakiej":8033,"ĠZmieni":8034,"Ġlewej":8035,"Ġznajdzie":8036,"szoÅĽÄĩ":8037,"liwych":8038,"Ġ||":8039,"PS":8040,"lerii":8041,"Ġwszelkich":8042,"Ġcal":8043,"Ġustawi":8044,"Ġpana":8045,"Ġdostosowy":8046,"ĠPier":8047,"ĠNagrody":8048,"mbol":8049,"CT":8050,"isku":8051,"Ġsprawy":8052,"ĠpodziaÅĤ":8053,"Ġjezio":8054,"ĠwyjÅĽcia":8055,"ĠFir":8056,"ings":8057,"Ġstosowanie":8058,"ĠkÄħt":8059,"ĠkrawÄĻ":8060,"Ġfile":8061,"ĠspoÅĤecznoÅĽÄĩ":8062,"mann":8063,"Ġniezawod":8064,"kwa":8065,"ĠBoga":8066,"ĠNiemcy":8067,"Ġmle":8068,"Ġgeometrii":8069,"ÅĤac":8070,"assert":8071,"Ġoni":8072,"krotnie":8073,"Ġow":8074,"Ġpunktem":8075,"Ã³dz":8076,"ĠCor":8077,"ĠRady":8078,"ĠodbiorcÃ³w":8079,"Ġrezon":8080,"Ġdany":8081,"Ġrecyk":8082,"ĠMax":8083,"ĠmÃ³gÅĤbyÅĽ":8084,"ĠMak":8085,"ĠNiech":8086,"Mar":8087,"Ġznalezio":8088,"ĠsÅĤuÅ¼Äħ":8089,"ĠBud":8090,"gue":8091,"Ġkosmo":8092,"Ġredukcji":8093,"Ġdruga":8094,"ĠprzekÄħ":8095,"dÅºmi":8096,"Ġarysto":8097,"96":8098,"ĠprzeÅ¼y":8099,"Ġdefiniu":8100,"Ġdziecko":8101,"pular":8102,"demii":8103,"ĠAlf":8104,"iusz":8105,"ĠAntoni":8106,"ĠpowyÅ¼":8107,"ĠKraj":8108,"Ġfesti":8109,"Ġkonsekwencji":8110,"OR":8111,"kcjÄĻ":8112,"ppe":8113,"float":8114,"ĠprogramÃ³w":8115,"Ġkupi":8116,"ĠodÅ¼yw":8117,"Ġpraktyk":8118,"Ġkrytyk":8119,"ĠprzywÃ³d":8120,"ĠwspÃ³lne":8121,"ĠtestÃ³w":8122,"Ġznana":8123,"Ġzdrowotnej":8124,"nanie":8125,"Ġzasuger":8126,"suj":8127,"Ġbakt":8128,"ĠprzeciwieÅĦstwie":8129,"Ġtri":8130,"Ġpodstawy":8131,"ĠOl":8132,"pÅĤyw":8133,"alnego":8134,"ĠBor":8135,"eli":8136,"{(":8137,"Ġupraw":8138,"Ã³z":8139,"ĠsformuÅĤ":8140,"dzajÄħ":8141,"dzieÅ¼":8142,"Ġlitery":8143,"Ġkrajach":8144,"ĠpostÄĻpy":8145,"Ġqu":8146,"daÅĤ":8147,"skimi":8148,"Ġkonwers":8149,"Ġtechnologi":8150,"Ġfind":8151,"ĠTer":8152,"ĠwydajÄħ":8153,"Ġimieniu":8154,"ĠIstnieje":8155,"Ġsprzyja":8156,"ĠpamiÄĻÄĩ":8157,"Ġekonomista":8158,"Ġutrud":8159,"prezent":8160,"Ġinteraktyw":8161,"Ġotwiera":8162,"Ġzdarzenia":8163,"entuzja":8164,"ĠostroÅ¼":8165,"liÅĤ":8166,"here":8167,"ĠWielki":8168,"Ġust":8169,"Ġzasadni":8170,"ĠprzedsiÄĻbiorca":8171,"Ġbase":8172,"Ġsilne":8173,"Ġabo":8174,"Ġznalezienie":8175,"Ġuruchomi":8176,"van":8177,"ĠmiesiÄĻ":8178,"ĠmetrÃ³w":8179,"Ġwysoko":8180,"Ġlepsze":8181,"ĠodpadÃ³w":8182,"pracuj":8183,"ĠOn":8184,"styczna":8185,"ĠwraÅ¼":8186,"Ġ1930":8187,"stanÃ³w":8188,"ĠwyrazÃ³w":8189,"Ġosobiste":8190,"Ġwzboga":8191,"Ġzagrani":8192,"Ġq":8193,"licza":8194,"Ġcer":8195,"Ġinwestycji":8196,"ĠEdward":8197,"Ġoper":8198,"Ġrady":8199,"Ġpotrzebujesz":8200,"ĠzupeÅĤ":8201,"ĠLondy":8202,"Ġlinie":8203,"ĠmuszÄĻ":8204,"Ġczuj":8205,"Dro":8206,"Ġchar":8207,"Ġwzo":8208,"Ġelektroni":8209,"ĠpozostaÄĩ":8210,"ugh":8211,"ĠzwiÄħzana":8212,"ĠkrzyÅ¼":8213,"ĠbyÅĤyby":8214,"Alex":8215,"Ġentuzja":8216,"Ġspecjali":8217,"Ġtrendy":8218,"ĠKrzyszto":8219,"Ġraczej":8220,"gon":8221,"ĠurzÄĻd":8222,"ĠwyobraÅº":8223,"Ġblisko":8224,"ĠÄ":8225,"Ġklini":8226,"Ġprozaik":8227,"Ġpowinienem":8228,"Ġprzyrody":8229,"ĠczoÅĤa":8230,"Ġleft":8231,"ĠĠĠĠčĊ":8232,"Ġludzkiego":8233,"ĠciaÅĤo":8234,"ĠzrÃ³Å¼nic":8235,"unda":8236,"stanawia":8237,"ĠbÅĤy":8238,"Ġet":8239,"ĠskÅĤon":8240,"ds":8241,"ĠludÅºmi":8242,"Ġskorzy":8243,"ĠnarzÄĻdziem":8244,"ĠwnioskÃ³w":8245,"Ġzatem":8246,"dzisz":8247,"ĠspoÅĤecznoÅĽciowe":8248,"Ġproste":8249,"Ġarystokra":8250,"Ġspad":8251,"Ġorg":8252,"dio":8253,"Ġpass":8254,"Ġprzekracza":8255,"ĠwÄĻgl":8256,"ĠÃĹ":8257,"ĠdziaÅĤaÄĩ":8258,"ĠpiÅĤkar":8259,"landii":8260,"rzona":8261,"ĠGene":8262,"Ġpoznaw":8263,"Ġwieloma":8264,"mawiaÄĩ":8265,"ĠnieskoÅĦczon":8266,"Ġpolsko":8267,"Ġgranicy":8268,"tywne":8269,"begin":8270,"ĠzapisaÄĩ":8271,"Ġrestaura":8272,"Ġsiat":8273,"Ġprace":8274,"Ġsklep":8275,"Ġ1921":8276,"ĠplikÃ³w":8277,"tain":8278,"Ġautobus":8279,"Ġmomencie":8280,"eno":8281,"Ġubezpie":8282,"}.":8283,"Ġkontekst":8284,"ĠpieniÄħdze":8285,"ĠatmosferÄĻ":8286,"ĠRosji":8287,"ssion":8288,"Ġwybory":8289,"Ġsocja":8290,"ĠQu":8291,"ĠmilionÃ³w":8292,"86":8293,"Ġniemal":8294,"imna":8295,"Ġgranic":8296,"Ġkobieta":8297,"ĠIt":8298,"Ġinterpretacji":8299,"Ġinni":8300,"ĠpielÄĻ":8301,"ĠzaÅĤoÅ¼y":8302,"ĠwojewÃ³dztwa":8303,"ÅģÄħ":8304,"Ġdziennik":8305,"Ġkierowca":8306,"Ġnumery":8307,"Ġother":8308,"Ġszosowy":8309,"Ġ1946":8310,"ĠaktywnoÅĽÄĩ":8311,"Ġstresu":8312,"ĠSk":8313,"cena":8314,"ĠzmieniÄĩ":8315,"Ġpracownika":8316,"nums":8317,"ĠâĪļ":8318,"Krok":8319,"ĠbezwzglÄĻd":8320,"Ġpotrzebuje":8321,"powszech":8322,"Ġkawa":8323,"Ġzyska":8324,"ĠspoÅ¼yw":8325,"ĠkontrolÄĻ":8326,"OS":8327,"stycznego":8328,"Ġusun":8329,"Ġstruktur":8330,"ĠAnto":8331,"Ġminu":8332,"Ġregularne":8333,"ĠNiemiec":8334,"Ġnieparzy":8335,"77":8336,"niona":8337,"Ġzapalenie":8338,"Ġrosyjska":8339,"ĠrÃ³wnowagÄĻ":8340,"ĨĴ":8341,"dyna":8342,"ĠPaweÅĤ":8343,"ĠSpe":8344,"Ġbudow":8345,"czyÅĤy":8346,"\"},\"":8347,"ĠtÅĤo":8348,"niÄĻta":8349,"Ġserce":8350,"ĠznajdÅº":8351,"stance":8352,"Ġ1968":8353,"Ġdemon":8354,"ĠkomÃ³rki":8355,"Ġbelgi":8356,"Ġdziedzin":8357,"Ġprojektem":8358,"Sc":8359,"fin":8360,"Ġtrzyma":8361,"âĢľ":8362,"ĠParyÅ¼u":8363,"rÃ³g":8364,"ĠpÅĤci":8365,"Ġbru":8366,"ĠtematÃ³w":8367,"ves":8368,"ĠBia":8369,"ĠDaj":8370,"ĠUÅ¼ywaj":8371,"ĠkogoÅĽ":8372,"tycznÄħ":8373,"ĠBla":8374,"Ġkorzystania":8375,"Ġkilo":8376,"ÅĤawa":8377,"luje":8378,"ĠzapÅĤa":8379,"Ġsubtel":8380,"Ġpodanych":8381,"Ġpublika":8382,"Ġparty":8383,"Ġzgodne":8384,"Ġliterac":8385,"ĠHT":8386,"Ġkredy":8387,"Ġboku":8388,"ĠStar":8389,"Ġharmonogra":8390,"Ġwydoby":8391,"Ã¨":8392,"Lo":8393,"brzy":8394,"reak":8395,"ĠTom":8396,"ĠObejmuje":8397,"Zmarli":8398,"ÅĤugo":8399,"ĠoÅ¼y":8400,"Ġcar":8401,"ĠMark":8402,"owiu":8403,"Ġsamopo":8404,"find":8405,"Ġbet":8406,"ĠobjawÃ³w":8407,"ET":8408,"letnie":8409,"Ġefekt":8410,"Ġrozprzestrze":8411,"Ġszpita":8412,"ĠciepÅĤa":8413,"Ġlokalizacje":8414,"ĠduÅ¼ym":8415,"erson":8416,"metr":8417,"Ġwdra":8418,"wol":8419,"Ġprzyjaciel":8420,"Ġszeregu":8421,"Ġdobra":8422,"ĠWilhel":8423,"Node":8424,"ĠzbudowaÄĩ":8425,"ĠpozostaÅĤe":8426,"kwi":8427,"ĠRoman":8428,"Ġtrening":8429,"ĠfuntÃ³w":8430,"Ġnorweski":8431,"Ġprzesy":8432,"ĠWorld":8433,"Ġplanowania":8434,"obserw":8435,"ĠTowarzy":8436,"87":8437,"ĠZygm":8438,"ĠStra":8439,"Ġludzkiej":8440,"Ġprogrami":8441,"ĠÅĽledziÄĩ":8442,"Ġag":8443,"Ġfloat":8444,"ĠRzeczy":8445,"ĠÃ³w":8446,"dego":8447,"ĠleÅ¼Äħ":8448,"stanÄħ":8449,"\"}}}]</":8450,"ĠAma":8451,"ĠdÃ³ÅĤ":8452,"Ġwyprze":8453,"ĠwÅĤasnÄħ":8454,"Ġludziom":8455,"Ġwymagane":8456,"ĠudaÅĤo":8457,"pospoli":8458,"steczka":8459,"ĠmyÅĽlÄĻ":8460,"anami":8461,"ĠoszczÄĻd":8462,"Ġuru":8463,"Ġsumie":8464,"Ġkierun":8465,"ĠpomogÄħ":8466,"minacji":8467,"Ġsche":8468,"Ġpostanowi":8469,"ĠLou":8470,"Ġczasach":8471,"linie":8472,"Ġfizyk":8473,"Ġkierunek":8474,"Ġpopar":8475,"lib":8476,"scypli":8477,"ĠmiÄĻk":8478,"racjÄĻ":8479,"szki":8480,"Ġimpli":8481,"Or":8482,"Jako":8483,"ĠOgÃ³lnie":8484,"Ġwill":8485,"Ġhor":8486,"metria":8487,"Ġszeroko":8488,"Ġsposobu":8489,"ĠAustra":8490,"Ġautora":8491,"ĠprzyszÅĤym":8492,"Ġzapytania":8493,"Ġwyspy":8494,"Ð¾":8495,"Ġdotk":8496,"ĠzgÅĤa":8497,"ĠsprÃ³bowaÄĩ":8498,"Ġpilot":8499,"Ġpia":8500,"Ġzmniejszenie":8501,"ĠopracowaÄĩ":8502,"Ġcukrzy":8503,"Cz":8504,"ffe":8505,"ric":8506,"Ġwybor":8507,"Ġszans":8508,"ĠwartoÅĽciÄħ":8509,"bym":8510,"Ġ1972":8511,"ĠstrategiÄĻ":8512,"Ġspacer":8513,"Ġwymienionych":8514,"ns":8515,"Ġwiecz":8516,"ĠzdjÄĻcia":8517,"Ġwokalista":8518,"43":8519,"anem":8520,"oÅĽrÃ³d":8521,"ĠSzu":8522,"Ġreda":8523,"Ġmeksy":8524,"ĠdrogÄĻ":8525,"erium":8526,"Ġparametry":8527,"ĠSze":8528,"szyÅĤ":8529,"ĠDoda":8530,"Ġgwar":8531,"ĠÅºrÃ³dÅĤem":8532,"ĠliniÄĻ":8533,"Ġtarget":8534,"cience":8535,"lle":8536,"prowadziÄĩ":8537,"wnego":8538,"enci":8539,"czach":8540,"ĠpozwalajÄħ":8541,"Ġproduktyw":8542,"ĠnierÃ³wnoÅĽci":8543,"lom":8544,"Ġdystry":8545,"ĠCharles":8546,"ĠSS":8547,"ĠÅĽwiÄħty":8548,"Ġfakt":8549,"Ġintry":8550,"ĠodstajÄħce":8551,"ĠPlan":8552,"ĠWyko":8553,"Ġ1988":8554,"Ġ_":8555,"Ġnowotw":8556,"ĠBÄħdÅº":8557,"Ġstatic":8558,"Ġzaburzenia":8559,"Ze":8560,"glÄħdu":8561,"ĠbÅĤogosÅĤawiony":8562,"Ġ1976":8563,"rzystaj":8564,"Ġniezwyk":8565,"ĠKul":8566,"Ġwysokie":8567,"ĠsprzÄĻtu":8568,"Ġstatus":8569,"dzna":8570,"Ġwypad":8571,"Ġwyklu":8572,"czucie":8573,"Ġmodele":8574,"68":8575,"ezer":8576,"ruchom":8577,"owiem":8578,"Ġ1982":8579,"Ġcesarz":8580,"Ġmro":8581,"styka":8582,"wnych":8583,"ĠpociÄħg":8584,"ĠmaÅĤÅ¼e":8585,"Ġpokon":8586,"dzieÅ¼y":8587,"Ġ1933":8588,"Ġrys":8589,"Ġsamochodu":8590,"Ġtemperatura":8591,"Ġwiersz":8592,"Au":8593,"way":8594,"Ġpozna":8595,"Ġ1928":8596,"Kolej":8597,"Ġrumu":8598,"Ġ1937":8599,"ĠmÃ³wiÄħ":8600,"Ġryt":8601,"ĠwszechÅĽwia":8602,"Ġzwyk":8603,"ĠgÅĤÄĻbokie":8604,".:":8605,"Ġudoskona":8606,"dwie":8607,"tnymi":8608,"Ġ1938":8609,"ĠKoÅĽciÃ³ÅĤ":8610,"Ġpreferen":8611,"Ġopisuje":8612,"Ġ1970":8613,"Ġproblemem":8614,"ĠjakiÅĽ":8615,"ĠOrder":8616,"Ġsenator":8617,"lena":8618,"ĠsamochodÃ³w":8619,"Ġkombinacji":8620,"Ġkwestii":8621,"Ġniedaw":8622,"Ġ1924":8623,"Ġobjawy":8624,"ked":8625,"ÅĦcÃ³w":8626,"Ġstary":8627,"stycznÄħ":8628,"ĠgÅĤosu":8629,"Ġwiru":8630,"Ġmatematyce":8631,"Ġoparciu":8632,"ĠÅ¼u":8633,"ĠzrÃ³wnowaÅ¼onego":8634,"Ġpory":8635,"Ġmorza":8636,"Ġkodzie":8637,"Ġarche":8638,"Ġ1981":8639,"alna":8640,"ralnego":8641,"Ġprognoz":8642,"Ġste":8643,"ĠMil":8644,"ĠwejÅĽciowy":8645,"WartoÅĽÄĩ":8646,"Tu":8647,"Äį":8648,"Ġprzekro":8649,"zami":8650,"ĠrÃ³Å¼niÄħ":8651,"ĠFrank":8652,"ĠdÄħÅ¼y":8653,"Ġunikalnych":8654,"Mia":8655,"zaleÅ¼":8656,"ĠwÅĤadzÄĻ":8657,"Ġzapewnienia":8658,"ĠArmii":8659,"Ġ1922":8660,"ÅĽleÄĩ":8661,"cania":8662,"czonÄħ":8663,"Ġdwut":8664,"ĠpopeÅĤ":8665,"jsko":8666,"Ġczasami":8667,"Niech":8668,"larka":8669,"Ġsubstancji":8670,"ĠzapaÅĽnik":8671,"Ġmore":8672,"ĠFil":8673,"ĠsÅĤownika":8674,"Ġstosowana":8675,"pati":8676,"ĠprojektÃ³w":8677,"Ġsekcji":8678,"ĠzwiÄĻzÅĤym":8679,"ĠBal":8680,"ĠMimo":8681,"Ġ1925":8682,"stero":8683,"Ġwynalaz":8684,"Ġrozbi":8685,"Ġregionu":8686,"ĠtendencjÄĻ":8687,"ges":8688,"Ġtenisistka":8689,"ston":8690,"ĠSal":8691,"ĠKat":8692,"muno":8693,"Ġidei":8694,"Ġuczniowie":8695,"ĠokreÅĽlonej":8696,"Ġobwo":8697,"Ġwaha":8698,"ktach":8699,"Ġkim":8700,"Ġprzeko":8701,"ĠAm":8702,"Ġ1914":8703,"ĠLek":8704,"Ġ->":8705,"ĠokreÅĽlone":8706,"optyma":8707,"ukli":8708,"lam":8709,"ĠAleksander":8710,"ĠprzyszÅĤoÅĽÄĩ":8711,"ĠGer":8712,"Ġ48":8713,"Ġpremierem":8714,"ample":8715,"Ġobliczu":8716,"ĠczynnoÅĽci":8717,"Ġogranicza":8718,"Ġabstrak":8719,"ĠDodaj":8720,"\"}}]</":8721,"Ġwali":8722,"grzy":8723,"ity":8724,"alnÄħ":8725,"Ne":8726,"Ġzato":8727,"Ġzapewni":8728,"ĠlÄħd":8729,"Ġaustralijski":8730,"Ġskontakt":8731,"Ġkwar":8732,"ĠprzykÅĤadzie":8733,"zaÅĦ":8734,"Ġstacji":8735,"ĠÅĽwieÅ¼y":8736,"ĠMer":8737,"cier":8738,"Ġono":8739,"tele":8740,"Ġrozwin":8741,"ĠzastosowaÅĦ":8742,"ĠokreÅĽlonego":8743,"ĠrÃ³Å¼norodne":8744,"tch":8745,"ĠmogÅĤy":8746,"dnienie":8747,"ĠgotÃ³w":8748,"Nazwa":8749,"Ġofiar":8750,"ĠwyÅĽwietla":8751,"ponu":8752,"ann":8753,"dolf":8754,"Ġzroz":8755,"Ġ1973":8756,"Ġpsychicznego":8757,"ĠwspÃ³lnego":8758,"ĠWro":8759,"ĠdostÄĻpnych":8760,"Ġplatforma":8761,"Ġemocjonalne":8762,"WspÃ³ÅĤ":8763,"ĠmaÅĤy":8764,"Ġ1929":8765,"Ġwyp":8766,"Ġprofi":8767,"Ġfakty":8768,"Ġtabeli":8769,"Ġjakiego":8770,"powiedzi":8771,"ĠmiejscowoÅĽci":8772,"ĠJanu":8773,"Ġdete":8774,"Ġalfa":8775,"rzono":8776,"ĠÅĽrednio":8777,"54":8778,"Ġarmii":8779,"Ġapo":8780,"gina":8781,"racjÄħ":8782,"Ġkonkretnej":8783,"Ġdowody":8784,"ĠkrÃ³tko":8785,"ĠocenÄĻ":8786,"Ġpreferencji":8787,"ĠzawierajÄħ":8788,"lenda":8789,"ĠodwrÃ³":8790,"ĠprzepÅĤyw":8791,"WaÅ¼ne":8792,"}=":8793,"chylenie":8794,"Ġtrzeba":8795,"Ġzero":8796,"ÅĽciach":8797,"Ġprezentacji":8798,"muj":8799,"ĠFin":8800,"Ġstatku":8801,"Ġojciec":8802,"ĠStefan":8803,"ung":8804,"Ġemisji":8805,"uble":8806,"MS":8807,"kowany":8808,"Ġharmonogram":8809,"Äħb":8810,"Ġwzmac":8811,"Ġkluczem":8812,"ĠnieprawidÅĤ":8813,"79":8814,"ĠBez":8815,"ĠwiÄĻkszych":8816,"ĠzwiÄĻkszenia":8817,"ĠtÅĤumacz":8818,"Ġznalezienia":8819,"ĠAnglii":8820,"Ġwyco":8821,"Ġpowstanie":8822,"anda":8823,"ion":8824,"Ġ1932":8825,"Ġekosystem":8826,"Ġustanowi":8827,"Ġ1934":8828,"Ġkampanii":8829,"rzeniem":8830,"Ġpowszechne":8831,"ĠpiÅĤka":8832,"ĠKur":8833,"ĠOsta":8834,"ĠpociÄħ":8835,"ĠwÄħtro":8836,"Ġ!=":8837,"iego":8838,"ĠPrzez":8839,"Ġ1931":8840,"jan":8841,"Ġalbum":8842,"ĠJorku":8843,"ĠrozwaÅ¼a":8844,"ĠuwzglÄĻdnia":8845,"ĠprzykÅĤadem":8846,"Ġutrzymanie":8847,"ding":8848,"lio":8849,"ĠodrÄĻb":8850,"Ġoficer":8851,"((":8852,"ĠwkrÃ³tce":8853,"ĠistotnÄħ":8854,"ĠMichaÅĤ":8855,"ĠprawosÅĤaw":8856,"Ġpop":8857,"Ġwyro":8858,"Ġdeszcz":8859,"ĠograniczeÅĦ":8860,"pospolitej":8861,"Ġneu":8862,"Ġesej":8863,"lat":8864,"Ġelegan":8865,"ĠokreÅĽlonym":8866,"Ġudowodni":8867,"ĠNowym":8868,"ekst":8869,"ĠzaczynajÄħ":8870,"ĠList":8871,"ĠoszczÄĻ":8872,"Ġseria":8873,"Ġ1960":8874,"WyobraÅº":8875,"Ġuniwersyte":8876,"pÃ³w":8877,"kien":8878,"anista":8879,"Ġosobistych":8880,"iel":8881,"Ġzajm":8882,"ĠwiÄħÅ¼e":8883,"Ġwzbu":8884,"Ġrach":8885,"46":8886,"ĠÅĽmierÄĩ":8887,"Ġato":8888,"ĠFry":8889,"bb":8890,"cro":8891,"ÅĤowa":8892,"Ġprefer":8893,"ĠogÃ³lnej":8894,"ĠgÅĤÄĻboki":8895,"Ġbohatera":8896,"Ġzaby":8897,"Ġstudia":8898,"Ġ@":8899,"Ġsre":8900,"Ġpodzi":8901,"Ġkwestion":8902,"ĠgÅĤÃ³wnÄħ":8903,"ĠWsp":8904,"ĠwejÅĽciowych":8905,"ĠodrÃ³Å¼":8906,"bit":8907,"kryp":8908,"ĠRegular":8909,"niosÅĤa":8910,"iny":8911,"ĠtrendÃ³w":8912,"Ġuser":8913,"ĠdÅºwiÄĻku":8914,"rator":8915,"ĠciÅĽnienia":8916,"ĠSmith":8917,"const":8918,"Ġscenariu":8919,"Ġpry":8920,"ĠpotrzebÄĻ":8921,"tacje":8922,"Ġkarty":8923,"Ã¡n":8924,"Mu":8925,"Ġczytelnik":8926,"Ġover":8927,"Ġautory":8928,"ĠSzwe":8929,"ĠWojna":8930,"ĠzwierzÄĻta":8931,"PR":8932,"Ġstoi":8933,"Ġ1947":8934,"ĠdostÄĻpna":8935,"Ġ1923":8936,"ĠÅĽwiÄĻty":8937,"Ġkonserwa":8938,"vate":8939,"ĠMikoÅĤa":8940,"Å¼liwe":8941,").<|":8942,"Ġoperacje":8943,"ĠnagÅĤÃ³w":8944,"Ġdemo":8945,"Ġdocelowej":8946,"Se":8947,"Ġargenty":8948,"szczeÅĦ":8949,"ĠprzejÅĽci":8950,"ĠmÅĤody":8951,"ĠjesteÅĽmy":8952,"Ġ1979":8953,"jnej":8954,"new":8955,"Ġ1984":8956,"Ġalko":8957,"ralnych":8958,"Ġprzo":8959,"Ġspi":8960,"Bar":8961,"sne":8962,"ello":8963,"tyku":8964,"ĉĉĉĉ":8965,"Ġopowiada":8966,"ast":8967,"Ġprawej":8968,"ĠImp":8969,"integr":8970,"Ġtradycji":8971,"ĠRzeczypospolitej":8972,"ĠBob":8973,"ĠZidentyfikuj":8974,"niuans":8975,"Ġ1948":8976,"Ġwielki":8977,"Ġwiemy":8978,"ĠoferowaÄĩ":8979,"Ġwnioski":8980,"Ġizrael":8981,"rzÄħc":8982,"Ġ1926":8983,"ĠpoprawÄĻ":8984,"ĠZna":8985,"ĠpierwiastkÃ³w":8986,"Num":8987,"Ġprzedziale":8988,"ĠpasaÅ¼er":8989,"ĠIr":8990,"Ġtempo":8991,"ĠZde":8992,"ĠPodobnie":8993,"Ġwniosek":8994,"ĠFranciszek":8995,"}+":8996,"Ġzniuans":8997,"Ġpob":8998,"ĠLy":8999,"Ġzajmu":9000,"83":9001,"Ġant":9002,"ĠÅĽwiadomoÅĽci":9003,"ĠNowy":9004,"ĠUnikaj":9005,"ĠÅģÄħ":9006,"Ġpremiera":9007,"ĠzminimalizowaÄĩ":9008,"Ġzrozum":9009,"uni":9010,"Ġupewnij":9011,"ĠFibonac":9012,"ĠczÄħste":9013,"====":9014,"staÅĤ":9015,"ÅĦsko":9016,"ĠPara":9017,"tycznym":9018,"ĠspÃ³ÅĤ":9019,"Ġskupi":9020,"nikach":9021,"Ġhistoryczne":9022,"ĠrÃ³wny":9023,"Ġmuzyczny":9024,"ĠwÅĤÃ³":9025,"Ġ\")":9026,"ĠTomasz":9027,"ĠbÄĻdziemy":9028,"Ġprofesjona":9029,"Ġinc":9030,"vice":9031,"zeÅĤ":9032,"AL":9033,"stom":9034,"stnia":9035,"Ġzaobserw":9036,"ĠMal":9037,"ĠspotkaÄĩ":9038,"ĠAnaliza":9039,"ĠuÅĤatwia":9040,"ĠUniwersytetu":9041,"ĠspoÅĽrÃ³d":9042,"lizacjÄĻ":9043,"Ġdrama":9044,"Ġ95":9045,"terapii":9046,"ĠuczyÄĩ":9047,"book":9048,"hol":9049,"jusz":9050,"Ġ1969":9051,"ĠPrzeksztaÅĤ":9052,"ĠwspÃ³ÅĤpracowaÄĩ":9053,"Ġkonwer":9054,"stycznym":9055,"ken":9056,"ĠnajwiÄĻkszych":9057,"An":9058,"SS":9059,"Ġwitry":9060,"Ġtymczas":9061,"ĠProces":9062,"Ġ1983":9063,"Ġwyobra":9064,"ĠPRL":9065,"ĠGar":9066,"Ġmenu":9067,"ĠwspÃ³lny":9068,"Ġprzedmioty":9069,"ĠKsiÄĻÅ¼y":9070,"lanie":9071,"wagi":9072,"dukcja":9073,"ĠkoÅĤo":9074,"ĠJac":9075,"ĠponiÅ¼sze":9076,"ĠÄĩwiczeÅĦ":9077,"ĠzagroÅ¼enia":9078,"ĠszczÄĻÅĽli":9079,"Ġzary":9080,"ĠnaukÄĻ":9081,"ĠpowstaÅĤa":9082,"MoÅ¼emy":9083,"Ġmacierz":9084,"Ġ1985":9085,"ĠpowodÃ³w":9086,"47":9087,"Ġmiejscem":9088,"ĠdowiedzieÄĩ":9089,"Ġchirur":9090,"ĠsÅĤowe":9091,"Ġcier":9092,"Ġgospodarki":9093,"ĠÅĽpiewa":9094,"Ġvar":9095,"RÃ³w":9096,"Ġseg":9097,"Ġfrazy":9098,"ĠmÄħ":9099,"Ġnik":9100,"Ġserb":9101,"Ġzmniejszenia":9102,"Ġkwadratu":9103,"dery":9104,"ĠdzieliÄĩ":9105,"Ġwarunek":9106,"Ġ1987":9107,"Ġkolory":9108,"Ġzjawiska":9109,"ĠsamochÃ³d":9110,"Ġ1986":9111,"Ġpopularne":9112,"stand":9113,"ĠbÃ³l":9114,"Ġtematu":9115,"ĠutworzyÄĩ":9116,"ĠodpornoÅĽci":9117,"ĠposzczegÃ³lnych":9118,"wiÄħzanie":9119,"ĠwyrÃ³Å¼nia":9120,"Ġoskar":9121,"Jestem":9122,"Ġpoprawiona":9123,"Ġumiar":9124,"ciami":9125,"Ġspis":9126,"ĠwystarczajÄħco":9127,"ĠÅĤyÅ¼":9128,"ĠwyÅĽcigowy":9129,"owniki":9130,"Ġwymy":9131,"ĠZapro":9132,"ĠpeÅĤne":9133,"ĠThomas":9134,"vera":9135,"ĠwydawaÄĩ":9136,"Ġpolskie":9137,"Ġtesty":9138,"ĠFlo":9139,"ĠrÄĻce":9140,"Ġoptymalizacji":9141,"Dane":9142,"rest":9143,"Ġbaz":9144,"Ġhomo":9145,"Ġpomara":9146,"ĠÅĽwiatem":9147,"Ġwykonuje":9148,"Data":9149,"Ġfrak":9150,"Ġ1900":9151,"iÄħg":9152,"Ġprocesy":9153,"ĠresztÄĻ":9154,"hen":9155,"Ġluks":9156,"Ġszwajcarski":9157,"ĠosÅĤa":9158,"rÄħz":9159,"Ġpopy":9160,"Ġcierp":9161,"rzeni":9162,"Ġwoli":9163,"Ġalso":9164,"\">":9165,"pek":9166,"ĠczoÅĤ":9167,"Ġpozba":9168,"ĠwyjÄħtkiem":9169,"Ġstanowisko":9170,"Ġzesz":9171,"Ġprzemie":9172,"ĠwyborÃ³w":9173,"Ġpropon":9174,"cial":9175,"Ġpozytywne":9176,"ĠzaczÄĻÅĤa":9177,"Ġprzewlek":9178,"Ġzaktualiz":9179,"ami":9180,"Ġwho":9181,"Ġzare":9182,"dzieli":9183,"ving":9184,"kierun":9185,"ript":9186,"PA":9187,"ĠwÅĤasnego":9188,"ĠklasÄĻ":9189,"kio":9190,"ĠgaÅĤÄĻ":9191,"ĠformÄĻ":9192,"ĠSamo":9193,"ĠporÃ³wny":9194,"Ð¸":9195,"ĠwpÅĤywem":9196,"ÅĤudnie":9197,"Ġryb":9198,"Ġdialog":9199,"ÅĤod":9200,"Ġobszaru":9201,"Ġwoda":9202,"skÄĻ":9203,"Ġznanych":9204,"Ġskonstru":9205,"ĠchwilÄĻ":9206,"ĠXVIII":9207,"Ġcomp":9208,"Ġposzu":9209,"ĠwyÅ¼sze":9210,"rzec":9211,"Ġwykres":9212,"ĠBri":9213,"ĠgÅĤÃ³wnego":9214,"ĠDanie":9215,"jona":9216,"Ġpoprawnie":9217,"ĠwolnoÅĽci":9218,"Ġmiejscach":9219,"ĠaspektÃ³w":9220,"Ġinstrukcji":9221,"mion":9222,"ĠsÅĤowy":9223,"df":9224,"part":9225,"ĠmetodÄħ":9226,"fnoÅĽci":9227,"Å¼anie":9228,"Ġwarsza":9229,"kola":9230,"Ġ1935":9231,"Ġfundu":9232,"Ġgod":9233,"41":9234,"Ġspotyka":9235,"stemy":9236,"Ġrapor":9237,"ĠMek":9238,"InnÄħ":9239,"ĠPamiÄĻtaj":9240,"Ġ1956":9241,"Ġalternatywne":9242,"went":9243,"tet":9244,"tat":9245,"ĠokreÅĽlenia":9246,"ĠpowierzchniÄĻ":9247,"ÅĽlenia":9248,"dukowaÄĩ":9249,"ĠKaÅ¼da":9250,"lient":9251,"ĠrozpoczÄħÄĩ":9252,"powo":9253,"logicznego":9254,"ĠKonstan":9255,"Ġutraty":9256,"Ġ1927":9257,"ĠCzerwo":9258,"Ġzoptyma":9259,"Ġkonstytu":9260,"Ġtop":9261,"ĠFibonacciego":9262,"tz":9263,"ĠRol":9264,"Ca":9265,"ĠwÅĤÄħcz":9266,"ronÃ³w":9267,"Ġterapii":9268,"Ġexcept":9269,"Ġzawie":9270,"Ġosobie":9271,"kownik":9272,"nice":9273,"Ġpostrzeg":9274,"ĠuproÅĽciÄĩ":9275,"SON":9276,"jczyk":9277,"Ġprzedstaw":9278,"ĠWyso":9279,"ralnej":9280,"Ġszef":9281,"Name":9282,"Ġ85":9283,"WyjÅĽcie":9284,"ĠkulturÄĻ":9285,"landzki":9286,"ujÄĻ":9287,"ransp":9288,"Ġ1977":9289,"ĠwÅĤoska":9290,"Ġhistorycznych":9291,"Ġukryte":9292,"Ġeksperyment":9293,"Ġprzypadek":9294,"Ġpriorytety":9295,"ĠsÅĤod":9296,"ĠpowiÄħzane":9297,"Ġimplikuje":9298,"Ġporoz":9299,"ĠCla":9300,"Ġ1950":9301,"score":9302,"Ġnieko":9303,"Ġrespon":9304,"ctions":9305,"Ġprojektowania":9306,"Ġabout":9307,"mowe":9308,"Ġnerw":9309,"tuÅĤ":9310,"ĠPoli":9311,"ĠprzyszÅĤych":9312,"ĠJaku":9313,"Ġsuch":9314,"ĠszczegÃ³ÅĤowe":9315,"ĠÅĤatwe":9316,"tio":9317,"Ġzagra":9318,"mom":9319,"alnym":9320,"ĠstopieÅĦ":9321,"Ġorto":9322,"Ġdziedziny":9323,"WÅĤa":9324,"Ã³ra":9325,"NiektÃ³re":9326,"ĠszeÅĽÄĩ":9327,"Ġtygodnia":9328,"ktora":9329,"ĠÅĽledzenia":9330,"Ġdis":9331,"dnio":9332,"ĠwskaÅºnikÃ³w":9333,"rena":9334,"Ġuczenie":9335,"ĠKata":9336,"listÃ³w":9337,"Ġczynnikiem":9338,"ĠwaÅ¼nym":9339,"sÅĤÃ³w":9340,"Ġwykonanie":9341,"ĠuÅ¼yciem":9342,"ĠskÃ³r":9343,"Ġwielkie":9344,"ried":9345,"ĠkoÅĤa":9346,"cam":9347,"ĠEgip":9348,"ĠtobÄħ":9349,"gajÄħ":9350,"Ġciekaw":9351,"szczu":9352,"mistrz":9353,"Ġ65":9354,"Ġreprezentacji":9355,"ĠChry":9356,"ople":9357,"ĠsprzÄĻt":9358,"ĠniepewnoÅĽci":9359,"netu":9360,"Py":9361,"!âĢ¦":9362,"Ġ55":9363,"niÄĻÄĩ":9364,"Ġmulti":9365,"Ġmiejskie":9366,"Ġobliczeni":9367,"ĠciÄħgÃ³w":9368,"ĠprzeprowadziÄĩ":9369,"ĠRichard":9370,"lkopol":9371,"Ġczujesz":9372,"Ġnawia":9373,"order":9374,"Ġfirst":9375,"ĠzwrÃ³Äĩ":9376,"szanie":9377,"Ġspor":9378,"ĠalgorytmÃ³w":9379,"ĠKrzysztof":9380,"Ġ1967":9381,"Ġzakwater":9382,"Ġzintegr":9383,"Ġol":9384,"ĠdziaÅĤaczka":9385,"ĠstaÅĤe":9386,"Ġastronom":9387,"CO":9388,"rei":9389,"Ġ1974":9390,"Id":9391,"Ġwymiar":9392,"styna":9393,"ĠzapewniajÄħ":9394,"73":9395,"Ġgwiazdy":9396,"wny":9397,"ĠNad":9398,"Ġchat":9399,"ĠwiedzieÄĩ":9400,"Ġkawi":9401,"Ġunikalny":9402,"kazaÅĤo":9403,"Ġzalety":9404,"libyÅĽmy":9405,"ĠwciÄħga":9406,"ĠZasa":9407,"ĠprzejÅĽcie":9408,"Ġreszty":9409,"ĠpowaÅ¼aniem":9410,"Ġfu":9411,"Ġzakupu":9412,"ciera":9413,"ĠâĨĴ":9414,"wizji":9415,"szem":9416,"ĠZÅĤo":9417,"ker":9418,"Ġfilozofii":9419,"81":9420,"ima":9421,"naleÅ¼":9422,"Ġnaru":9423,"format":9424,"nÄĻÅĤy":9425,"Å»y":9426,"ĠWykorzy":9427,"Ġstosowania":9428,"Ġmomentu":9429,"Ġgaz":9430,"Ġpasuje":9431,"Ġzostali":9432,"ĠprzyjaciÃ³ÅĤmi":9433,"ĠzobowiÄħz":9434,"zjo":9435,"Ġwery":9436,"Ġnajstar":9437,"czÄĻst":9438,"Ġwyborem":9439,"ĠzachowaÅĦ":9440,"ĠchciaÅĤbym":9441,"ĠwydaÅĤ":9442,"ĠwspomnieÅĦ":9443,"Ġzadaniem":9444,"Ġkonstrukcji":9445,"74":9446,"don":9447,"stawa":9448,"Ġprzecho":9449,"WedÅĤug":9450,"Ġstanowiska":9451,"Ġterytorium":9452,"Ġds":9453,"ĠOba":9454,"Ġprzypadki":9455,"ĠMist":9456,"ĠzwiÄħzki":9457,"ĠInte":9458,"ĠUr":9459,"Ġfilmy":9460,"Ġkwadratowych":9461,"Ġ?)":9462,"ĠwyjaÅĽnia":9463,"jna":9464,"tÄħd":9465,"neÅĽ":9466,"Ġkg":9467,"Ġnieod":9468,"Ġbitwa":9469,"Ġregionie":9470,"ĠsÅĤyn":9471,"Ġinwest":9472,"ĠPorÃ³w":9473,"ĠrozwaÅ¼my":9474,"Ġwskaz":9475,"Ġplay":9476,"Ġodzna":9477,"ĠrodzajÃ³w":9478,"\"]}}}]</":9479,"ĠspoÅĤecze":9480,"Ġ1964":9481,"Ġfru":9482,"Ġstatu":9483,"Ġlokalnymi":9484,"Ġgal":9485,"Ġwagi":9486,"ĠdostarczajÄħ":9487,"ĠzakupÃ³w":9488,"kr":9489,"jami":9490,"ĠczyniÄħc":9491,"ĠpoÅĤudniu":9492,"82":9493,"racja":9494,"ĠDane":9495,"Ġpane":9496,"ropo":9497,"Ġszki":9498,"ĠÅĤagod":9499,"ĠzdobyÄĩ":9500,"\\),":9501,"Ġdotych":9502,"prowadzenie":9503,"ĠgazÃ³w":9504,"Ġsynte":9505,"Ġarchitek":9506,"ĠrozpoczÄĻÅĤa":9507,"Va":9508,"wka":9509,"Ġwyru":9510,"Ġinfor":9511,"Ġbakter":9512,"vy":9513,"wanÄħ":9514,"lizm":9515,"ĠPau":9516,"Ġprzekonu":9517,"ĠÅĽwiadome":9518,"Ġ160":9519,"Ġnull":9520,"ĠcenÄĻ":9521,"Chcia":9522,"Ġdotychczas":9523,"WyjaÅĽnij":9524,"Ġistnienia":9525,"ĠÅĽcieÅ¼ki":9526,"Ġpodca":9527,"ĠprzejÅĽcia":9528,"Ġfinansowych":9529,"ĠDNA":9530,"Ġsztuczna":9531,"ĠwiedzÄħ":9532,"Ġrodzina":9533,"Ġmocne":9534,"ĠpodkreÅĽlajÄħc":9535,"ĠzÅĤago":9536,"ĠJos":9537,"Ġye":9538,"Ġ1917":9539,"Ġprzyczyny":9540,"zj":9541,"ĠustawiÄĩ":9542,"ĠskorzystaÄĩ":9543,"org":9544,"Ġspodzie":9545,"Ġsamych":9546,"ĠusunÄħÄĩ":9547,"wÅĤaÅĽci":9548,"Ġupa":9549,"Ġnieja":9550,"Cie":9551,"verse":9552,"'.\",":9553,"Ġzanu":9554,"Ġniech":9555,"Ġniemieckiego":9556,"Ġtradycyjnych":9557,"element":9558,"Ġlin":9559,"Ġjasno":9560,"ÅĽlenie":9561,"ĠpowstaÅĤ":9562,"Ġmotywacje":9563,"Ġprzestrzen":9564,"Ġbowiem":9565,"caÄĩ":9566,"Ġklub":9567,"cket":9568,"miarach":9569,"ĠumysÅĤ":9570,"Ġgleby":9571,"blo":9572,"mbda":9573,"ĠwielokrotnoÅĽci":9574,"Czym":9575,"ĠÅĽmiertel":9576,"words":9577,"CA":9578,"Ġwiem":9579,"niejszÄħ":9580,"vec":9581,"ĠoferujÄħc":9582,"ĠPython":9583,"println":9584,"ful":9585,"Ġ1971":9586,"ĠzajÄħÄĩ":9587,"Ġedyt":9588,"ktÃ³rzy":9589,"ĠprzepisaÄĩ":9590,"ureat":9591,"Ðµ":9592,"orien":9593,"ĠVI":9594,"zel":9595,"Ġoszu":9596,"Ġpolu":9597,"Ġ1978":9598,"ĠpokÃ³j":9599,"ĠTrze":9600,"Ġkolejny":9601,"69":9602,"TP":9603,"lant":9604,"root":9605,"ĠLit":9606,"Ġ1949":9607,"Ġlogisty":9608,"Ġinflu":9609,"ĠwÄĻzÅĤÃ³w":9610,"sper":9611,"ĠdzieÅĤ":9612,"Ġprzeja":9613,"Ġmatki":9614,"ĠTokio":9615,"Ġklasyfikacji":9616,"ĠSil":9617,"ĠzakoÅĦczeniu":9618,"torek":9619,"down":9620,")]":9621,"Ġwych":9622,"Ġpolitycznych":9623,"Å¼ajÄħc":9624,"Ġistnienie":9625,"empty":9626,"Ġarte":9627,"ĠZba":9628,"ĠkupiÄĩ":9629,"Ġupraszcza":9630,"52":9631,"63":9632,"aÅĤÃ³Å¼":9633,"Ġdecyzja":9634,"Ġwybuch":9635,"ap":9636,"finiuj":9637,"ĠciÄĻÅ¼ar":9638,"Ġtrakta":9639,"ĠDzieÅĦ":9640,"Ġprzekazuje":9641,"Ġszklan":9642,"miu":9643,"ĠspoÅĤeczeÅĦstwo":9644,"ĠargumentÃ³w":9645,"dystans":9646,"ĠWyjaÅĽnij":9647,"Ġmap":9648,"chaÄĩ":9649,"Ġautorstwa":9650,"Ġdystrybu":9651,"ĠuÅ¼ytku":9652,"Ġtwar":9653,"Ġfizycznych":9654,"Ġtechnologie":9655,"ĠQue":9656,"lindro":9657,"Ġprzodu":9658,"ĠskutkÃ³w":9659,"ĠsÄĻ":9660,"czyÅĤo":9661,"Ġinstan":9662,"ĠwspÃ³ÅĤpracu":9663,"ffi":9664,"Ġwez":9665,"Ġthere":9666,"ĠodnoszÄħ":9667,"ĠkonfliktÃ³w":9668,"Ġzera":9669,"ĠÅ¼arÃ³w":9670,"Ġkoloru":9671,"istory":9672,"Ġwyrazy":9673,"ĠPodsumowujÄħc":9674,"gÃ³r":9675,"Ġzaprojektowane":9676,"derem":9677,"Ġkomunik":9678,"kazaÅĤy":9679,"ĠAK":9680,"ĠpierÅĽcie":9681,"obieÅĦstwo":9682,"ĠciÄħgÅĤ":9683,"szeÄĩ":9684,"ĠChoÄĩ":9685,"plica":9686,"Ġekstremal":9687,"niÅ¼":9688,"reo":9689,"ĠptakÃ³w":9690,"Ġprostej":9691,"Pe":9692,"Ġniena":9693,"ĠzdobyÅĤ":9694,"}{\\":9695,"lenku":9696,"ĠodpowiedniÄħ":9697,"ĠklarownoÅĽÄĩ":9698,"pr":9699,"Ġgatunku":9700,"ĠczuÄĩ":9701,"Ġzdrowiu":9702,"Ġwyczer":9703,"ctwie":9704,"ĠkrÃ³lew":9705,"ĠdostÄĻpny":9706,"Ġdyskusji":9707,"ÅĽwie":9708,"ĠwiÄĻzie":9709,"Ġportuga":9710,"nor":9711,"ĠpodÅĤo":9712,"bienie":9713,"Ġstosunek":9714,"Ġsymu":9715,"Ġmarketingu":9716,"Ġwniosku":9717,"Ġpusta":9718,"ĠRÃ³Å¼":9719,"Ġznaczeniu":9720,"quest":9721,"Ġdzieje":9722,"Ġprawda":9723,"Ġsekwen":9724,"Ġpierwiastek":9725,"ĠzupeÅĤnie":9726,"ĠAmer":9727,"Ġ1910":9728,"boo":9729,"Ġimpre":9730,"ĠwiÄħz":9731,"Sto":9732,"niejsza":9733,"ĠokreÅĽlenie":9734,"iaÅĤem":9735,"lower":9736,"Ġmisji":9737,"Ġucznia":9738,"ĠpewnoÅĽciÄħ":9739,"ĠsÅĤuÅ¼by":9740,"Cza":9741,"nos":9742,"ĠgÅĤÃ³wnej":9743,"Ġfizyki":9744,"Ġpierwiastki":9745,"ida":9746,"Ġdod":9747,"sso":9748,"sson":9749,"wymiar":9750,"ĠosobÄħ":9751,"ĠprzeksztaÅĤciÄĩ":9752,"vin":9753,"bili":9754,"Ġprawdy":9755,"Ġzmodyfik":9756,"ĠzastÄĻp":9757,"Ġjazdy":9758,"ĠduÅĦski":9759,"dekscyt":9760,"ĠinnÄħ":9761,"Ġrzeczywiste":9762,"Ġmaszyny":9763,"fera":9764,"Ġokazji":9765,"Ġart":9766,"Ġtonu":9767,"Ġmary":9768,"mil":9769,"Ġwek":9770,"ĠwglÄħd":9771,"ĠprzywrÃ³":9772,"Ġcennych":9773,"ĠpodkreÅĽliÄĩ":9774,"ĠwyjÅĽci":9775,"ĠchroniÄĩ":9776,"lektu":9777,"ĠrobiÄĩ":9778,"Ġobrazy":9779,"ĠÅĽwieÅ¼ym":9780,"Ġder":9781,"Ġmisty":9782,"Ġpsychiczne":9783,"57":9784,"ĠmaksymalnÄħ":9785,"ĠnapÄĻdz":9786,"geq":9787,"ĠDem":9788,"Ġnaukowych":9789,"Script":9790,"Ġaro":9791,"ĠObecnie":9792,"ĠgÅĤoÅĽ":9793,"ĠwkÅĤad":9794,"ĠInstytu":9795,"orii":9796,"ĠÅļrod":9797,"ĠwaÅ¼nych":9798,"Ġulicy":9799,"Ġsmo":9800,"goda":9801,"ĠmaÅĤej":9802,"Ġlim":9803,"Ġrun":9804,"Ġmod":9805,"onach":9806,"Ġmieszan":9807,"Ġ1954":9808,"Ġjasny":9809,"Ġtransformacji":9810,"szczone":9811,"Ġefektywne":9812,"Odzna":9813,"bÃ³r":9814,"Ġzaprezent":9815,"Ġmetro":9816,"ĠbuÅĤgar":9817,"Ġstandar":9818,"Ġimplementacji":9819,"dgo":9820,"Ġprosta":9821,"Ġkalenda":9822,"ĠciÄħÅ¼y":9823,"vert":9824,"Ġpodaje":9825,"gujÄħ":9826,"Ġkonfigu":9827,"ĠpodÄħ":9828,"Ġwiatr":9829,"ĠpostÄĻpÃ³w":9830,"ĠwÄħtpliwoÅĽci":9831,"Account":9832,"Ġsho":9833,"ksztaÅĤt":9834,"Ġpozytywny":9835,"Ġzaofer":9836,"Ġbycia":9837,"ĠÅ¼ona":9838,"Ġdokony":9839,"Spraw":9840,"czoÅĽÄĩ":9841,"lizmu":9842,"Ġklimatycznych":9843,"ĠBryty":9844,"Ġlaureat":9845,"ĠzaimplementowaÄĩ":9846,"mowa":9847,"osob":9848,"Ġuzysku":9849,"ĠdorosÅĤych":9850,"IS":9851,"Ġsmart":9852,"GÅĤÃ³w":9853,"lak":9854,"tarz":9855,"Ġkapita":9856,"ĠmieÅĽci":9857,"ĠangaÅ¼ujÄħce":9858,"Ġuch":9859,"Ġmusie":9860,"ĠdzielÄħc":9861,"ting":9862,"mienne":9863,"pki":9864,"Ġwould":9865,"IV":9866,"szajÄħc":9867,"Oblicza":9868,"ĠUsu":9869,"plan":9870,"cham":9871,"mira":9872,"Ġture":9873,"Ġodniesieniu":9874,"zmem":9875,"ond":9876,"Ġliniowej":9877,"Ġzwrot":9878,"Ġkonkur":9879,"Ġ1905":9880,"Ġrannych":9881,"Ġwraca":9882,"Ġkap":9883,"Ġakty":9884,"ĠXVI":9885,"ĠWiÄĻk":9886,"Ġlokalnej":9887,"Ġfinan":9888,"ĠPeter":9889,"ĠdokonaÄĩ":9890,"ĠCO":9891,"chista":9892,"ĠÅĽrednich":9893,"Ġnawzajem":9894,"Ġ1952":9895,"ĠkrawÄĻdzi":9896,"ĠszczÄĻÅĽcie":9897,"Ġczasowych":9898,"ĠJohna":9899,"Ġdrzewo":9900,"ĠjÄĻzykiem":9901,"ĠwÄĻzeÅĤ":9902,"Ġitem":9903,"Ġwymiany":9904,"dziny":9905,"Ġbomb":9906,"schÃ³d":9907,"stach":9908,"ĠAf":9909,"}}]</":9910,"Ġ1951":9911,"Ġotwarty":9912,"skÃ³w":9913,"Ġ=>":9914,"Twoja":9915,"Mie":9916,"yo":9917,"ĠdrÃ³g":9918,"ake":9919,"71":9920,"Ġszkole":9921,"Ġfizycznej":9922,"Ġdepres":9923,"ĠzostanÄħ":9924,"Ġgitarzysta":9925,"Ġ1912":9926,"ĠwywoÅĤy":9927,"znanie":9928,"woka":9929,"artÄħ":9930,"nologia":9931,"ĠwewnÄĻtrznych":9932,"ness":9933,"Ġpodekscyt":9934,"ĠWielkiego":9935,"DziÄĻkujÄĻ":9936,"ĠdomÃ³w":9937,"Ġmuzyka":9938,"ĠApp":9939,"niÅĤa":9940,"lope":9941,"Ġkrokiem":9942,"ĠparÄĻ":9943,"ĠkiedyÅĽ":9944,"Exception":9945,"Ġmonet":9946,"Ġ$$":9947,"Ġopan":9948,"Ġdniach":9949,"ĠspeÅĤniajÄħ":9950,"Ġwytrzyma":9951,"kul":9952,"ĠPoczÄħ":9953,"Ġvan":9954,"ÅĽciej":9955,"ĠÅ¼adnego":9956,"ĠbudÅ¼etu":9957,"uf":9958,"ils":9959,"script":9960,"ĠkomunikacjÄĻ":9961,"szczÄħ":9962,"ĠMad":9963,"ander":9964,"ĠkorzystaÄĩ":9965,"ĠmajÄħc":9966,"Ġpodejmowanie":9967,"Pi":9968,"ĠniektÃ³rzy":9969,"Ġcieplar":9970,"ĠodgrywajÄħ":9971,"ĠPor":9972,"ĠkwotÄĻ":9973,"har":9974,"peu":9975,"ĠzamkniÄĻ":9976,"ĠmÅĤodych":9977,"stein":9978,"ĠskutecznoÅĽÄĩ":9979,"Ġbank":9980,"Ġapara":9981,"tyfika":9982,"gy":9983,"ĠobowiÄħ":9984,"Ġchary":9985,"Ġpapier":9986,"ĠpÃ³ÅĤnocno":9987,"munika":9988,"ĠÅ»ydÃ³w":9989,"ĠsztukÄĻ":9990,"ĠÅĽciany":9991,"isto":9992,"produ":9993,"Ġ1962":9994,"instance":9995,"ĠBÄĻdzie":9996,"Ġczynnik":9997,"ĠunikalnÄħ":9998,"ÅĽlad":9999,"----------------":10000,"Ġtwarz":10001,"ĠZbignie":10002,"So":10003,"luzy":10004,"Ġzebr":10005,"Ġpewnym":10006,"Ġskutku":10007,"Ġobywatel":10008,"Ġuka":10009,"ball":10010,"Ġsytuacjach":10011,"ĠrzeÅºbia":10012,"towej":10013,"zmy":10014,"ĠWydaw":10015,"ĠwÅĤasnym":10016,"Ġodpowia":10017,"torami":10018,"Ġoprogramowanie":10019,"nictwa":10020,"ĠCD":10021,"ĠodpowiedzieÄĩ":10022,"Ġzmienna":10023,"ĠJednakÅ¼e":10024,"Ġstosowany":10025,"play":10026,"Ġsugestii":10027,"ĠwiÄĻzi":10028,"jskÄħ":10029,"ĠpiÅĤki":10030,"Ġklasa":10031,"stop":10032,"ĠprzygotowaÄĩ":10033,"czyÅĤem":10034,"ĠCom":10035,"szaÅĤek":10036,"Ġhandlu":10037,"ĠBÃ³g":10038,"Ġzachwy":10039,"Ġodpowiedniego":10040,"ĠzÄĻbÃ³w":10041,"Ġpracownicy":10042,"ĠzakÅĤad":10043,"inga":10044,"Ġwynagrodzenia":10045,"ĠsprawiedliwoÅĽci":10046,"ĠwykÅĤadni":10047,"Ġtygodnie":10048,"Ġzapalenia":10049,"ĠzagÅĤÄĻ":10050,"Ġkwota":10051,"Ġorbi":10052,"chach":10053,"ĠwiÄĻkszego":10054,"ĠzespoÅĤem":10055,"ĠWielka":10056,"ĠrodzinÄħ":10057,"ĠjeÅ¼eli":10058,"skop":10059,"Ġangielskiego":10060,"Ġrefleks":10061,"ĠdziaÅĤajÄħ":10062,"Ġsprzed":10063,"Ġkomputera":10064,"Ġke":10065,"Ġkonflikt":10066,"ĠprzeÅĤÄħcz":10067,"thod":10068,"ĠKrakowie":10069,"ĠÏĢ":10070,"chron":10071,"med":10072,"Ġinfe":10073,"ĠIgna":10074,"Ġstraty":10075,"Ġhydro":10076,"Oblicz":10077,"ĠJSON":10078,"Ġ1915":10079,"Ġznaczy":10080,"Ġano":10081,"JednÄħ":10082,"Ġnasza":10083,"Ġprzeby":10084,"Ġruty":10085,"ĠzdarzeÅĦ":10086,"Ġwspomina":10087,"Ġpodobnych":10088,"ĠmiesiÄħcu":10089,"ĠSQL":10090,"Ġduplika":10091,"ĠokrÄħg":10092,"cku":10093,"her":10094,"Å¼noÅĽci":10095,"ĠprzedziaÅĤ":10096,"Ġchle":10097,"ĠdoÅĽwiadczeniem":10098,"ĠpoÅĤowÄĻ":10099,"ĠAleksandra":10100,"Ġklucza":10101,"Ġtrudno":10102,"Ġlabora":10103,"ĠpowodowaÄĩ":10104,"ĠporuszaÄĩ":10105,"Ġcena":10106,"wÃ³l":10107,"ĠUnii":10108,"Ġobecnej":10109,"Przed":10110,"ĠchciaÅĤ":10111,"laÄĩ":10112,"ierar":10113,"ZnajdÅº":10114,"Ġistnia":10115,"Ġ(âĢŀ":10116,"trwa":10117,"ĠwyjaÅĽnienie":10118,"vali":10119,"Ġfiltr":10120,"Ġpublicznej":10121,"Ġpewnych":10122,"foni":10123,"Ġpragnienia":10124,"ĠpojazdÃ³w":10125,"Ġbier":10126,"Ġgimna":10127,"ĠwykorzystujÄħ":10128,"ÅĤom":10129,"ĠwioÅĽ":10130,"ĠmÃ³wiÄĩ":10131,"ĠdowÃ³dca":10132,"Ġawar":10133,"ved":10134,"spoko":10135,"Ġperku":10136,"back":10137,"Ġprojekty":10138,"Ġaspektem":10139,"ĠwewnÄĻtrzne":10140,"towych":10141,"ycha":10142,"Ġfabry":10143,".),":10144,"Ġspadek":10145,"ĠJuli":10146,"ralna":10147,"Jest":10148,"gnor":10149,"ĠinÅ¼ynierii":10150,"Ġmniejsza":10151,"Ġ1965":10152,"Ġpomocne":10153,"pass":10154,"Ġ1963":10155,"Ġsklasy":10156,"ĠMarek":10157,"ĠÅ¼oÅĤnierz":10158,"Ġbelgijski":10159,"Ġpat":10160,"Ġthem":10161,"ĠoÅĽwiad":10162,"Ġnagrody":10163,"miary":10164,"Ġszybkie":10165,"ĠpozycjÄĻ":10166,"ĠwÄĻdrÃ³w":10167,"dowe":10168,"phi":10169,"ĠPri":10170,"ĠGdaÅĦ":10171,"ĠÅ¼yci":10172,"ĠrÃ³Å¼nicy":10173,"ĠTobÄħ":10174,"Ġrano":10175,"ĠdodajÄħc":10176,"ĠokreÅĽlony":10177,"ĠpostaciÄħ":10178,"Ġkolejki":10179,"Ġpoet":10180,"ĠnauczyÄĩ":10181,"ĠwymagaÅĦ":10182,"Ġhel":10183,"ĠrelacjÄĻ":10184,"ĠokolicznoÅĽci":10185,"Ġuczucie":10186,"Ġkru":10187,"waga":10188,"Ġdif":10189,"ĠwyjÄħtk":10190,"Ġogromne":10191,"ĠMaÅĤ":10192,"Ġegzamin":10193,"Ġkonwersji":10194,"dan":10195,"Ġprzereda":10196,"Ġmasa":10197,"Ġzainteresowany":10198,"ĠchÄĻtnie":10199,"ĠdostÄĻpnoÅĽÄĩ":10200,"Ġ1957":10201,"Ġchorwa":10202,"ĠczasowÄħ":10203,"Ġmniejszych":10204,"Ġrelak":10205,"Ġinto":10206,"ĠCel":10207,"ĠZwy":10208,"Ġniu":10209,"ĠKolej":10210,"Ġnapotka":10211,"Ġzar":10212,"Ġsize":10213,"ĠBoÅ¼e":10214,"Ġkulturowe":10215,"ĠuwzglÄĻdniajÄħc":10216,"Ga":10217,"wiania":10218,"rodÄĻ":10219,"onar":10220,"Ġzwyczaj":10221,"Ġprzydatne":10222,"Dru":10223,"Ġzaraz":10224,"Ġgotowy":10225,"ĠtydzieÅĦ":10226,"Ġprezydentem":10227,"oÅĽwia":10228,"ĠNowa":10229,"Å¼dÅ¼a":10230,"Ad":10231,"Ġwybierz":10232,"ĠData":10233,"Ġgrzy":10234,"âĢĿ)":10235,"Ġzdaniem":10236,"ÄħcÄħ":10237,"Ġindywidualnych":10238,"ÅĤowie":10239,"rzÃ³d":10240,"ÅĦcy":10241,"Ġlasu":10242,"ĠunikaÄĩ":10243,"ĠBank":10244,"ĠokazjÄĻ":10245,"szoÅĽci":10246,"Ġdoce":10247,"Ġunie":10248,"byÅĽ":10249,"Ġplasti":10250,"Ġadd":10251,"Ġakapitu":10252,"Ġbudynku":10253,"Ser":10254,"naczej":10255,"wodnik":10256,"ĠmenedÅ¼er":10257,"ÅĤaÅĤ":10258,"Ġindek":10259,"Ġchroni":10260,"Ġnazw":10261,"versi":10262,"Nau":10263,"obÃ³j":10264,"ĠspoÅĤecznego":10265,"Ġsceny":10266,"Ġnajlepszy":10267,"ĠpodziaÅĤu":10268,"Ġfili":10269,"Ġczerw":10270,"ĠCu":10271,"ĠnazwÄħ":10272,"Ġrealizacji":10273,"ĠOfer":10274,"Ġ1961":10275,"ĠodpowiadajÄħ":10276,"ĠposÅĤu":10277,"ĠtrwaÅĤ":10278,"place":10279,"ĠDol":10280,"Ġ1908":10281,"ĠMiasto":10282,"Ġposze":10283,"ĠwÅĤasnoÅĽci":10284,"ĠrodzicÃ³w":10285,"ĠelastycznoÅĽÄĩ":10286,"BÅĤÄħd":10287,"ĠkwadratÃ³w":10288,"Ġkorzystanie":10289,"62":10290,"gotuj":10291,"tun":10292,"ĠwaÅ¼ny":10293,"metrÃ³w":10294,"tynu":10295,"Ġkad":10296,"Ġ1916":10297,"Ġmiasteczka":10298,"Ġnieprzewi":10299,"cÅĤa":10300,"Ġtradycyjne":10301,"Ġkontynen":10302,"ĠmoduÅĤu":10303,"Ġzaawansowane":10304,"Ġdefinicji":10305,"Ġzagad":10306,"Ġpodzbi":10307,"lowaÄĩ":10308,"ĠAir":10309,"ĠpoÅĤÄħczeniu":10310,"Ġ1958":10311,"Ġwhen":10312,"ĠzaplanowaÄĩ":10313,"Ġbiegu":10314,"Ġdalsze":10315,"rzut":10316,"range":10317,"Ġpion":10318,"ĠAmeryki":10319,"ranu":10320,"ĠczÅĤonkowie":10321,"Ġ33":10322,"Ġzgroma":10323,"Ġdate":10324,"pora":10325,"Ġprzyjaciela":10326,"Ġchcemy":10327,"AM":10328,"loni":10329,"Ġregularnie":10330,"Ġzanieczyszczenia":10331,"cts":10332,"ĠnajwiÄĻkszÄħ":10333,"ĠCentrum":10334,"Ġwarstwy":10335,"ĠOce":10336,"ĠpowrÃ³":10337,"cjan":10338,"Ġstatystycznych":10339,"city":10340,"ĠNaleÅ¼y":10341,"Ġnarciarski":10342,"ĠWojciech":10343,"Ġbiznesu":10344,"?âĢĿ":10345,"Ġmajor":10346,"ĠJez":10347,"ansu":10348,"Ġ1966":10349,"ĠdÅĤo":10350,"ĠOli":10351,"div":10352,"ĠzwrotÃ³w":10353,"120":10354,"ĠwspÃ³lnie":10355,"Ġwiersza":10356,"ĠprzepÅĤywu":10357,"-\\":10358,"dowych":10359,"Ġent":10360,"telne":10361,"Wo":10362,"ĠsprÃ³buj":10363,"Ġpozo":10364,"Ġkoncentruje":10365,"98":10366,"ĠrÄħ":10367,"Ġartysta":10368,"Ġostatniego":10369,"Ce":10370,"sca":10371,"ĠszkÃ³ÅĤ":10372,"mm":10373,"mus":10374,"ĠWojs":10375,"Ġ1953":10376,"ĠDzieje":10377,"Ġreligii":10378,"Ġsortowania":10379,"field":10380,"ĠHiszpanii":10381,"Ġteni":10382,"stuj":10383,"ĠVer":10384,"Ġalgorytmy":10385,"Ġpriorytetowo":10386,"ĠpotrzebowaÄĩ":10387,"Ġmuzeum":10388,"Ġprzygotowania":10389,"Ġmetal":10390,"Ġoznacz":10391,"Ġdramatur":10392,"Ġrower":10393,"ĠporÃ³wnania":10394,"Ġodbud":10395,"base":10396,"Ġkluczowa":10397,"ĠreÅ¼yserii":10398,"ĠLudwik":10399,"tani":10400,"Ġorien":10401,"ĠwyÅ¼szych":10402,"nemu":10403,"ĠPÃ³ÅĤnocnej":10404,"Ð½":10405,"Ġdynast":10406,"Ġmediana":10407,"wentu":10408,"ĠwÃ³d":10409,"logiczny":10410,"lizowane":10411,"Ġkapitan":10412,"Ġmoment":10413,"ĠdokÅĤadnoÅĽÄĩ":10414,"lonego":10415,"ĠpromowaÄĩ":10416,"Ġbazie":10417,"Ġprzera":10418,"Ġgar":10419,"ĠZawsze":10420,"Ġoryginalnego":10421,"Ġkolumny":10422,"cout":10423,"atch":10424,"Ġkory":10425,"urce":10426,"ĠZapew":10427,"Ġkup":10428,"ÅĽciami":10429,"Ġwydru":10430,"Ġgli":10431,"Ġbudowania":10432,"Klucz":10433,"ĠÅĽnie":10434,"Ġsocj":10435,"ĠspÃ³jnoÅĽÄĩ":10436,"ĠpodrÄĻ":10437,"ĠUÅ¼ywajÄħc":10438,"Ġtablica":10439,"Ġabsolu":10440,"cisk":10441,"ĠufnoÅĽci":10442,"ĠfiÅĦski":10443,"ĠstosowaÄĩ":10444,"ĠzespoÅĤ":10445,"ĠzespoÅĤÃ³w":10446,"Ġdyry":10447,"Ġpoziomy":10448,"Ġbreak":10449,"Ġnur":10450,"Ġ34":10451,"Ġ1955":10452,"ĠzmodyfikowaÄĩ":10453,"current":10454,"Ġkape":10455,"SD":10456,"ĠukÅĤadzie":10457,"Ġrol":10458,"fit":10459,"Ġrozleg":10460,"baty":10461,"ĠÅĽrodka":10462,"ĠunikajÄħc":10463,"Ġostatnim":10464,"ville":10465,"Ġodkrycie":10466,"Ġskoczek":10467,"ĠgÅĤÄĻbsze":10468,"WiÄĻc":10469,"ange":10470,"isi":10471,"ĠzwiÄħzkÃ³w":10472,"ĠksiÄĻcia":10473,"dele":10474,"lingu":10475,"Ġmorder":10476,"Odznaczeni":10477,"500":10478,"ÄĻtnie":10479,"Ġnaby":10480,"Ġlubi":10481,"Ġkawy":10482,"Ġorganizacje":10483,"ĠszczegÃ³lnoÅĽci":10484,"Ġkontr":10485,"ĠwydatkÃ³w":10486,"NieprawidÅĤ":10487,"Ġgatunki":10488,"aÅĤÃ³Å¼my":10489,"tana":10490,"Ġmowy":10491,"Ġmotywacji":10492,"mierza":10493,"ĠPoprzez":10494,"xy":10495,"Ġopozy":10496,"sel":10497,"ĠbudowaÄĩ":10498,"ĠprzynaleÅ¼":10499,"Ġdaj":10500,"Ġdodatkowo":10501,"ĠwypÅĤa":10502,"ĠprzetÅĤuma":10503,"styn":10504,"ĠzmÄĻ":10505,"ĠLos":10506,"ĠbiaÅĤka":10507,"sÄĻ":10508,"Ġaku":10509,"dziesiÄħ":10510,"ĠtaÅĦ":10511,"ĠKsiÄħ":10512,"Ġpaliw":10513,"Ġpokaz":10514,"Ġprzynosi":10515,"ĠproÅĽ":10516,"ĠpowieÅĽÄĩ":10517,"Ġimienia":10518,"lecia":10519,"Ġprojekcie":10520,"ĠwyjaÅĽnienia":10521,"ĠPoÅĤudniowej":10522,"ĠpiÅĤkarski":10523,"Ġprawdziwa":10524,"Ġ1904":10525,"Ġgenerowania":10526,"ĠkoncepcjÄĻ":10527,"Ġaf":10528,"Ġzachodzi":10529,"ĠÅĽlu":10530,"ĠnapisaÅĤ":10531,"ĠWilhelm":10532,"Fa":10533,"dis":10534,"ĠmaÅĤÄħ":10535,"ĠIP":10536,"ĠsÅĤoÅĦce":10537,"tam":10538,"zujÄħce":10539,"Ġspecjalne":10540,"lementuj":10541,"szÄħc":10542,"Ġ['":10543,"ujÄħca":10544,"ĠinternetowÄħ":10545,"ĠszeregÃ³w":10546,"ĠprzyciÄħgnÄħÄĩ":10547,"Ġbrzu":10548,"ĠpodwyÅ¼":10549,"ĠHan":10550,"Ġ1906":10551,"onymi":10552,"baÅĦski":10553,"Ġsol":10554,"Ġczci":10555,"ĠwodÄħ":10556,"ĠartystÃ³w":10557,"ĠczÅĤonkiem":10558,"ĠbranÅ¼":10559,"mathbf":10560,"jnego":10561,"Ġaler":10562,"Ġregional":10563,"Ġkategory":10564,"ĠtoÅ¼samoÅĽÄĩ":10565,"Ġobecne":10566,"ĠwspÃ³ÅĤrzÄĻdnych":10567,"ĠzakoÅĦczenie":10568,"Ġniebo":10569,"torze":10570,"Ġstawia":10571,"Ġopty":10572,"Ha":10573,"pend":10574,"Ġasyn":10575,"triangle":10576,"Ġstopniowo":10577,"graph":10578,"ĠciÅĽnienie":10579,"Wszystkie":10580,"label":10581,"True":10582,"Ġ1959":10583,"Ġ1911":10584,"ĠprzyczynÄħ":10585,"szeÅĦ":10586,"Ġrozpowszech":10587,"ameryka":10588,"Ġdba":10589,"Ġuj":10590,"ĠchcÄħ":10591,"Ġpraktyce":10592,"ĠÅģo":10593,"Ġodchylenia":10594,")=":10595,"ĠMag":10596,"theta":10597,"Ġpodsumowanie":10598,"Ġluksus":10599,"miarze":10600,"Ġprzecina":10601,"ÅĤki":10602,"Ġdochodzi":10603,"Ġwypis":10604,"ĠZacznij":10605,"Ġcyklu":10606,"Ġinstruk":10607,")$,":10608,"owne":10609,"doks":10610,"ĠcaÅĤoÅĽci":10611,"Ġprzebiegu":10612,"Ġhistorie":10613,"pan":10614,"Ġreferen":10615,"Ġzbierania":10616,"ari":10617,"Ġzrozumieniu":10618,"ĠmieszkaÅĦcy":10619,"Ġkontaktu":10620,"Ġbogate":10621,"ĠwraÅ¼enie":10622,"Ġnieustan":10623,"61":10624,"Ġtan":10625,"Ġwytwarz":10626,"miera":10627,"Ġprowincji":10628,"Ġ1909":10629,"Ġnego":10630,"lator":10631,"ÅĤos":10632,"Ġpokoj":10633,"Ġzatrudnienia":10634,"ĠrzÄĻdu":10635,"ĠwÅĤasnymi":10636,"ĠwspÃ³lnoty":10637,"([":10638,"Ġpodmio":10639,"Ġinicjatywy":10640,"ĠSkon":10641,"Ġsor":10642,"ĠÅĽrodek":10643,"Ġszpi":10644,"Ġopowiadania":10645,"ĠFrydery":10646,"zan":10647,"ĠJoseph":10648,"Ġprzystos":10649,"koma":10650,"fikuje":10651,"Ġhad":10652,"Ġeksplo":10653,"ownie":10654,"Ġznaku":10655,"Ġplany":10656,"jek":10657,"ĠOkreÅĽl":10658,"ĠuÅ¼ytkownicy":10659,"arki":10660,"Ġludzkich":10661,"jenia":10662,"ĠString":10663,"Line":10664,"url":10665,"biny":10666,"ĠOstatecznie":10667,"Å¼ach":10668,"Ġzjawisk":10669,"Ġowa":10670,"esar":10671,"ĠnajwiÄĻksze":10672,"Ġkoncepcja":10673,"ĠprzytÅĤa":10674,"Ã§":10675,"Ġrazu":10676,"ĠpamiÄĻtaj":10677,"Ġszachista":10678,"manie":10679,"ĠgrÄĻ":10680,"Ġcesar":10681,"ĠsiÅĤa":10682,"ĠideÄĻ":10683,"ĠmÃ³zg":10684,"Ġ1913":10685,"stomer":10686,"ĠPolskiej":10687,"ĠjÄħdr":10688,"ĠefektywnoÅĽci":10689,"Ġuniwers":10690,"ĠopuÅĽci":10691,"ĠCzas":10692,"ĠrÃ³":10693,"59":10694,"ux":10695,"ĠMamy":10696,"ĠnajwiÄĻkszy":10697,"ĠAugust":10698,"ĠWis":10699,"ĠbokÃ³w":10700,"Ġ1907":10701,"towi":10702,"Ġastrono":10703,"Ġflu":10704,"Ġkultura":10705,"Ġistotnych":10706,"ĠpewnoÅĽÄĩ":10707,"wartoÅĽÄĩ":10708,"Ġtrenin":10709,"Ġimmuno":10710,"Ġzysku":10711,"lst":10712,"ĠklÄĻ":10713,"ĠpojawiajÄħ":10714,"Ġwybrany":10715,"Ġ250":10716,"Ġleki":10717,"jajÄħc":10718,"stÄħpiÅĤ":10719,"Ġkonfliktu":10720,"Ġcesarza":10721,"pop":10722,"Ġwzrasta":10723,"ĠskoÅĽ":10724,"ĠpoÅĤowy":10725,"58":10726,"bÃ³":10727,"tetu":10728,"Ġconst":10729,"ĠanalizowaÄĩ":10730,"wange":10731,"Ġnieruchom":10732,"ĠkolejnoÅĽÄĩ":10733,"Ġkrytycznego":10734,"Ġuzasadni":10735,"opera":10736,"std":10737,"Ġklienci":10738,"Ġinternetowe":10739,"ĠKanady":10740,"tody":10741,"Ġprostych":10742,"Ġsiedli":10743,"szczeniu":10744,"Ġinnowacji":10745,"dl":10746,"Ġglu":10747,"ĠzÅĤam":10748,"Ġ42":10749,"Ġostatniej":10750,"Ġzbiory":10751,"lose":10752,"ĠCaÅĤkowi":10753,"ĠkoÅĽciÃ³ÅĤ":10754,"Ġwypro":10755,"ĠIm":10756,"ily":10757,"Ġhigh":10758,"He":10759,"cti":10760,"tkÄĻ":10761,"tyl":10762,"ĠwieÅĽ":10763,"Ġserwe":10764,"ĠniepodlegÅĤoÅĽci":10765,"ĠwymieniÄĩ":10766,"Ġchoice":10767,"szczajÄħc":10768,"ĠmiaÅĤem":10769,"ĠMyÅĽlÄĻ":10770,"ĠmÄĻÅ¼czyzna":10771,"Ġcenne":10772,"Ġniedob":10773,"ĠwymagaÄĩ":10774,"ĠwysÅĤa":10775,"ĠznieksztaÅĤ":10776,"AP":10777,"Ġpolskim":10778,"Ġ64":10779,"DzieÅĦ":10780,"ĠoszczÄĻdnoÅĽci":10781,"Bad":10782,"Ġfre":10783,"ĠumoÅ¼liwi":10784,"ĠwchodzÄħ":10785,"Ġuwie":10786,"ĠKtÃ³":10787,"pady":10788,"ĠpodstawÄĻ":10789,"Ġprocesem":10790,"Ġâī¤":10791,"ĠuÅ¼yj":10792,"tml":10793,"Ġodpowiedniej":10794,"Ġplatform":10795,"Ġrozpoczyna":10796,"51":10797,"LL":10798,"Ġklasz":10799,"Ġwprowadzony":10800,"patii":10801,"Ġzawi":10802,"ĠjaÅĽniej":10803,"Ġkome":10804,"Ġkonferen":10805,"ĠstaÅĤÄħ":10806,"ĠRzymu":10807,"tum":10808,"Ġstatek":10809,"jsc":10810,"prowadziÅĤem":10811,"Ġwyrzu":10812,"Ġraport":10813,"ĠpiÄĻcio":10814,"kÅĤadajÄħc":10815,"cencji":10816,"lice":10817,"Ġpoprawki":10818,"Ġzapyta":10819,"ĠMeksy":10820,"Ġceremo":10821,"Ġcali":10822,"ĠKlucz":10823,"ĠwÄĻzÅĤa":10824,"Ġulubi":10825,"][":10826,"Ġcur":10827,"ĠprzeanalizowaÄĩ":10828,"niec":10829,"tolog":10830,"ĠTre":10831,"ĠkontynuowaÄĩ":10832,"}^{":10833,"tujÄħc":10834,"123":10835,"Ġinteresar":10836,"lory":10837,"ĠwyodrÄĻb":10838,"dajÄħc":10839,"ĠsÄħsia":10840,"Ġgraczy":10841,"Ġobejmu":10842,"ĠzmieniaÄĩ":10843,"ĠmiesiÄħce":10844,"dzkiego":10845,"ĠkontaktÃ³w":10846,"fir":10847,"ĠrzeÅºbiarz":10848,"None":10849,"day":10850,"Ġpolityka":10851,"ĠZwraca":10852,"stracji":10853,"beta":10854,"Ġistotny":10855,"ĠzrÃ³wnowaÅ¼one":10856,"Ġsekun":10857,"Ġpowtarz":10858,"Ġwtorek":10859,"necie":10860,"ĠMosk":10861,"ĠstÄĻÅ¼enie":10862,"dowy":10863,"towego":10864,"niÅĤy":10865,"ĠPK":10866,"Ġtype":10867,"mujemy":10868,"ĠPodstaw":10869,"Ġ1902":10870,"ĠJÃ³zefa":10871,"ĠmnÄħ":10872,"Ġhierar":10873,"ĠJedno":10874,"ĠudziaÅĤu":10875,"ĠgwaÅĤ":10876,"ĠgÅĤosÃ³w":10877,"ĠweÅº":10878,"ĠwskazywaÄĩ":10879,"Ġwyzwanie":10880,"ĠAzji":10881,"ĠInnymi":10882,"Ġefektywnie":10883,"ĠRzym":10884,"\\_":10885,"Ġpolityczne":10886,"Ġczemu":10887,"ĠsÅĤuch":10888,"gio":10889,"ĠzÅĤoÅ¼ony":10890,"Ġprzetwarzanie":10891,"Ġcharakteru":10892,"ĠuÅĤam":10893,"map":10894,"Ġlekcji":10895,"ĠnadchodzÄħ":10896,"ĠpowiÄħzania":10897,"ĠsÅĤabe":10898,"Ġwirtu":10899,"mand":10900,"ĠTro":10901,"ĠpowinniÅĽmy":10902,"ĠGali":10903,"Ġzaufania":10904,"\\).":10905,"Ġwst":10906,"Ġniewo":10907,"ĠNowo":10908,"ĠProgram":10909,"Ġwhat":10910,"Ġdodatnich":10911,"ĠargentyÅĦski":10912,"han":10913,"cks":10914,"Ġgrafik":10915,"ĠzauwaÅ¼":10916,"Ġkonflikty":10917,"300":10918,"ceniu":10919,"Ġsymetry":10920,"values":10921,"ĠsugerujÄħ":10922,"Ġdum":10923,"ĠPhi":10924,"domo":10925,"Ġcos":10926,"ĠZygmunt":10927,"Ġchatbo":10928,"');":10929,"wani":10930,"Ġpul":10931,"ĠupÅĤy":10932,"lajÄħc":10933,"ĠmaÅĤym":10934,"sert":10935,"ĠKrakÃ³w":10936,"Ġsekund":10937,"siÅĤek":10938,"tkami":10939,"mij":10940,"ĠczymÅĽ":10941,"ĠÅļwiÄĻtego":10942,"wood":10943,"ĠspoÅĤeczna":10944,"ĠBog":10945,"KaÅ¼":10946,"DziÄĻki":10947,"zjÄħ":10948,"czono":10949,"ford":10950,"Ġodpar":10951,"Ġelementami":10952,"Ġodkrywa":10953,"180":10954,"Ġlogary":10955,"Ġpiechoty":10956,"ĠzarzÄħdzaÄĩ":10957,"ĠmyÅĽlenie":10958,"Ġfotograf":10959,"Ġrepu":10960,"Ġwzory":10961,"Ġ\\(\\":10962,"ĠzgÅĤÄĻ":10963,"niÅĤo":10964,"stniejÄħ":10965,"Ġpublicznych":10966,"Ġdowolnego":10967,"Ġinaczej":10968,"ÅĦscy":10969,"Ġpewnego":10970,"]]":10971,"Ġscience":10972,"Ġtotal":10973,"Ġprzyczynia":10974,"ĠWolne":10975,"Ġmany":10976,"ĠMarian":10977,"Ġszkolenia":10978,"ĠprzemysÅĤu":10979,"Ġzrealiz":10980,"Ġsan":10981,"Ġgminy":10982,"graficzne":10983,"Ġakcep":10984,"ÑĢ":10985,"ĠJen":10986,"Ġeksk":10987,"draw":10988,"ĠnieskoÅĦczonoÅĽci":10989,"Ġobiektyw":10990,"Ġ1901":10991,"Ġinteraktywne":10992,"ĠJanusz":10993,"Ġklientom":10994,"Si":10995,"mania":10996,"Ġinspir":10997,"Ġsiatkarz":10998,"Ġany":10999,"ontar":11000,"ÅĽcien":11001,"Ġzamy":11002,"ĠhasÅĤo":11003,"Ġgatunek":11004,"Ġodpo":11005,"ĠZo":11006,"ĠbadaÄĩ":11007,"ĠobliczeÅĦ":11008,"ĠznÃ³w":11009,"ED":11010,"tyna":11011,"Ġrozmiaru":11012,"rÃ©":11013,"Ġmio":11014,"ĠnaturÄĻ":11015,"ĠgÅĤad":11016,"92":11017,"ors":11018,"ĠDro":11019,"malna":11020,"ĠhistoriÄħ":11021,"ĠpotÄĻÅ¼nym":11022,"ĠzaoszczÄĻ":11023,"ĠzÅĤoÅĽ":11024,"Ġmake":11025,"ĠpromieÅĦ":11026,"daje":11027,"Ġniewi":11028,"Ġsami":11029,"Ġfabular":11030,"Ġotoczenie":11031,"ĠpoznaÄĩ":11032,"ĠkoniecznoÅĽci":11033,"ĠrÃ³wnie":11034,"Daj":11035,"Ġmagne":11036,"Ġzapach":11037,"Ġopracowy":11038,"Ġszep":11039,"ciep":11040,"ĠgrupÄħ":11041,"drowie":11042,"Ġopublik":11043,"Ġmatka":11044,"Ġkursu":11045,"Ġwyborach":11046,"Ġrezultacie":11047,"JÄĻzy":11048,"Ġtext":11049,"UÅ¼yj":11050,"Ġodkrywania":11051,"Ġnumbers":11052,"ĠAust":11053,"Ġprzewidywania":11054,"TwÃ³j":11055,"Ġniecier":11056,"Ġmid":11057,"Zacznij":11058,"Ġoperator":11059,"Ġlar":11060,"ĠogÃ³lnie":11061,"Ġcyf":11062,"ĠpÅĤatnoÅĽci":11063,"Ġkrypto":11064,"Ġknow":11065,"Ġpisaniu":11066,"Ġdokona":11067,"ĠpaÅĦstwo":11068,"work":11069,"very":11070,"info":11071,"Ġstack":11072,"Ġkategoria":11073,"hren":11074,"ĠHit":11075,"Ġznajom":11076,"ĠodwiedziÄĩ":11077,"ĠodwiedzajÄħcych":11078,"rin":11079,"ĠFrancisco":11080,"Ġrocznie":11081,"Ġram":11082,"Ġzapytanie":11083,"ÅĤanie":11084,"ush":11085,"Ġqui":11086,"dnicy":11087,"Ġpale":11088,"Ġkraje":11089,"ĠzrÃ³wnowaÅ¼ony":11090,"Ġotwarte":11091,"ĠPrzeksztaÅĤÄĩ":11092,"Ġbior":11093,"Ġustalenia":11094,"Ġstarannie":11095,"ĠkoÅĽ":11096,"wicza":11097,"Ġprzywi":11098,"Wz":11099,"Ġnies":11100,"Ġsatysfakcjonu":11101,"Ġrecep":11102,"Ġkrwa":11103,"Ġpoin":11104,"ĠPet":11105,"ĠStre":11106,"Ġ1896":11107,"ĠXVII":11108,"ĠowocÃ³w":11109,"dÅĤo":11110,"Ġdominu":11111,"Ġbile":11112,"ĠdoÅĽwiadczeniami":11113,"unkt":11114,"ĠksiÄħÅ¼kÄĻ":11115,"ĠradoÅĽci":11116,"OprÃ³cz":11117,"ĠwysÅĤ":11118,"ĠwystÄħpiÄĩ":11119,"db":11120,"Ġteolog":11121,"wieni":11122,"Ġleg":11123,"ĠÅĽwiÄĻta":11124,"ĠAs":11125,"Ġzaleca":11126,"Ludzie":11127,"ĠChryst":11128,"Ġlider":11129,"gine":11130,"Ġbest":11131,"CH":11132,"Go":11133,"Ġsqrt":11134,"Ġment":11135,"popular":11136,"Ġdzielenie":11137,"ĠÅ¼ywi":11138,"Ġdramaturg":11139,"DE":11140,"Ġwymienia":11141,"ĠfirmÄĻ":11142,"ĠwersjÄĻ":11143,"ĠodpowiedzialnoÅĽÄĩ":11144,"Ġmeda":11145,"ĠnastÄĻpnego":11146,"ĠodbyÅĤa":11147,"Drogi":11148,"Ġreszta":11149,"stymi":11150,"ĠwÅĤadze":11151,"Ġalbu":11152,"ĠjÄĻzyki":11153,"()`,":11154,"Ġkryter":11155,"ĠniezbÄĻdnych":11156,"Ġpowi":11157,"Ġdes":11158,"Ġwodzie":11159,"cker":11160,"ĠtrÃ³jkÄħt":11161,"ĠskontaktowaÄĩ":11162,"ĠSka":11163,"ĠprzynieÅĽÄĩ":11164,"dzonego":11165,"Ġmatematyczne":11166,"Ġobrony":11167,"WD":11168,"ĠprawdÄĻ":11169,"Ġoferty":11170,"Ġedukacyjne":11171,"Ġwynikami":11172,"Ġsensory":11173,"pole":11174,"ĠciÄħgle":11175,"ĠUÅ¼ycie":11176,"Ġsytuacja":11177,"ĠÅĤaÅĦcucha":11178,"canie":11179,"Ġpodanej":11180,"Ġchy":11181,"Ġ72":11182,"ĠSÅĤoÅĦca":11183,"Ġkoron":11184,"unter":11185,"Ġwiedza":11186,"Ġ600":11187,"terapia":11188,"Ġformalnym":11189,"Ġmelo":11190,"Ġdobrej":11191,"Ġdyrygent":11192,":\",":11193,"Ġtemp":11194,"Ġmone":11195,"Ġjazz":11196,"unki":11197,"dniu":11198,"ĠBibliote":11199,"Ġmagnety":11200,"Ġneuron":11201,"Bu":11202,"Ġrozma":11203,"Ġzaawansowanych":11204,"Type":11205,"ĠznalazÅĤ":11206,"Ġnastro":11207,"Ġrozbud":11208,"niejszego":11209,"codaw":11210,"Ġpancer":11211,"ĠtraktowaÄĩ":11212,"Ġniepokoju":11213,"kana":11214,"viÄĩ":11215,"ĠniepeÅĤ":11216,"Ġwiesz":11217,"Ġbaj":11218,"Ġzaledwie":11219,"ĠtÅĤumaczenie":11220,"Ġzgadza":11221,"Ġkwalifika":11222,"ĠURL":11223,"Å¾":11224,"Ġzle":11225,"rec":11226,"ĠaplikacjÄĻ":11227,"czajÄħc":11228,"ĠrozmÃ³w":11229,"Ġgalakty":11230,"gowania":11231,"Ġpowierzchnia":11232,"ĠochronÄĻ":11233,"can":11234,"kani":11235,"Ġfigur":11236,"Ġrodzinie":11237,"Ġczuje":11238,"ĠZbigniew":11239,"dowo":11240,"Ġ(`":11241,"ĠPomimo":11242,"ferze":11243,"ĠduÅ¼a":11244,"ransport":11245,"Ġpanie":11246,"Ġodpowiednim":11247,"Ġprost":11248,"Ġpaliwa":11249,"ujem":11250,"ĠstudiÃ³w":11251,"tin":11252,"nocy":11253,"ĠKro":11254,"bii":11255,"sÅĤowa":11256,"magania":11257,"ĠjasnoÅĽci":11258,"Ġkulinar":11259,"Ġzwery":11260,"Ġiloczy":11261,"Ġprzerwy":11262,"Ġcyfry":11263,"ĠwyjÄħtek":11264,"Ġkierowni":11265,"Ġterytoria":11266,"punk":11267,"szeni":11268,"Ġ\"\"},":11269,"struje":11270,"Ġprawdziwy":11271,"Ġpobr":11272,"Ġmodelowania":11273,"ĠzeszÅĤym":11274,"Ġocenia":11275,"Ġpru":11276,"ĠSko":11277,"ĠmÃ³wiÄħc":11278,"Å¼onÄħ":11279,"temp":11280,"ĠPana":11281,"Ġweek":11282,"owymiar":11283,"));":11284,"Ġspadku":11285,"Ġludzkie":11286,"Ġprivate":11287,"stawia":11288,"niak":11289,"Czekam":11290,"Ġben":11291,"Ġdrog":11292,"ĠprÄĻdkoÅĽciÄħ":11293,"ĠbrÄħz":11294,"ĠopcjÄħ":11295,"ĠsprzecznoÅĽci":11296,"Fir":11297,"ĠGor":11298,"Ġwodo":11299,"stety":11300,"onomii":11301,"Ġgracz":11302,"ĠSha":11303,"Ġpotrzeba":11304,"dots":11305,"ield":11306,"Ġkompa":11307,"ZauwaÅ¼":11308,"Ġproblemami":11309,"Ġwor":11310,"ĠrÄĻkÄĻ":11311,"Ġoparty":11312,"Ġsklepie":11313,"Ġzbo":11314,"ĠZak":11315,"Ġmuze":11316,"ĠzÅĤoÅ¼onÄħ":11317,"ĠzaleÅ¼noÅĽÄĩ":11318,"ĠmenedÅ¼e":11319,"ĠJavaScript":11320,"Ġuse":11321,"implementuj":11322,"Ġmonitorowania":11323,"jak":11324,"stawÄĻ":11325,"ĠzawartoÅĽÄĩ":11326,"glÄħdaÄĩ":11327,"rzonej":11328,"cum":11329,"zyka":11330,"ĠistniejÄħcych":11331,"nowu":11332,"Å¼nej":11333,"emu":11334,"split":11335,"ĠHel":11336,"Ġklientami":11337,"Ġhead":11338,"conych":11339,"ĠMartin":11340,"53":11341,"ĠuÅĤa":11342,"ĠpolitykÄĻ":11343,"Ġpraktyczne":11344,"Ġuznanie":11345,"cm":11346,"Ġnieprzy":11347,"ĠJednÄħ":11348,"Ġpowoli":11349,"ĠChcÄĻ":11350,"Ġrozwojem":11351,"ÅĤabym":11352,"szonej":11353,"ĠMÅĤo":11354,"ĠznacznÄħ":11355,"Ġuczestnik":11356,"Ġdobrostan":11357,"dujÄħ":11358,"ĠczÄĻÅĽciej":11359,"ĠefektywnoÅĽÄĩ":11360,"Ġmistrz":11361,"Ġekskluzy":11362,"Ġprzedmiot":11363,"ĠpoÅĤÄħczone":11364,"sorted":11365,"Istnieje":11366,"Ġminera":11367,"ĠnastÄĻpujÄħco":11368,"wrÃ³Äĩ":11369,"Ġznik":11370,"Ġopen":11371,"UtwÃ³rz":11372,"Ġubo":11373,"Ġrozdzie":11374,"Ġwaka":11375,"dium":11376,"ĠzawierajÄħcy":11377,"150":11378,"ĠKen":11379,"dows":11380,"ĠdÅºwiÄĻki":11381,"hone":11382,"ciÅĽnie":11383,"Ġataku":11384,"cjonari":11385,"Ġtable":11386,"gady":11387,"Ġzasoba":11388,"Ġmetafor":11389,"Ġkatastrof":11390,"ĠBrak":11391,"ĠpublicznoÅĽÄĩ":11392,"Ġgwiaz":11393,"CD":11394,"xi":11395,"ĠFace":11396,"cili":11397,"Ġwymier":11398,"Å¼eni":11399,"ĠÅģu":11400,"];":11401,"katoli":11402,"UÅ¼ywajÄħc":11403,"ĠÅĽrodku":11404,"ĠziemiÄĻ":11405,"Ġwyzwaniem":11406,"Ġ1903":11407,"spira":11408,"ĠuÅĤatwiÄĩ":11409,"Ġtransakcji":11410,"Pre":11411,"Ġpeople":11412,"ĠwygenerowaÄĩ":11413,"Ġdomy":11414,"ĠbudowÄĻ":11415,"Ġutrzymaniu":11416,"Ġiteracji":11417,"lean":11418,"ĠgÅĤÄĻbokoÅĽci":11419,"ĠmiesiÄħca":11420,"ĠpowyÅ¼sze":11421,"ĠzbÄĻd":11422,"caÅĤ":11423,"Ġszeroki":11424,"raÅ¼":11425,"ĠAla":11426,"ĠNowego":11427,"kowska":11428,"ĠznaczÄħcych":11429,"Ġukierun":11430,"Ġwypa":11431,"Ġtoksy":11432,"Ġwere":11433,"Ġwysokim":11434,"Ġocena":11435,"kazaÅĤa":11436,"Ġtempie":11437,"trol":11438,"Ġnaturalnym":11439,"ĠpozwoliÄĩ":11440,"Ġdwutlenku":11441,"Ġtenisista":11442,"cisz":11443,"Ġkamieni":11444,"znaj":11445,"Ġpianista":11446,"ĠpiÄĻkna":11447,"On":11448,"miczne":11449,"Ġgnie":11450,"Inte":11451,"Ġzdrowotnych":11452,"Ġiloraz":11453,"sowe":11454,"ĠokreÅĽlonÄħ":11455,"ĠON":11456,"Ġwalu":11457,"join":11458,"ĠByÅĤa":11459,"Ġchemik":11460,"ĠStanisÅĤawa":11461,"ĠAtlan":11462,"Ġparlament":11463,"bla":11464,"Gra":11465,"szli":11466,"Ġprzetwo":11467,"Ġgmi":11468,"Ġlike":11469,"Ġwykonaw":11470,"Najlep":11471,"Ġprostopad":11472,"ĠMusimy":11473,"ĠWartoÅĽÄĩ":11474,"Ġwarunkiem":11475,"Ġsekrety":11476,"Ġewentu":11477,"ĠwiÄĻÅº":11478,"ĠwÅĤadz":11479,"ĠprzyczyniÄĩ":11480,"ĠLondynie":11481,"obi":11482,"Ġuroczy":11483,"ĠobsÅĤugiwaÄĩ":11484,"Ġposzukiwaniu":11485,"Ġ{}":11486,"ĠRadzie":11487,"Ġits":11488,"Ġstatystyki":11489,"Ġarystokrata":11490,"ĠmeksykaÅĦski":11491,"ĠtÅĤa":11492,"ĠwÅĤÄħczenie":11493,"ĠkÅĤa":11494,"Ġhrab":11495,"ĠobsÅĤugÄĻ":11496,"^(-":11497,"Ġzdra":11498,"Ġruchy":11499,"ĠWszystkie":11500,"czak":11501,"ĠzauwaÅ¼y":11502,"telu":11503,"ĠZwiÄĻk":11504,"ĠbÃ³lu":11505,"czkÄħ":11506,"Ġrola":11507,"dol":11508,"Ġograniczone":11509,"Ġareszt":11510,"Ġcykli":11511,"iami":11512,"Ġleka":11513,"Ġorgan":11514,"Ġ1895":11515,"ĠkreatywnoÅĽci":11516,"opo":11517,"Ġtraktu":11518,"kaÅ¼":11519,"Ġczytania":11520,"ĠpoÅĤÄħczeÅĦ":11521,"ĠsÅĤup":11522,"Ġspowodowane":11523,"Ġmen":11524,"Ġbezpieczne":11525,"ĠokrÄĻt":11526,"Ġtorowy":11527,")**:":11528,"Å¼bie":11529,"ĠBry":11530,"wanego":11531,"ĠczujÄĻ":11532,"ĠNiemniej":11533,"ĠzarzÄħdzaniu":11534,"Ġgwaran":11535,"dniÄħ":11536,"ĠdowÃ³dz":11537,"parta":11538,"ĠWolnych":11539,"ĠKrÃ³l":11540,"Ġszanse":11541,"ĠTor":11542,"ĠZgodnie":11543,"ĠszerokoÅĽci":11544,"romi":11545,"Ġzazna":11546,"PoczÄħ":11547,"Ġsystemach":11548,"ĠprzeciÄĻcia":11549,"fel":11550,"Ġsymetrii":11551,"minal":11552,"ĠABC":11553,"ĠZachÄĻ":11554,"Ġswej":11555,"Ġcharak":11556,"ĠwzmocniÄĩ":11557,"Ġatom":11558,"Ġfali":11559,"ĠLektury":11560,"ĠwÅĤÄħczyÄĩ":11561,"czycy":11562,"ĠdzielÄħ":11563,"Ġdomowych":11564,"ĠrÃ³Å¼norodnoÅĽÄĩ":11565,"ĠrÄħk":11566,"bem":11567,"Ġshe":11568,"ĠkÅĤam":11569,"ĠFried":11570,"Ġedycji":11571,"ĠrozwaÅ¼enie":11572,"ĠAngeles":11573,"Ġjedynym":11574,"ĠZwiÄħzku":11575,"ĠpomysÅĤa":11576,"zujÄħcy":11577,"ĠPrzyj":11578,"fore":11579,"Ġfizyce":11580,"Ġefekty":11581,"Ġogromny":11582,"Write":11583,"ĠpotÄĻÅ¼ne":11584,"Ġlitewski":11585,"Ġprezentu":11586,"example":11587,"ĠponiÅ¼szych":11588,"walu":11589,"Ġtechnika":11590,"Ġbierze":11591,"Ġterro":11592,"Ġnon":11593,"Ġefektu":11594,"Ġ1898":11595,"niecznie":11596,"ink":11597,"uch":11598,"ĠkrÃ³tkie":11599,"dzina":11600,"ĠPom":11601,"pid":11602,"ĠTeat":11603,"Ġekspres":11604,"Ġotoczenia":11605,"Ġchoroba":11606,"Ġzainstal":11607,"Ġsamolotu":11608,"miarÃ³w":11609,"Ġcukier":11610,"Ġmetropo":11611,"jektuj":11612,"Ġzebra":11613,"Ġkoncepcje":11614,"Ġkoszykarka":11615,"Ġskomplikowane":11616,"Ġbitwy":11617,"ica":11618,"ĠuksztaÅĤt":11619,"niÄĻciem":11620,"derni":11621,"Ġpunktami":11622,"Ġjednostka":11623,"Ġkategorie":11624,"Ġpotwierdza":11625,"verage":11626,"StwÃ³rz":11627,"ĠoddziaÅĤ":11628,"puje":11629,"Ġkonto":11630,"Ġszybki":11631,"ĠwnÄĻ":11632,"bytu":11633,"uklides":11634,"ĠpowstaÅĤy":11635,"Ġintrygu":11636,"ĠwÄħtroby":11637,"wanej":11638,"Ġpodziel":11639,"Ġsec":11640,"ĠPal":11641,"Ġ38":11642,"kular":11643,"ĠHam":11644,"Ġniezapom":11645,"Ġliteracki":11646,"ĠszukaÄĩ":11647,"trzymy":11648,"ĠistnieÄĩ":11649,"Ġzasada":11650,"ĠrozwinÄħÄĩ":11651,"Ġzdu":11652,"ĠbogatÄħ":11653,"ĠÅĽwiadomoÅĽÄĩ":11654,"ĠbieÅ¼Äħco":11655,"ÄĹ":11656,"Ġpoto":11657,"Ġtrafi":11658,"ĠtemperaturÄĻ":11659,"ĠÅ¼eglarz":11660,"Hello":11661,"Spo":11662,"zowane":11663,"Ġcelami":11664,"czynnik":11665,"ĠzewnÄĻtrznych":11666,"krze":11667,"strÃ³w":11668,"lizujÄħc":11669,"Ġangielskim":11670,"Ġnawo":11671,"Ġryce":11672,"ĠProdu":11673,"ĠInsta":11674,"Ġkonkretny":11675,"Ġprzyjm":11676,"Ġdzielnicy":11677,"Ġmiejskich":11678,"Tech":11679,"ĠnastÄĻpne":11680,"Ġzmy":11681,"ĠHow":11682,"Ġane":11683,"ĠurzÄħdzenie":11684,"JednakÅ¼e":11685,"ĠciepÅĤo":11686,"Ġfaktu":11687,"%)":11688,"Ġuog":11689,"koju":11690,"Å¼aÄĩ":11691,"Ġprofesor":11692,"ĠpoÅĽrednictwem":11693,"IT":11694,"Ġdist":11695,"roÅĽci":11696,"Ġwidz":11697,"Ġsztuka":11698,"Ġmiastach":11699,"Ġwolne":11700,"Ġbloku":11701,"ĠNarodowego":11702,"Ġosobami":11703,"*.":11704,"nania":11705,"Ġworld":11706,"rzyÅĤa":11707,"Ġrow":11708,"Ġ170":11709,"ĠWojska":11710,"Å¼ny":11711,"dian":11712,"ĠpozostawiajÄħc":11713,"Ġzbadania":11714,"ĠniezaleÅ¼ne":11715,"Ġspecyficznych":11716,"ĠPozosta":11717,"Ġnacisk":11718,"ĠRepubliki":11719,"owaÅĤeÅĽ":11720,"Ġpik":11721,"._":11722,"Ã³wi":11723,"ĠzaburzeÅĦ":11724,"niany":11725,"logicznym":11726,"Ġbrakuje":11727,"ĠumoÅ¼liwiajÄħ":11728,"ĠgÅĤowÄħ":11729,"Ġkrew":11730,"title":11731,"Ġdodaj":11732,"ĠstanÃ³w":11733,"Ġkwadratowe":11734,"Ġuszkodzenia":11735,"Ġodniesienia":11736,"ycho":11737,"Ġorganizmu":11738,"Ġposiadania":11739,"Ġtrue":11740,"szonych":11741,"owaliÅĽmy":11742,"Ġprowadzenia":11743,"ĠosobowoÅĽÄĩ":11744,"Ġwyrazu":11745,"Ġdalszej":11746,"YY":11747,"Zna":11748,"resy":11749,"szewski":11750,"ĠÅĽwiet":11751,"Ġwycof":11752,"cono":11753,"ĠPortu":11754,"ĠpowiÄĻk":11755,"Ġang":11756,"Ġtrwania":11757,"ĠksiÄĻÅ¼ni":11758,"ĠprawosÅĤawny":11759,"ĠogÃ³":11760,"Ġregula":11761,"ĠpowaÅ¼ne":11762,"ĠuzaleÅ¼":11763,"Ġdoprac":11764,"ĠPru":11765,"strowaÄĩ":11766,"Ġcieszy":11767,"ĠÅĽwietny":11768,"ĠdodatniÄħ":11769,"jenie":11770,"czyÅĦski":11771,"uri":11772,"ĠNarodowy":11773,"Class":11774,"Ġidzie":11775,"lizuje":11776,"Ġetni":11777,"ĠEli":11778,"szaÅĤ":11779,"Ġtechniczne":11780,"ĠwszechÅĽwiata":11781,"Ġoptymal":11782,"rame":11783,"ÅĽwiÄĻ":11784,"Ġotrzymy":11785,"ĠWarszawy":11786,"ĠwysiÅĤku":11787,"Ġnaprawi":11788,"dziÅĤem":11789,"czymi":11790,"Ġserc":11791,"ĠzmiennoÅĽci":11792,"ĠpiÄĻkno":11793,"Ġzmianami":11794,")}":11795,"nedy":11796,"Ġobywateli":11797,"Ġkot":11798,"Ġpropa":11799,"Ġtajemnicy":11800,"ĠnawiÄħzy":11801,"ĠzmarÅĤ":11802,"Ġolimpijczyk":11803,"Ġprawdopodobne":11804,"$:":11805,"Ġrywa":11806,"Ġpodejrz":11807,"Ġwarstw":11808,"Ġstrategia":11809,"ĠnaleÅ¼a":11810,"ĠstÄĻÅ¼enia":11811,"pen":11812,"czÄħce":11813,"ĠsÅĤuÅ¼yÄĩ":11814,"ĠprzeszÅĤoÅĽÄĩ":11815,"ĠlojalnoÅĽci":11816,"dowa":11817,"lijska":11818,"Ġcud":11819,"niÄĻto":11820,"Ġrekomenda":11821,"ĠwÅĤasny":11822,"ĠBydgo":11823,"Ġdokument":11824,"onki":11825,"Ġodleg":11826,"zuÅĤ":11827,"Ġwolontar":11828,"ĠfabuÅĤy":11829,"ĠKalifor":11830,"ĠPis":11831,"Ġwysoki":11832,"Ġuczniom":11833,"rzystajÄħc":11834,"ĠposiadajÄħ":11835,"Ġorganizacja":11836,"Ġwzrostem":11837,"ÅĤÃ³Å¼my":11838,"Ġwul":11839,"ĠprostÄħ":11840,"Ġfizycznego":11841,"liknij":11842,"vers":11843,"Ġtj":11844,"ÅĤoÅ¼one":11845,"ĠÅ¼aden":11846,"Ġkwadratowego":11847,"Ġrozmowa":11848,".'":11849,"Ġpoez":11850,"cajÄħ":11851,"Ġrucho":11852,"via":11853,"Ġodse":11854,"Ġobliczania":11855,"ĠNiemcze":11856,"bol":11857,"Ġujawnia":11858,"WprowadziÅĤem":11859,"Ġdocze":11860,"giej":11861,"Ġ1899":11862,"ĠprzepisÃ³w":11863,"Ġtechnicznych":11864,"Ġprotoko":11865,"iach":11866,"ĠHistoria":11867,"Ġnagle":11868,"ĠegzaminÃ³w":11869,"ecu":11870,"iana":11871,"Ġmiastem":11872,"ĠZjednoczone":11873,"ĠNiemczech":11874,"97":11875,"arp":11876,"Ġ[\"":11877,"ĠwaÅ¼nÄħ":11878,"Ġimpu":11879,"RE":11880,"Ġegip":11881,"ĠWyra":11882,"Ġnauka":11883,"Ġmodulo":11884,"morfi":11885,"Ġmalowni":11886,"dziÅĤy":11887,"ĠprzytÅĤacza":11888,"Ġpobu":11889,"ĠJord":11890,"Ġustal":11891,"mentem":11892,"Ġnieba":11893,"Ġbuddy":11894,"Ġdroga":11895,"ĠkwiatÃ³w":11896,"gory":11897,"czorem":11898,"niesienia":11899,"ĠpokazujÄħ":11900,"Ġpreferencje":11901,"Ġkwadratowy":11902,"Ġowoce":11903,"Ġsztuk":11904,"Ġpoprawia":11905,"400":11906,"Ġskraj":11907,"ĠprodukcjÄĻ":11908,"ĠmoduÅĤ":11909,"Ġsaldo":11910,"ĠLektur":11911,"amount":11912,"Ġnielini":11913,"ĠnajczÄĻst":11914,"ĠokrÄĻtÃ³w":11915,"Ġmocno":11916,"Ġzawodowe":11917,"Th":11918,"Ġzaa":11919,"ĠniemoÅ¼li":11920,"suwa":11921,"Ġkulturze":11922,"trzebu":11923,"Ġwydarzeniach":11924,"ĠParyÅ¼a":11925,"ĠperspektywÄĻ":11926,"lonym":11927,"ĠJane":11928,"ĠrÃ³Å¼norodnoÅĽci":11929,"lektury":11930,"tness":11931,"ĠpÅĤynnoÅĽÄĩ":11932,"nicze":11933,"Ġimiona":11934,"skaÅº":11935,"stujÄħc":11936,"Ġintelektu":11937,"ĠzwracaÄĩ":11938,"System":11939,"ĠHTML":11940,"ĠfrazÄĻ":11941,"CaÅĤkowita":11942,"ierÄĻ":11943,"Ġfizjo":11944,"Ġnauce":11945,"Ġeksplor":11946,"ĠTym":11947,"Ġpomimo":11948,"ĠĠĠčĊ":11949,"iuszy":11950,"Ġpubliczne":11951,"ĠTrzy":11952,"stosuj":11953,"znawca":11954,"Ġaspekt":11955,"ĠstaroÅ¼ytnych":11956,"ĠpojÄĻ":11957,"ĠmaÅĤa":11958,"owice":11959,"ĠWiktor":11960,"point":11961,"ĠâĢľ":11962,"Ġbudowaniu":11963,"Item":11964,"Ġoby":11965,"Ġhrabia":11966,"terii":11967,"ĠobjÄĻtoÅĽÄĩ":11968,"ĠPrac":11969,"ĠDÅĤugo":11970,"ĠOpera":11971,"Ġthese":11972,"ĠpowinieneÅĽ":11973,"Be":11974,"inf":11975,"ĠÅĽrÃ³d":11976,"ÅĤÄħczenie":11977,"Ġ{'":11978,"ĠIndia":11979,"ĠgÅĤowÄĻ":11980,"wkÄĻ":11981,"Ġprzesta":11982,"ĠstopÄĻ":11983,"Ġposiadanie":11984,"grup":11985,"ĠMiasta":11986,"Ġrejonie":11987,"Ġsch":11988,"Ġdx":11989,"Ġstrukturze":11990,"Ġpodlega":11991,"ĠArchi":11992,"ĠRysz":11993,"Ġalkoho":11994,"ĠFour":11995,"ĠwojnÄĻ":11996,"Ġnums":11997,"Ġstarszych":11998,"Ġ1890":11999,"Ġskrypt":12000,"ĠSpa":12001,"ĠGrecji":12002,"ĠodbyÅĤ":12003,"ĠobjÄĻtoÅĽci":12004,"ged":12005,"Ġinduk":12006,"ĠprzyjÄĻcie":12007,"ĠDr":12008,"ĠporÃ³wnaÄĩ":12009,"Ġnegatywne":12010,"PT":12011,"Ġzwal":12012,"ĠskutecznoÅĽci":12013,"Ġcodzienne":12014,"Ġzaufanie":12015,"ĠDaniel":12016,"idy":12017,"ĠpojawiÄĩ":12018,"Ġwykorzystywana":12019,"Ġnaturalny":12020,"ĠChciaÅĤbym":12021,"`.<|":12022,"Ġrozmawia":12023,"ĠodkryÅĤ":12024,"Ġtereny":12025,"âĪļ":12026,"iew":12027,"ĠMaz":12028,"ĠCity":12029,"Ġcharakteryzuje":12030,"Ġhipotezy":12031,"ĠÂł":12032,"lock":12033,"ĠSku":12034,"ĠGrzego":12035,"Ġmigra":12036,"drat":12037,"Ġwyspie":12038,"ĠutwÃ³r":12039,"Ġcieplarnianych":12040,"Ġcmenta":12041,"ĠdobrÄħ":12042,"Ġnumber":12043,"Ġcentralnej":12044,"Dy":12045,"cpp":12046,"Ġostre":12047,"ĠnarzÄħ":12048,"Ġzacznij":12049,"wagÄĻ":12050,"hibi":12051,"Ġpermu":12052,"ĠpomysÅĤem":12053,"Ġzamachu":12054,"lea":12055,"wicy":12056,"nÄĻÅĤo":12057,"Ġautonomi":12058,"ĠsÅĤoneczne":12059,"yee":12060,"Ġinfrastruktury":12061,"ĠKrÃ³lestwa":12062,"pry":12063,"Ġsprowa":12064,"ĠWyjÅĽcie":12065,"zdr":12066,"Pow":12067,"ĠÅĤatw":12068,"ĠdostarczaÄĩ":12069,"ĠHans":12070,"Ġplanowanie":12071,"gÅĤÃ³w":12072,"ire":12073,"Ġkiedykolwiek":12074,"ĠlÄĻku":12075,"Ġkorzystne":12076,"Ġepoki":12077,"bet":12078,"mÄħ":12079,"anÄĻ":12080,"Ġmer":12081,"Ġniesp":12082,"ĠIl":12083,"Ġwah":12084,"tract":12085,"nig":12086,"ĠWysp":12087,"ĠwskazujÄħ":12088,"ĠkoÅĽcioÅĤa":12089,"Ġcykl":12090,"ĠpomaraÅĦ":12091,"ĠJosÃ©":12092,"kg":12093,"wione":12094,"bom":12095,"Ġboj":12096,"Ġnauczycieli":12097,"ciach":12098,"Ġgor":12099,"ĠCelem":12100,"ĠstanowiÄĩ":12101,"Ġdobrego":12102,"Ġetapie":12103,"hrenhe":12104,"Ġzmo":12105,"ĠObie":12106,"ĠNiektÃ³rzy":12107,"ziono":12108,"niÅ¼ej":12109,"ĠabyÅĽ":12110,"dzaj":12111,"ĠGeo":12112,"ĠczÄħstek":12113,"Ġ$.":12114,"ĠJaro":12115,"Ġczekola":12116,"ChociaÅ¼":12117,"Ġagre":12118,"ĠAmeryka":12119,"ĠuÅ¼ywanie":12120,"ĠrozpoczÄĻcie":12121,"ĠUniwersytet":12122,"Ġreklamy":12123,"manna":12124,"target":12125,"Ġwszechstron":12126,"ĠSÅĤowa":12127,"ĠBolesÅĤaw":12128,"Ġalfabe":12129,"Tekst":12130,"Ġskutek":12131,"Ġzbadanie":12132,"ĠdostarczajÄħc":12133,"ĠscenÄĻ":12134,"Ġdeka":12135,"ĠtechnologiÄĻ":12136,"Ġidentyfik":12137,"Ġedukacyjnych":12138,"Ġjakichkolwiek":12139,"ĠFred":12140,"ĠrozwiÄħzaniem":12141,"ĠdopeÅĤ":12142,"ĠpÃ³ÅĤnocy":12143,"wro":12144,"Ġzwrac":12145,"Ġmatematycznej":12146,"czonymi":12147,"ĠczÄĻÅĽciowo":12148,"ChciaÅĤbym":12149,"gwa":12150,"sol":12151,"Ġpomno":12152,"ĠTest":12153,"ĠLudzie":12154,"Ġdyskre":12155,"Ġczele":12156,"ches":12157,"ĠzaÅĤogi":12158,"Ġalternatywnych":12159,"owce":12160,"rektor":12161,"ĠÅĽlÄħ":12162,"Ġfiction":12163,"Ġpiz":12164,"liwego":12165,"Ġopcja":12166,"Ġaplikacja":12167,"ĠchiÅĦski":12168,"Ġwykresy":12169,"Ġzarys":12170,"arne":12171,"ĠdoprowadziÅĤo":12172,"owcy":12173,"rozo":12174,"gel":12175,"side":12176,"ĠzaÅĤoÅ¼eÅĦ":12177,"ide":12178,"Ġprzetest":12179,"ĠKing":12180,"letnia":12181,"?âĢ¦":12182,"ujÄħce":12183,"ĠÅļrednia":12184,"Ġsilnie":12185,"ĠAlternatywnie":12186,"CiÄħg":12187,"ĠWiÄĻc":12188,"Ġprzypisy":12189,"sig":12190,"ĠÅĽcieÅ¼kÄĻ":12191,"ĠpogÅĤÄĻ":12192,"Ġhisto":12193,"logicznÄħ":12194,"Ġ1897":12195,"ĠThomp":12196,"ĠGrupa":12197,"Ġdifferen":12198,"ÑĤ":12199,"ĠSou":12200,"Ġstwierdzono":12201,"Ġsystemem":12202,"Ġkorelacja":12203,"ĠBernar":12204,"Ġskutkuje":12205,"ĠMona":12206,"sujÄħc":12207,"ĠjÄĻzykach":12208,"ĠwspÃ³lnych":12209,"ĠZbadaj":12210,"cjonalne":12211,"ĠuwaÅ¼ane":12212,"Ġmotywy":12213,"Ġprzebiega":12214,"Ġutrudnia":12215,"Ġzareje":12216,"ĠPomaga":12217,"zujÄĻ":12218,"ĠInne":12219,"Ġminima":12220,"Ġuzyski":12221,"Ġdemokra":12222,"Ġbrzeg":12223,"Ġpoetka":12224,"Ġzastrze":12225,"ĠsiÄĻga":12226,"skach":12227,"pieÅ¼":12228,"ĠÅ¼o":12229,"ĠzaczÄĻÅĤy":12230,"Ġkara":12231,"prawdopod":12232,"rop":12233,"Ġ1892":12234,"ĠrzÄħdÃ³w":12235,"Ġdale":12236,"Ġczasy":12237,"Ġfarma":12238,"ĠzmniejszajÄħc":12239,"ĠniecierpliwoÅĽci":12240,"Ġbiur":12241,"Ġkonsekwent":12242,"ben":12243,"Ġjava":12244,"Inter":12245,"ĠprzyjemnoÅĽciÄħ":12246,"ĠzasÅĤu":12247,"ced":12248,"kowskiego":12249,"Ġopartych":12250,"Ġstatystyczne":12251,"MA":12252,"chii":12253,"puter":12254,"sora":12255,"ĠJohnson":12256,"pmatrix":12257,"Ġzegar":12258,"ĠsprawiajÄħc":12259,"ĠPubli":12260,"robo":12261,"jaz":12262,"Ġznaczne":12263,".\"<|":12264,"ĠÅĽrodowisk":12265,"Ġpodstawowy":12266,"Ġmierzy":12267,"Ġdodatnie":12268,"ĠBadania":12269,"liwym":12270,"ÅĤamia":12271,"Ġbiblio":12272,"Ġchorego":12273,"Ġwydania":12274,"1000":12275,"ĠSier":12276,"Ġszkod":12277,"ĠodstajÄħcych":12278,"Ġsensie":12279,"ĠchÅĤon":12280,"ĠmuzykÄĻ":12281,"Ġnieoczeki":12282,"ĠzgÅĤasza":12283,"Ġnow":12284,"ĠLw":12285,"Ġprojektami":12286,"____":12287,"ĠzakoÅĦczenia":12288,"ponuj":12289,"Ġrole":12290,"Ġ37":12291,"Ġchemicznych":12292,"das":12293,"Ġrezy":12294,"Ġpostaciami":12295,"http":12296,"Ġpracownik":12297,"ĠwielkÄħ":12298,"ĠuÅ¼ywajÄħ":12299,"Ju":12300,"ĠAB":12301,"board":12302,"stÄĻpuje":12303,"ĠChce":12304,"Ġkapelu":12305,"ĠniewÅĤaÅĽci":12306,"cago":12307,"Ġnaukowe":12308,"ĠÅ¼adnej":12309,"Ġfollow":12310,"Ġprzeno":12311,"ĠprzemyÅĽlenia":12312,"Ġporady":12313,"Ġzakupy":12314,"ĠwojewÃ³dztwie":12315,"Ġmedycyny":12316,"ĠrumuÅĦski":12317,"!âĢĿ":12318,"ume":12319,"ĠOfi":12320,"Ġryzykiem":12321,"Ġ1894":12322,"Ġznajdujemy":12323,"ĠpomagajÄħc":12324,"Ġzamord":12325,"ĠJakub":12326,"Ġznowu":12327,"Inne":12328,"ĠobsÅĤuguje":12329,"ranie":12330,"Ġwer":12331,"licy":12332,"szyb":12333,"ĠUkrai":12334,"Ġpodejmowaniu":12335,"kowanych":12336,"znÄĻ":12337,"ĠpÃ³l":12338,"duj":12339,"gramy":12340,"cted":12341,"poniewaÅ¼":12342,"Ġwina":12343,"ĠWyobraÅº":12344,"Ġmedycznych":12345,"ĠUnited":12346,"Ġzdal":12347,"Ġwielokrotnie":12348,"ĠludzkoÅĽci":12349,"ĠkÄħta":12350,"ĠobowiÄħzki":12351,"standard":12352,"Ġpracodaw":12353,"ween":12354,"tha":12355,"random":12356,"ĠInforma":12357,"Ġsprzedaw":12358,"ĠElÅ¼bie":12359,"ĠÅļwiata":12360,"jazd":12361,".).":12362,"tero":12363,"Ġskup":12364,"ĠKonstytu":12365,"ĠtÄĻtniÄħ":12366,"Plan":12367,"Ġhu":12368,"nujÄħc":12369,"Ġzwrotu":12370,"Ġzwolen":12371,"Ġpobiera":12372,"Ġwyw":12373,"ĠÅ¼ela":12374,"Ġograniczenie":12375,"rough":12376,"ĠTat":12377,"ĠmogÅĤo":12378,"sady":12379,"ĠPaÅĦstw":12380,"ĠPrezyd":12381,"ĠZmieniÅĤem":12382,"ĠgwaÅĤtow":12383,"Pu":12384,"ĠVal":12385,"Ġmaszynowe":12386,"Ġdynastii":12387,"ĠosiÄħgniÄĻcie":12388,"glÄħdy":12389,"Ġwidoczne":12390,"Ġposzukiwania":12391,"ĠporozmawiaÄĩ":12392,"ĠApple":12393,"Å¼noÅĽÄĩ":12394,"Ġzalet":12395,"rano":12396,"Fil":12397,"fix":12398,"ĠCesar":12399,"wymi":12400,"**,":12401,"Ġkilkoma":12402,"Ġemocjonalnego":12403,"Ġinnowacyjne":12404,"Ġterapeu":12405,"Ġson":12406,"ĠWskaÅ¼":12407,"ĠliÅĽci":12408,"ĠogrÃ³d":12409,"Ġtrasy":12410,"Ġobecny":12411,"ĠradoÅĽÄĩ":12412,"Ġdotarcie":12413,"ĠPortuga":12414,"ione":12415,"formy":12416,"Ġ99":12417,"Ġgaze":12418,"post":12419,"Ġcien":12420,"Ġmecz":12421,"lumn":12422,"skowaÄĩ":12423,"Ġspecjalnych":12424,"ĠuÅ¼ytk":12425,"logiczna":12426,"cale":12427,"Ġsystematy":12428,"prime":12429,"ĠodwaÅ¼":12430,"Ġekspozy":12431,"Ġ1889":12432,"ĠâīĪ":12433,"().":12434,"cek":12435,"Ġprzeszuki":12436,"ĠmajÄħce":12437,"ĠdzieÅĤo":12438,"ĠAlgoryt":12439,"ĠZwiÄħzek":12440,"Ġdorad":12441,"mplo":12442,"ĠzachÃ³d":12443,"Ġwykrywania":12444,"Ġscenariusz":12445,"ĠnieruchomoÅĽci":12446,"ĠniecierpliwoÅĽciÄħ":12447,"\";":12448,"ĠwschÃ³d":12449,"Ġ</":12450,"Ġwielkich":12451,"Ġ1893":12452,"ĠWene":12453,"ĠsÅĤowniku":12454,"Ġdefiniuje":12455,"biej":12456,"Ġmiary":12457,"ĠzorganizowaÄĩ":12458,"RI":12459,"html":12460,"ĠÄħ":12461,"ĠUwaÅ¼":12462,"Ġzachowaniu":12463,"ĠuzyskaÅĤ":12464,"Ġosiem":12465,"Ġawary":12466,"fre":12467,"Ġzloka":12468,"}$.<|":12469,"ĠpÅĤaszczyÅºnie":12470,"ĠpuÅĤkownik":12471,"ĠoprÃ³cz":12472,"Ġlas":12473,"ĠFeli":12474,"mega":12475,"aniec":12476,"Ġprostego":12477,"ĠzasugerowaÄĩ":12478,"Ġbeen":12479,"Ġgranicach":12480,"jnym":12481,"ĠpÃ³j":12482,"Ġgrupami":12483,"ĠAra":12484,"ĠCal":12485,"Ġskupienie":12486,"Ġkolonia":12487,"Ġrekord":12488,"ĠbyÅĤem":12489,"ĠpracowaÅĤ":12490,"ĠszerokoÅĽÄĩ":12491,"Ġskomplikowanych":12492,"Wiel":12493,"Ġ52":12494,"ĠKatarzy":12495,"Ġisinstance":12496,"ĠomÃ³wie":12497,"Ġrock":12498,"owinie":12499,"ĠpodstawowÄħ":12500,"Ġwykresu":12501,"udo":12502,"error":12503,"ĠprzyjÄĻcia":12504,"ĠopiniÄĻ":12505,"Ġpracuje":12506,"cher":12507,"ĠpoczÄħtkowe":12508,"Ġlogiczne":12509,"ĠAkademii":12510,"Ġserwi":12511,"Ġwolny":12512,"Ġ1891":12513,"cane":12514,"ins":12515,"Ġ49":12516,"ĠstraÅ¼":12517,"ĠmiesiÄħc":12518,"Ġelektryczne":12519,"ĠprzychodÃ³w":12520,"Ġsmartf":12521,"Ġzapisy":12522,"maÅĤ":12523,"ĠDia":12524,"Ġpredyk":12525,"ĠwyjaÅĽni":12526,"ĠFesti":12527,"ĠszczÄĻÅĽcia":12528,"ditional":12529,"ĠnastÄĻpuje":12530,"Ġtelewizyjny":12531,"rzewa":12532,"ĠLee":12533,"ĠUniversi":12534,"password":12535,"own":12536,"owskiej":12537,"ĠSej":12538,"ĠdziÄĻkujÄĻ":12539,"Ġswojemu":12540,"Ġsercu":12541,"Ġzawodowych":12542,"ĠpotrzebujÄħ":12543,"Ġdomem":12544,"Ġwym":12545,"ĠHy":12546,"Ġsesji":12547,"dzonej":12548,"ĠJuÅ¼":12549,"ĠuznaÄĩ":12550,"};":12551,"dziÅĤo":12552,"ĠMogÄĻ":12553,"ĠnierÃ³wnoÅĽÄĩ":12554,"ĠPomoÅ¼e":12555,"Å«":12556,"czest":12557,"Ġbudowanie":12558,"Ġzasadzie":12559,"Ġszacu":12560,"Ġpanu":12561,"Ġzjedno":12562,"kÄħt":12563,"ĠhaÅĤa":12564,"Ġulega":12565,"ĠSE":12566,"ĠMin":12567,"ĠKol":12568,"ĠponiÅ¼szego":12569,"ĠdaÅĤ":12570,"Ġniezna":12571,"Ġbutel":12572,"ĠogÃ³lnych":12573,"Ġzaprojektowany":12574,"ĠjabÅĤek":12575,"Ġmodli":12576,"Ġmeczu":12577,"ĠsprawiajÄħ":12578,"Ġsymbol":12579,"ĠbÄĻdÄħc":12580,"Ġsilny":12581,"Ġpomocniczy":12582,"ĠPowin":12583,"ĠThis":12584,"=\\":12585,"nieÄĩ":12586,"arda":12587,"ĠNowej":12588,"ĠRie":12589,"ĠPodziel":12590,"rzonego":12591,"Ġdowolnej":12592,"Ġradzenia":12593,"ĠZespÃ³ÅĤ":12594,"Ġatrakcji":12595,"ĠprÃ³buje":12596,"owol":12597,"Ġpowstrzy":12598,"znaw":12599,"ĠdotyczÄħcy":12600,"Ġkurs":12601,"ĠspostrzeÅ¼eÅĦ":12602,"Ġwynagrodzenie":12603,"ĠPartii":12604,"ĠPiÅĤ":12605,"ĠMieczy":12606,"Ġdiety":12607,"Ġdana":12608,"ref":12609,"ĠHal":12610,"Ġnota":12611,"Ġodnale":12612,"ĠumÃ³w":12613,"nalne":12614,"Ġ800":12615,"ĠgranicÄĻ":12616,"Ġpopularnych":12617,"ĠuczuÄĩ":12618,"ĠsygnaÅĤÃ³w":12619,"ĠkrÄħÅ¼":12620,"bieg":12621,"Ġpodobny":12622,"ican":12623,"Ġzjawisko":12624,"niusz":12625,"Ġocenie":12626,"ĠdrogÄħ":12627,"Ġwilgo":12628,"ury":12629,"walne":12630,"ĠpeÅĤno":12631,"Ġwidok":12632,"Ġogrodu":12633,"Ġarab":12634,"load":12635,"Ġtalen":12636,"ĠOgÃ³l":12637,"ĠteraÅº":12638,"ĠPort":12639,"ĠBiaÅĤ":12640,"ĠuÅ¼ywamy":12641,"Ġoczu":12642,"Ġwybi":12643,"przeciw":12644,"ĠnoszÄħ":12645,"ĠwyÅ¼szy":12646,"ĠoszaÅĤamia":12647,")`":12648,"ip":12649,"Ġbisku":12650,"rzÄĻsie":12651,"ĠMaÅĤgo":12652,"ging":12653,"ĠcaÅĤa":12654,"Ġhonor":12655,"graficznych":12656,"Ġpromieniowania":12657,"Ġpodobie":12658,"ĠMont":12659,"Ġnazwisko":12660,"ĠwywoÅĤuje":12661,"sÄħd":12662,"ĠpoÅĤudnie":12663,"Ġcyfrowych":12664,"ĠConsole":12665,"ĠPierwszy":12666,"Ġodcinka":12667,"Ġlogaryt":12668,"sive":12669,"ĠPaÅĦstwa":12670,"Ġmniejszy":12671,"ĠzainteresowaÅĦ":12672,"stream":12673,"Ġzaprze":12674,"fina":12675,"ĠÅĽnia":12676,"Ġfik":12677,"ĠÅ¼ar":12678,"Ġpoczuciem":12679,"Ġkomunikat":12680,"kanÃ³w":12681,"wic":12682,"ĠprzyjÄħÅĤ":12683,"ĠwspÃ³lnÄħ":12684,"rzostwa":12685,"ĠruchÃ³w":12686,"ĠdocelowÄħ":12687,"Ġkatastrofie":12688,"ĠstwÃ³rz":12689,"Ġprogramie":12690,"pel":12691,"dujÄħc":12692,"Ġdel":12693,"ĠjasnoÅĽÄĩ":12694,"ĠwykorzystywaÄĩ":12695,"tykÃ³w":12696,"ĠPia":12697,"ĠamerykaÅĦskiego":12698,"Ġdawno":12699,"Äĩmi":12700,"laj":12701,"kiedy":12702,"Ġdyscypli":12703,"ĠsamobÃ³j":12704,"Ġkomunikacja":12705,"ĠLouis":12706,"strÃ³j":12707,"ĠEcho":12708,"ĠmusiaÅĤa":12709,"berta":12710,"najduje":12711,"Ġprezyden":12712,"Ġrecyklingu":12713,"Ġdb":12714,"ĠwzgÃ³":12715,"Ġcharyta":12716,"Ġprzechow":12717,"ĠSaint":12718,"Ġdalszego":12719,"pper":12720,"zaÅĤ":12721,"Ġ56":12722,"ĠOdpowiedÅº":12723,"Ġwariancji":12724,"lary":12725,"ĠszeÅĽciu":12726,"Ġdzielimy":12727,"maj":12728,"Ġ\\):":12729,"ĠVII":12730,"ĠcaÅĤkowitego":12731,"Ġzespole":12732,"ĠpowodujÄħc":12733,"ĠAmeryce":12734,"Ġpokarm":12735,"Ñģ":12736,"Ġporzu":12737,"ĠstÄħd":12738,"Ġsied":12739,"Ġodegra":12740,"fli":12741,"Ġoff":12742,"ĠszeÅĽcien":12743,"ĠekspertÃ³w":12744,"Ġponie":12745,"terem":12746,"Ġswobod":12747,"Ġinstrukcjami":12748,"tycznie":12749,"gera":12750,"Ġpark":12751,"Ġdialogu":12752,"Ġprzebieg":12753,"Ġchao":12754,"ĠkontrolowaÄĩ":12755,"Ġniekoniecznie":12756,"kula":12757,"Ġwielomi":12758,"OW":12759,"rect":12760,"ĠWeÅº":12761,"ĠwykonywaÄĩ":12762,"TA":12763,"Ġzacznie":12764,"ĠrozciÄħga":12765,"liwÄħ":12766,"ĠsiÅĤÄħ":12767,"Ġ1888":12768,"Ġoryginalnej":12769,"Åļrednia":12770,"Ġosobistego":12771,"Ġsob":12772,"Ġsekwencja":12773,"Ġpomiaru":12774,"Ġdoprowa":12775,"ĠCam":12776,"ĠSzkoÅĤa":12777,"]:":12778,"Ġdome":12779,"ĠpowiedziaÅĤa":12780,"Ġmarketingowe":12781,"Ġoczywi":12782,"tacjÄħ":12783,"Ġregulacji":12784,"Ġgranica":12785,"ĠYo":12786,"Ġgodzinach":12787,"ĠNajwyÅ¼":12788,"Ġwykorzystaniem":12789,"ĠzuÅ¼ycie":12790,"dt":12791,"ÅĤko":12792,"ĠDie":12793,"ĠsamogÅĤo":12794,"ĠsilnÄħ":12795,"ĠÅ»e":12796,"ĠKarl":12797,"Ġsukcesy":12798,"tarza":12799,"ralnym":12800,"ĠXIV":12801,"ĠBrazy":12802,"Ġuprzedzenia":12803,"dzonym":12804,"Ġsatysfakcji":12805,"ĠwyglÄħd":12806,"Ġjesie":12807,"tale":12808,"ĠBrow":12809,"onem":12810,"Ġnerek":12811,"ĠwewnÄĻtrzny":12812,"rel":12813,"ĠposiÅĤkÃ³w":12814,"Ġtabel":12815,"ĠUmie":12816,"ĠmyÅĽleÄĩ":12817,"ĠksztaÅĤtu":12818,"Twoje":12819,"ĠÅĤatwy":12820,"Ġjamy":12821,"ĠMel":12822,"Ġuzbro":12823,"Ġline":12824,"Ġ39":12825,"Ġwolno":12826,"Ġdalszych":12827,"ĠEuropejskiej":12828,"ĠszansÄĻ":12829,"Ġssa":12830,"Ġpada":12831,"Ġlewo":12832,"ĠzaÅĤoÅ¼enie":12833,"ĠpotÄĻgi":12834,"Ġpochodna":12835,"letniego":12836,"zÄħd":12837,"soli":12838,"stosowanie":12839,"ĠSzwajcar":12840,"Ġwydaw":12841,"ĠFilip":12842,"szeniem":12843,"ĠsÄħd":12844,"Ġterminu":12845,"ĠWito":12846,"ĠOrderu":12847,"ĠWiÄĻkszoÅĽÄĩ":12848,"wizja":12849,"ĠDzi":12850,"Ġinwa":12851,"Ġrozw":12852,"Ġsamodzielnie":12853,"Ġdekora":12854,"Ġniemieckich":12855,"ĠwektorÃ³w":12856,"Ġinspiru":12857,"ĠbudynkÃ³w":12858,"czÄħcych":12859,"ĠangaÅ¼ujÄħcym":12860,"ĠterminÃ³w":12861,"mera":12862,"giÄħ":12863,"tywna":12864,"ĠTay":12865,"ĠgÄĻstoÅĽci":12866,"Ġcharakterze":12867,"$.<|":12868,"arnych":12869,"ĠAni":12870,"Ġnajwy":12871,"ax":12872,"rio":12873,"Ġteatralny":12874,"ĠWykorzystaj":12875,"tj":12876,"Ġstronach":12877,"Ġnietyp":12878,"Ġgrz":12879,"Ġnadziei":12880,"ĠkrÃ³lestwa":12881,"ĠnapeÅĤ":12882,"Ġdomi":12883,"Ġintro":12884,"ĠwysokÄħ":12885,"Ġzysk":12886,"ĠEmma":12887,"Ġplu":12888,"ĠCan":12889,"skami":12890,"Ġitd":12891,"Ġociep":12892,"Ġhod":12893,"Ġwielkiego":12894,"Ġstandardowego":12895,"ĠprzemyÅĽl":12896,"javascript":12897,"Ġkoor":12898,"ĠnajniÅ¼":12899,"czucia":12900,"Ġthan":12901,"ĠBarba":12902,"owskie":12903,"Ġodcie":12904,"ĠreguÅĤy":12905,"Ġpowszechnych":12906,"push":12907,"okoÅĤo":12908,"cyna":12909,"Ġfigu":12910,"Ġwykorzysta":12911,"ĠzÅĤota":12912,"ĠpÄĻche":12913,"ĠinteresujÄħce":12914,"Ġarchitektury":12915,"zywa":12916,"ĠTam":12917,"Ġhttps":12918,"ents":12919,"ĠrzekÅĤa":12920,"ĠnaprzÃ³d":12921,"Ġwitami":12922,"Ġinnowacyjnych":12923,"='":12924,"BA":12925,"ĠWir":12926,"Ġemery":12927,"iusza":12928,"Ġokna":12929,"ĠwywoÅĤaÄĩ":12930,"Ġbogaty":12931,"Ġrezerwa":12932,"ĠâĢĺ":12933,"ĠScho":12934,"Ġlamp":12935,"Ġpysz":12936,"Ġwysokich":12937,"ĠtuÅ¼":12938,"ĠwaÅ¼na":12939,"ĠartykuÅĤÃ³w":12940,"ĠwskazaÄĩ":12941,"ĠuwaÅ¼any":12942,"ĠidÄħ":12943,"ensy":12944,"Ġprzygotowany":12945,"Ġmiasteczko":12946,"Ġdziennikarka":12947,"Ġzrozumia":12948,"Å¼yÅĤa":12949,"than":12950,"ĠzdjÄĻÄĩ":12951,"ĠZam":12952,"ĠÅºle":12953,"ĠkrÃ³lowa":12954,"ĠGreen":12955,"szonego":12956,"API":12957,"Ġnami":12958,"obj":12959,"ĠczÅĤowiekiem":12960,"tai":12961,"Ġlot":12962,"ĠwyraÅºne":12963,"spekt":12964,"ĠutworÃ³w":12965,"Urodzeni":12966,"Ġmonety":12967,"Ġziemia":12968,"Ġâī¡":12969,"Ġpublikacji":12970,"Ġartefa":12971,"lation":12972,"ĠprzyjÄħÄĩ":12973,"ĠzebraÄĩ":12974,"Ġwalce":12975,"ĠzachÄĻciÄĩ":12976,"RP":12977,"Ġwyk":12978,"ĠbyÅĽ":12979,"ĠPrzej":12980,"ĠwynosiÅĤa":12981,"ROM":12982,"Ġskaz":12983,"Ġseksu":12984,"Ġprzygotowy":12985,"Ġwierszy":12986,"wielbia":12987,"hr":12988,"Ġinterpunk":12989,"Ġreklam":12990,"https":12991,"ĠwrÄĻ":12992,"szono":12993,"czysz":12994,"Ġincyd":12995,"ĠPot":12996,"hite":12997,"Ġistocie":12998,"Ġnatura":12999,"Podstaw":13000,"ĠWest":13001,"Ġozd":13002,"Ġkocha":13003,"ĠrozrÃ³Å¼":13004,"ĠStany":13005,"Ġczytelnikom":13006,"ĠwewnÄĻtrznego":13007,"ĠKrzyÅ¼":13008,"Ġzasobami":13009,"Ġnagra":13010,"wianie":13011,"noni":13012,"ĠAda":13013,"ĠRed":13014,"ĠniezaleÅ¼nych":13015,"Ġzdrowotne":13016,"ĠkonsumentÃ³w":13017,"Ġchwy":13018,"Ġalpe":13019,"Ġmalar":13020,"Ġstali":13021,"Ġback":13022,"Ġsprawdzenia":13023,"ĠpÃ³ÅĤnocnej":13024,"Ġnikt":13025,"ĠGal":13026,"Ġpolityczny":13027,"ĠProjekt":13028,"Ġpowstaje":13029,"Ġprzedmiotu":13030,"ĠorganizacjÄĻ":13031,"Ġgramatyki":13032,"Ġwyprzedzeniem":13033,"sna":13034,"sal":13035,"Ġzarabia":13036,"ardio":13037,"ĠPrzykÅĤady":13038,"Ġtestowania":13039,"Ġinfluence":13040,"lect":13041,"Ġage":13042,"sad":13043,"chodzÄħc":13044,"ĠukÅĤadÃ³w":13045,"ĠmyÅĽlÄħ":13046,"tern":13047,"ĠartykuÅĤy":13048,"ĠkreatywnoÅĽÄĩ":13049,"ĠJÄĻzy":13050,"ĠNar":13051,"Ġlesie":13052,"Ġniszczy":13053,"ĠodkrywaÄĩ":13054,"En":13055,"}-":13056,"ĠSco":13057,"fryka":13058,"Gdzie":13059,"Ġmierze":13060,"Ġrzut":13061,"ĠpobraÄĩ":13062,"Ġrowe":13063,"Ġpatri":13064,"Ġopieku":13065,"ĠzredukowaÄĩ":13066,"Ġzdaje":13067,"Ġemocjonalny":13068,"ĠdruÅ¼yny":13069,"hed":13070,"ĠnajwiÄĻkszym":13071,"ĠNarodÃ³w":13072,"Ġmarketingowych":13073,"Ġaposto":13074,"ĠbuÅĤgarski":13075,"equi":13076,"Ġocze":13077,"ĠPozna":13078,"ĠpozostajÄħ":13079,"Ġrzeczywistej":13080,"Ile":13081,"cjusz":13082,"ĠOdpowie":13083,"Test":13084,"Ġnormy":13085,"ologii":13086,"ĠnajdÅĤuÅ¼":13087,"nionego":13088,"Ġidio":13089,"Ġsing":13090,"ĠPole":13091,"Ġpsychia":13092,"++)":13093,"Ġtlenu":13094,"ĠwarstwÄĻ":13095,"iss":13096,"Ġinklu":13097,"ktorÃ³w":13098,"ĠPrawo":13099,"hat":13100,"ĠnapÄĻdza":13101,"Ã³rze":13102,"ĠApo":13103,"alth":13104,"ĠwspÃ³ÅĤczynniki":13105,"rzod":13106,"fii":13107,"Ġprowadzenie":13108,"ĠTele":13109,"Ġâī¥":13110,"ĠzÄĻba":13111,"zin":13112,"Ġdosta":13113,"Ġnieroz":13114,"ĠstaÅĤych":13115,"Ġinternetowa":13116,"Ġprawach":13117,"Ġdziewczy":13118,"Å¼nych":13119,"riÄħ":13120,"choice":13121,"Ġmagiczne":13122,"Array":13123,"ĠczÄĻstotliwoÅĽÄĩ":13124,"Ġserbski":13125,"ĠstaÅĤej":13126,"Ġekosy":13127,"www":13128,"rej":13129,"andii":13130,"spom":13131,"Ġinformacjami":13132,"Ġpotrzebnych":13133,"Ġtajemnice":13134,"ĠjapoÅĦska":13135,"ĠEuge":13136,"Ġoryginalny":13137,"ĠOtrzymasz":13138,"dÅĤem":13139,"zar":13140,"owujÄħ":13141,"Ġnieujem":13142,"ĠTem":13143,"ĠBÄĻd":13144,"rzÄħdzanie":13145,"szty":13146,"Ġprzyg":13147,"Ġ${":13148,"UÅ¼ywaj":13149,"ĠpeÅĤen":13150,"Ġrandom":13151,"ĠtowarzyszÄħ":13152,"gowanie":13153,"ĠprzechodzÄħ":13154,"ĠmaÅĤego":13155,"Ġgazu":13156,"Ġsojusz":13157,"Ġfood":13158,"ĠpapieÅ¼":13159,"Ġpowiatu":13160,"vÃ¡":13161,"Ġnajpopular":13162,"ĠNational":13163,"AI":13164,"Ġgospo":13165,"ĠsztucznÄħ":13166,"ĠwydÅĤu":13167,"calculate":13168,"Ġsmaku":13169,"Ġmonitorowanie":13170,"ĠpomysÅĤami":13171,"ĠsÅĤowacki":13172,"ĠpostÄĻ":13173,"Ġspekt":13174,"ĠMicro":13175,"ĠksztaÅĤcie":13176,"Ġprzewodnik":13177,"lop":13178,"Ġaktualizacji":13179,"Ġrewolucji":13180,"siÅĤa":13181,"Ġprofesjonalnym":13182,"prawied":13183,"sny":13184,"Ġindu":13185,"ĠKan":13186,"ĠuÅ¼ywanych":13187,"Ġarray":13188,"czesne":13189,"Ġzamku":13190,"year":13191,"Ġtelefonu":13192,"Ġoddych":13193,"Ġterrory":13194,"lnia":13195,"nionych":13196,"stami":13197,"Ġniejedno":13198,"szyÅĤa":13199,"ĠPawÅĤa":13200,"ĠLeon":13201,"Ġidea":13202,"niÄĻtych":13203,"ĠprÃ³bek":13204,"Ġinterfejs":13205,"ĠusÅĤyszeÄĩ":13206,"czymy":13207,"Ġgeneruje":13208,"02":13209,"ĠMac":13210,"Ġgraf":13211,"siach":13212,"ĠprostokÄħta":13213,"Ġzatwier":13214,"Ġotwarto":13215,"Ġgluko":13216,"ug":13217,"nelu":13218,"czkini":13219,"Ġportugalski":13220,"ql":13221,"Ġklucze":13222,"Ġsiedem":13223,"ziem":13224,"ĠhasÅĤa":13225,"dukacja":13226,"skryp":13227,"ram":13228,"Ġmocz":13229,"ĠLeonar":13230,"Ġzapotrzeb":13231,"Ġewolucji":13232,"cina":13233,"Ġuraz":13234,"Ġskutecz":13235,"ĠAlbert":13236,"Czas":13237,"rd":13238,"Ġpato":13239,"soft":13240,"dziaÅĤek":13241,"ĠRzymie":13242,")$.":13243,"tyce":13244,"Ġniepowo":13245,"ĠgÅĤu":13246,"endl":13247,"Ġadwoka":13248,"ĠIzra":13249,"Ġpotom":13250,"Ġwypadku":13251,"Ġwidoki":13252,"ĠdatÄĻ":13253,"ĠodÅ¼ywczych":13254,"szczony":13255,"ĠlepszÄħ":13256,"ĠprzytÅĤo":13257,"Ġspersonalizowane":13258,"CieszÄĻ":13259,"ÅĤoÅ¼enie":13260,"Ġlogo":13261,"ĠjÄĻzyko":13262,"ĠcieszyÄĩ":13263,"filename":13264,"ĠdochodÃ³w":13265,"Ġautomatycznie":13266,"Ġtreningu":13267,"ĠbÃ³j":13268,"Ġdocenia":13269,"niesienie":13270,"wery":13271,"biÅĤ":13272,"ĠÅĤago":13273,"Ġguz":13274,"Ġgeneru":13275,"rozumienia":13276,"Ġinstytucji":13277,"Ġklasztor":13278,"Ġwielomianu":13279,"ĠMus":13280,"ĠPosia":13281,"dÅºwie":13282,"ĠVan":13283,"Ġpunktach":13284,"Ġwybuchu":13285,"Ġosobistym":13286,"towane":13287,"Ġrent":13288,"thing":13289,"ĠdostÄĻpnoÅĽci":13290,"Ġ1887":13291,"textbf":13292,"ĠHarry":13293,"ĠdÅĤugoterminowe":13294,"Ġpodd":13295,"Ġpakie":13296,"Ġvery":13297,"ĠstosujÄħc":13298,"ĠdoskonaÅĤym":13299,"Ġumowy":13300,"ĠBezpie":13301,"ĠDel":13302,"onary":13303,"}},":13304,"ĠVIII":13305,"ÅĽlaÅĤem":13306,"noszÄħc":13307,"Ġcharakterystyczne":13308,"Ġuzyskanie":13309,"Ġcalculate":13310,"Ġantropo":13311,"ĠDemokra":13312,"gby":13313,"Ġnatk":13314,"ĠBill":13315,"ilka":13316,"Ġwspomnia":13317,"Ġkarierze":13318,"Ġsamopoczucie":13319,"Ġzarezer":13320,"lacjÄħ":13321,"urs":13322,"ÅĤoÅ¼ono":13323,"Ġwykonane":13324,"Ġbadacze":13325,"Ġwykazuje":13326,"Ġramy":13327,"ĠÅ¼ywe":13328,"Ġdodawania":13329,"chemi":13330,"Ġhome":13331,"ĠpokonaÄĩ":13332,"Przez":13333,"Ġkonkurencji":13334,"Ġfantasy":13335,"Ġmonar":13336,"ĠShe":13337,"ĠpewnoÅĽci":13338,"Ã©j":13339,"ĠwÅĤaÅĽciwoÅĽÄĩ":13340,"ĠreprezentujÄħ":13341,"ĠWindows":13342,"Ġolbrzy":13343,"aktyw":13344,"Ġprzeszcze":13345,"Ġdziedzictwa":13346,"Ġekonomiczne":13347,"ĠspoÅĤeczeÅĦstwie":13348,"ĠWydawnictwo":13349,"Fran":13350,"Ġnagro":13351,"Ġdouble":13352,"guage":13353,"Ġelektrycznych":13354,"ĠprzedsiÄĻbiorstwa":13355,"ĠpapieÅ¼a":13356,"Ġtrz":13357,"ĠModel":13358,"miaÅĤo":13359,"ĠOrderem":13360,"Ġinteresuje":13361,"ĠBadanie":13362,"Ġsprinterka":13363,"ĠzÅĤagodziÄĩ":13364,"eta":13365,"ierane":13366,"sud":13367,"Ġalterna":13368,"Ġnetto":13369,"Ġzawodowego":13370,"Ġgrecki":13371,"synte":13372,"False":13373,"ĠistniejÄħce":13374,"ĠBli":13375,"Ġminimali":13376,"Å¼aÅĤ":13377,"wiÄħzujÄħc":13378,"ĠprzyczyniajÄħ":13379,"Ġszkic":13380,"wscho":13381,"Ġpt":13382,"arna":13383,"ĠrÃ³wnÄħ":13384,"Ġjudo":13385,"ĠumoÅ¼liwiÄĩ":13386,"Ġswobodnie":13387,"dx":13388,"tomaty":13389,"Ġmagia":13390,"ĠgÅĤÄĻbokiego":13391,"ĠogÅĤosiÅĤ":13392,"ĠprÄħdu":13393,"ĠOdkry":13394,"ĠDra":13395,"dora":13396,"ĠMajÄħc":13397,"Ã³Åºniej":13398,"ĠkawaÅĤkÃ³w":13399,"leran":13400,"obby":13401,"ĠplanÃ³w":13402,"ĠmiesiÄħcach":13403,"ĠzasiÄĻg":13404,"ĠDan":13405,"ĠRyszard":13406,"ÅĤani":13407,"rer":13408,"Ġwygra":13409,"ĠChina":13410,"Ġhash":13411,"ĠfabuÅĤÄĻ":13412,"ĠPorÃ³wnaj":13413,"Ġopo":13414,"Ġkwi":13415,"ĠZaczyna":13416,"Ġfirmom":13417,"Ġ1882":13418,"ĠAustralii":13419,"cedo":13420,"pieniu":13421,"jusza":13422,"Ġpiekar":13423,"ĠwspÃ³lnej":13424,"Ġbadacz":13425,"Ġguber":13426,"ĠjednoÅĽci":13427,"Ġpodstawowej":13428,"ĠwewnÄĻtrznej":13429,"Ġambi":13430,"ĠPrawdopod":13431,"niana":13432,"ÅĤoÅ¼yÄĩ":13433,"ĠÅĽwi":13434,"orujÄħc":13435,"kano":13436,"niego":13437,"ĠspÅĤa":13438,"icha":13439,"Ġstworzeniu":13440,"Ġuwadze":13441,"price":13442,"Ġdora":13443,"Ġupad":13444,"lambda":13445,"Ġprzetwarza":13446,"demia":13447,"ĠÅºrÃ³dÅĤ":13448,"ĠmiÄĻsa":13449,"ĠangaÅ¼ujÄħcy":13450,"Ġwykorzystane":13451,"ĠsiedzibÄħ":13452,"ldots":13453,"slant":13454,"nieÅ¼d":13455,"tÃ³r":13456,"Ġrepubli":13457,"Ġistoty":13458,"ĠdokumentÃ³w":13459,"tta":13460,"Ġtlen":13461,"ĠWit":13462,"Ġobron":13463,"ĠoglÄħ":13464,"Ġwszystkimi":13465,"ĠuwaÅ¼am":13466,"Ġstolicy":13467,"Wnio":13468,"iÅĽcie":13469,"onoÅĽÄĩ":13470,"Ġzdobywa":13471,"komÃ³r":13472,"ĠzamÃ³wienia":13473,"valid":13474,"ĠThompson":13475,"LP":13476,"rzonych":13477,"Ġniemieckiej":13478,"ĠÅĤÄħcznÄħ":13479,"dzonÄħ":13480,"ciÅĤy":13481,"ĠID":13482,"kreÅĽla":13483,"Ġodpowiedzialny":13484,"Ġzabaw":13485,"Dob":13486,"ĠChin":13487,"legÅĤoÅĽÄĩ":13488,"Ġ1885":13489,"lim":13490,"Ġroot":13491,"Ġosobom":13492,"ĠoczekiwaÅĦ":13493,"ĠCieszÄĻ":13494,"SÅĤ":13495,"Ġpokre":13496,"ĠzmierzyÄĩ":13497,"Ġnapotyka":13498,"lery":13499,"Ġrozmie":13500,"âĢĿ).":13501,"ĠporÃ³wnanie":13502,"Ġdramaty":13503,"ĠspotkaÅĦ":13504,"ĠMaksy":13505,"War":13506,"txt":13507,"ĠWtedy":13508,"ĠAg":13509,"ĠabyÅĽmy":13510,"ĠWymieÅĦ":13511,"Ġniemieckie":13512,"ÅĤonkowie":13513,"ChcÄĻ":13514,"+\\":13515,"Ġbory":13516,"ĠprzeszedÅĤ":13517,"Ġgam":13518,"Ġtakty":13519,"ĠwraÅ¼li":13520,"ĠbiaÅĤe":13521,"ĠWÅĤoch":13522,"ĠChicago":13523,"Ġnawigacji":13524,"ick":13525,"Ġtho":13526,"bera":13527,"Ġpokolenia":13528,"ĠrzÄħdy":13529,"ĠspÃ³jnoÅĽci":13530,"ĠstabilnoÅĽÄĩ":13531,"ĠBlack":13532,"sowych":13533,"paÄĩ":13534,"urope":13535,"Ġpoprzedniego":13536,"ĠzapamiÄĻ":13537,"ĠciÄħgÅĤe":13538,"Ġpapieru":13539,"ĠnawiÄħzaÄĩ":13540,"Ġsrebr":13541,"create":13542,"tno":13543,"Ġupadku":13544,"Ġwierzy":13545,"ĠGil":13546,"ksjo":13547,"Ġfragmenty":13548,"Ġfer":13549,"ĠIza":13550,"Ġszkoleni":13551,"ĠÅĽledzenie":13552,"Ġbiegaczka":13553,"ĠudowodniÄĩ":13554,"Ġszklanki":13555,"igh":13556,"chel":13557,"Ġuwol":13558,"mel":13559,"gieÅĤ":13560,"Ġistotna":13561,"ĠplatformÄĻ":13562,"zacho":13563,"Ġdrewna":13564,"Ġger":13565,"Ġlip":13566,"ĠHor":13567,"ĠskrÄĻ":13568,"Ġparafia":13569,"ĠpoziomÃ³w":13570,"ĠPamiÄĻ":13571,"Ġroze":13572,"skute":13573,"ĠzauwaÅ¼a":13574,"Ġlapto":13575,"rzami":13576,"ĠAfryki":13577,"Ġodcinek":13578,"fizy":13579,"lizowany":13580,"ĠPale":13581,"ĠpochodnÄħ":13582,"ĠsklasyfikowaÄĩ":13583,"kwar":13584,"Ġzamian":13585,"Ġcyber":13586,"Ġlon":13587,"93":13588,"ĠZach":13589,"wanym":13590,"Ġmodelka":13591,"ub":13592,"Ġzasko":13593,"ust":13594,"okrÄħg":13595,"Ġchorwacki":13596,"Ġzaak":13597,"ones":13598,"Ġpacjent":13599,"psu":13600,"ĠJeÅ¼eli":13601,"Ġfale":13602,"gnacji":13603,"Ġ1886":13604,"gdyÅĽ":13605,"Ġindywidualne":13606,"jew":13607,"ĠWÅĤodzi":13608,"ĠImperium":13609,"niczych":13610,"oryzon":13611,"Ġwszystkiego":13612,"konstru":13613,"Ġinstrukcje":13614,"vector":13615,"wait":13616,"Ġmole":13617,"mocy":13618,"ĠumiejÄĻt":13619,"ĠwÄħtkÃ³w":13620,"burga":13621,"Ġrekor":13622,"ĠwspÃ³ÅĤrzÄĻdne":13623,"equiv":13624,"Ġmapy":13625,"Ġchcie":13626,"Ġlicznych":13627,"fektyw":13628,"ĠÅĽwietnie":13629,"ĠpowoÅĤ":13630,"ĠodpornoÅĽÄĩ":13631,"Ġschro":13632,"Ġiko":13633,"Ġoczach":13634,"Ġlicencji":13635,"ĠmoÅ¼liwoÅĽciÄħ":13636,"ĠcentÃ³w":13637,"ĠMay":13638,"ĠMaciej":13639,"Ġrolnictwa":13640,"Ð¾Ð":13641,"Ġwyje":13642,"ĠpolegaÄĩ":13643,"owro":13644,"onÄĻ":13645,"Ġtrau":13646,"Ġpisar":13647,"Ġkolumn":13648,"ĠnaczyÅĦ":13649,"ml":13650,"owny":13651,"Ġjezu":13652,"ĠprzejÄĻ":13653,"rick":13654,"ĠEner":13655,"ĠumysÅĤu":13656,"ĠOprÃ³cz":13657,"ujÄħcy":13658,"Ġaud":13659,"lav":13660,"ĠnajwiÄĻcej":13661,"ĠMarcin":13662,"Ġ140":13663,"Ġtematem":13664,"SC":13665,"jest":13666,"Ġzastaje":13667,"Ġwydanie":13668,"ĠreÅ¼":13669,"ĠGri":13670,"ĠskÅĤo":13671,"Ġzaprasza":13672,"ĠprzedÅĤu":13673,"Ġskra":13674,"ĠKolum":13675,"Ġbrat":13676,"Ġszybciej":13677,"moÅ¼liwia":13678,"Å¼onego":13679,"ĠkÄħtÃ³w":13680,"Ġprywatnym":13681,"ĠwdziÄĻczny":13682,"ĠuÅĽmiech":13683,"orfi":13684,"mego":13685,"Ġkoali":13686,"ĠKim":13687,"Ġteksty":13688,"Ġdwudzie":13689,"Ġszukasz":13690,"ĠfiliÅ¼":13691,"94":13692,"ream":13693,"gono":13694,"ĠKru":13695,"wiÄĻÄĩ":13696,"Ġtransmi":13697,"Ġirlandzki":13698,"ĠdoczekaÄĩ":13699,"Ġrelacja":13700,"ĠpojemnoÅĽci":13701,"jnÄħ":13702,"nka":13703,"ĠpuÅĤa":13704,"Ġwysokiego":13705,"Ġtransfer":13706,"Ġhipoteza":13707,"ĠwystÄĻpowania":13708,"ĠOsoba":13709,"ĠtysiÄħce":13710,"Ġznaleziony":13711,"ĠprzynaleÅ¼noÅĽci":13712,")^{":13713,"lany":13714,"}(":13715,"Ġpogody":13716,"ĠVin":13717,"ĠosobiÅĽcie":13718,"Ġpodziem":13719,"cd":13720,"ĠamerykaÅĦskich":13721,"Ġsepara":13722,"znaniu":13723,"ĠbliÅ¼ej":13724,"Ġblock":13725,"Ġsmak":13726,"Ã±":13727,"ĠWreszcie":13728,"tkowa":13729,"ĠPolakÃ³w":13730,"towanie":13731,"czce":13732,"Ġniere":13733,"ĠAdolf":13734,"Ġonly":13735,"Ġkompromi":13736,"Ġ1884":13737,"ĠMieszka":13738,"ĠuchwyciÄĩ":13739,"sjÄħ":13740,"Ġwork":13741,"szonÄħ":13742,"macji":13743,"Ġjednozna":13744,"Ġszczepi":13745,"ĠnastÄĻpny":13746,"ĠstabilnoÅĽci":13747,"Ġbudynek":13748,"ĠtrzÄĻsie":13749,"ĠTakie":13750,"ĠpÅĤyt":13751,"matÃ³w":13752,"kujÄħce":13753,"Zaimplementuj":13754,"Ġusuwa":13755,"Ġradyka":13756,"tacyjne":13757,"Ġbycie":13758,"Ġmetra":13759,"ĠXIII":13760,"Ġfilmie":13761,"Ġwiadomo":13762,"dacja":13763,"ĠVic":13764,"trwaÅĤ":13765,"ĠosiÄħgnie":13766,"listka":13767,"ĠPrzemy":13768,"ĠjednostkÄĻ":13769,"Ġgospodarczy":13770,"Ġmarkdown":13771,"Ġelip":13772,"Ġrozumowania":13773,"Ġniespodzie":13774,"dziem":13775,"Ġpatrzy":13776,"Ġpolecenia":13777,"wziÄĻ":13778,"Ġhipotez":13779,"chen":13780,"Ġlekarza":13781,"ĠobciÄħÅ¼enia":13782,"Format":13783,"ĠIstniejÄħ":13784,"ĠMarii":13785,"Ġkonkretnym":13786,"oph":13787,"Ġkrytyczne":13788,"Ġdokumenty":13789,"Ġczytelnikowi":13790,"Powie":13791,"Ġgard":13792,"Ġkontynua":13793,"stycznie":13794,"chodziÄĩ":13795,"chosÅĤowa":13796,"ĠRada":13797,"czaniu":13798,"Ġkwas":13799,"ĠKarola":13800,"IC":13801,"lÄħc":13802,"Ġ\"))":13803,"Ġczasownika":13804,"Ġwiatru":13805,"Ġstartu":13806,"Ġliniowe":13807,"wica":13808,"Ġakcept":13809,"Ġwalk":13810,"ĠâĪ«":13811,"Ġstrefy":13812,"Ġsezonie":13813,"Ġchan":13814,"Wygeneruj":13815,"pina":13816,"ĠstaÅĤym":13817,"ĠpomogÄĻ":13818,"ĠprzeksztaÅĤcania":13819,"ĠmoÅ¼liwy":13820,"ĠwprowadzaÄĩ":13821,"Ġobaw":13822,"ĠPierre":13823,"Ġnieprzewidy":13824,"faÅĤ":13825,"Ġ110":13826,"Å¼ymy":13827,"Ġhra":13828,"ĠgÅĤÃ³wna":13829,"ĠkrÃ³lem":13830,"Ġsubtelne":13831,"Ġusuwania":13832,"Ġcyfrowe":13833,"ĠdÅĤugich":13834,"Ġodzyska":13835,"ĠPani":13836,"ĠzmiennoÅĽÄĩ":13837,"ĠrÃ³Å¼norodnych":13838,"Ġharmoni":13839,"Ġwirtualnej":13840,"toÅĽÄĩ":13841,"minacjÄĻ":13842,"Ġrekru":13843,"SA":13844,"bez":13845,"liÄĻ":13846,"Ġlokalnym":13847,"czynku":13848,"ĠpeÅĤnÄħ":13849,"Ġdostosowania":13850,"ĠPowsta":13851,"ĠDobrze":13852,"Ġimmersyjne":13853,"ĠkÅĤo":13854,"Ġlogiki":13855,"Ġmiliona":13856,"przyro":13857,"Ġcztero":13858,"Ġszacunku":13859,"Ãº":13860,"ĠOtto":13861,"ĠStru":13862,"owisko":13863,"ify":13864,"mula":13865,"ĠPolity":13866,"Ġletni":13867,"ĠdÅĤuÅ¼ej":13868,"ĠrÄĻko":13869,"Ġchemiczne":13870,"ĠZostaÅĤ":13871,")\\":13872,"/(":13873,"Ġwg":13874,"dzaÅĤ":13875,"ĠÅ¼yÄĩ":13876,"ats":13877,"Ġgrub":13878,"Ġskuteczny":13879,"ĠczÅĤonkami":13880,"ĠstaroÅ¼ytnej":13881,"ĠwdroÅ¼enie":13882,"ig":13883,"ied":13884,"ÅĽrod":13885,"Ġgrun":13886,"Ġdecyzyj":13887,"ĠreprezentacjÄĻ":13888,"Ġpowiado":13889,"seudo":13890,"ĠlodÃ³w":13891,"ĠoglÄħd":13892,"Ġkryteria":13893,"ĠzagroÅ¼enie":13894,"Ġwykona":13895,"ĠspÄĻdza":13896,"cznika":13897,"ĠAC":13898,"Ġpoety":13899,"ĠobsÅĤuÅ¼yÄĩ":13900,"Ġbadawczego":13901,"Ġused":13902,"ĠAN":13903,"pair":13904,"ĠPremiera":13905,"ĠOj":13906,"rzÄħdek":13907,"Ġarku":13908,"ĠzmieniajÄħ":13909,"sha":13910,"Ġzakaz":13911,"ĠWia":13912,"****":13913,"###":13914,"walifik":13915,"Ġzapobiega":13916,"Ġpojazdu":13917,"SO":13918,"Sarah":13919,"email":13920,"Ġzmart":13921,"stÄĻpujÄħc":13922,"Ġwarstwa":13923,"2022":13924,"Ġstrasz":13925,"ĠmniejszÄħ":13926,"except":13927,"Ġwarzywa":13928,"ĠMieczysÅĤaw":13929,"naczyni":13930,"ĠciÄħgi":13931,"ĠWielkopol":13932,"Ġ1879":13933,"ĠSpÄĻ":13934,"Ġszyfr":13935,"ĠpoÅĤudniowej":13936,"Ġwyzwaniami":13937,"ĠÅ¼oÅĤÄħd":13938,"Ġprosi":13939,"ĠBit":13940,"ĠZdanie":13941,"ĠpaÅĤa":13942,"ĠLan":13943,"ĠVo":13944,"ĠÅĽwietle":13945,"Ġstyle":13946,"Ġnajlepszym":13947,"Ġazo":13948,"korea":13949,"Ġprzygod":13950,"ĠWyd":13951,"Ġfazy":13952,"ĠpisaÄĩ":13953,"ĠdokÅĤadnoÅĽci":13954,"Ġstarego":13955,"Ġkodowania":13956,"Ġtorpe":13957,"Ġargs":13958,"Ġniepotrzeb":13959,"Ġzachodniej":13960,"ĠHenryka":13961,"ĠJim":13962,"Ġrozgry":13963,
[...]
